const unsigned char model[] = {
  0x1c, 0x00, 0x00, 0x00, 0x54, 0x46, 0x4c, 0x33, 0x00, 0x00, 0x12, 0x00,
  0x1c, 0x00, 0x04, 0x00, 0x08, 0x00, 0x0c, 0x00, 0x10, 0x00, 0x14, 0x00,
  0x00, 0x00, 0x18, 0x00, 0x12, 0x00, 0x00, 0x00, 0x03, 0x00, 0x00, 0x00,
  0x24, 0x52, 0x00, 0x00, 0x18, 0x00, 0x00, 0x00, 0x1c, 0x00, 0x00, 0x00,
  0x2c, 0x00, 0x00, 0x00, 0x04, 0x00, 0x00, 0x00, 0x01, 0x00, 0x00, 0x00,
  0xbc, 0x00, 0x00, 0x00, 0x01, 0x00, 0x00, 0x00, 0xe4, 0x00, 0x00, 0x00,
  0x0f, 0x00, 0x00, 0x00, 0x54, 0x4f, 0x43, 0x4f, 0x20, 0x43, 0x6f, 0x6e,
  0x76, 0x65, 0x72, 0x74, 0x65, 0x64, 0x2e, 0x00, 0x0c, 0x00, 0x00, 0x00,
  0x88, 0x00, 0x00, 0x00, 0x7c, 0x00, 0x00, 0x00, 0x68, 0x00, 0x00, 0x00,
  0x54, 0x00, 0x00, 0x00, 0x48, 0x00, 0x00, 0x00, 0x40, 0x00, 0x00, 0x00,
  0x38, 0x00, 0x00, 0x00, 0x2c, 0x00, 0x00, 0x00, 0x20, 0x00, 0x00, 0x00,
  0x18, 0x00, 0x00, 0x00, 0x10, 0x00, 0x00, 0x00, 0x04, 0x00, 0x00, 0x00,
  0xb6, 0xff, 0xff, 0xff, 0x58, 0x00, 0x00, 0x00, 0xe4, 0xae, 0xff, 0xff,
  0xe8, 0xae, 0xff, 0xff, 0xc6, 0xff, 0xff, 0xff, 0xd8, 0x01, 0x00, 0x00,
  0xce, 0xff, 0xff, 0xff, 0x34, 0x42, 0x00, 0x00, 0xfc, 0xae, 0xff, 0xff,
  0x00, 0xaf, 0xff, 0xff, 0xde, 0xff, 0xff, 0xff, 0x5c, 0x43, 0x00, 0x00,
  0xf6, 0xff, 0xff, 0xff, 0xb8, 0x4c, 0x00, 0x00, 0x00, 0x00, 0x06, 0x00,
  0x0a, 0x00, 0x04, 0x00, 0x06, 0x00, 0x00, 0x00, 0x0c, 0x4e, 0x00, 0x00,
  0x00, 0x00, 0x06, 0x00, 0x08, 0x00, 0x04, 0x00, 0x06, 0x00, 0x00, 0x00,
  0x88, 0x4f, 0x00, 0x00, 0x34, 0xaf, 0xff, 0xff, 0x05, 0x00, 0x00, 0x00,
  0x31, 0x2e, 0x35, 0x2e, 0x30, 0x00, 0x00, 0x00, 0x4c, 0xff, 0xff, 0xff,
  0x08, 0x00, 0x00, 0x00, 0x0b, 0x00, 0x00, 0x00, 0x13, 0x00, 0x00, 0x00,
  0x6d, 0x69, 0x6e, 0x5f, 0x72, 0x75, 0x6e, 0x74, 0x69, 0x6d, 0x65, 0x5f,
  0x76, 0x65, 0x72, 0x73, 0x69, 0x6f, 0x6e, 0x00, 0x0c, 0x00, 0x14, 0x00,
  0x04, 0x00, 0x08, 0x00, 0x0c, 0x00, 0x10, 0x00, 0x0c, 0x00, 0x00, 0x00,
  0x20, 0x00, 0x00, 0x00, 0x14, 0x00, 0x00, 0x00, 0x08, 0x00, 0x00, 0x00,
  0x38, 0x50, 0x00, 0x00, 0x01, 0x00, 0x00, 0x00, 0x00, 0x00, 0x00, 0x00,
  0x01, 0x00, 0x00, 0x00, 0x09, 0x00, 0x00, 0x00, 0x0a, 0x00, 0x00, 0x00,
  0x80, 0x00, 0x00, 0x00, 0x4c, 0x42, 0x00, 0x00, 0xc4, 0x4b, 0x00, 0x00,
  0xe8, 0x41, 0x00, 0x00, 0xa4, 0x00, 0x00, 0x00, 0x1c, 0x4d, 0x00, 0x00,
  0x80, 0x41, 0x00, 0x00, 0x88, 0x4e, 0x00, 0x00, 0x10, 0x41, 0x00, 0x00,
  0x04, 0x00, 0x00, 0x00, 0x92, 0xb1, 0xff, 0xff, 0x24, 0x00, 0x00, 0x00,
  0x0a, 0x00, 0x00, 0x00, 0x08, 0x00, 0x00, 0x00, 0x2c, 0x00, 0x00, 0x00,
  0x0d, 0x00, 0x00, 0x00, 0x64, 0x65, 0x6e, 0x73, 0x65, 0x5f, 0x33, 0x5f,
  0x69, 0x6e, 0x70, 0x75, 0x74, 0x00, 0x00, 0x00, 0x02, 0x00, 0x00, 0x00,
  0x01, 0x00, 0x00, 0x00, 0x09, 0x00, 0x00, 0x00, 0x08, 0x00, 0x0c, 0x00,
  0x04, 0x00, 0x08, 0x00, 0x08, 0x00, 0x00, 0x00, 0x10, 0x00, 0x00, 0x00,
  0x04, 0x00, 0x00, 0x00, 0x01, 0x00, 0x00, 0x00, 0x00, 0x00, 0x7f, 0x43,
  0x01, 0x00, 0x00, 0x00, 0x00, 0x00, 0x00, 0x00, 0xea, 0xb1, 0xff, 0xff,
  0x20, 0x00, 0x00, 0x00, 0x09, 0x00, 0x00, 0x00, 0x08, 0x00, 0x00, 0x00,
  0x20, 0x00, 0x00, 0x00, 0x08, 0x00, 0x00, 0x00, 0x49, 0x64, 0x65, 0x6e,
  0x74, 0x69, 0x74, 0x79, 0x00, 0x00, 0x00, 0x00, 0x02, 0x00, 0x00, 0x00,
  0x01, 0x00, 0x00, 0x00, 0x01, 0x00, 0x00, 0x00, 0x4c, 0xb0, 0xff, 0xff,
  0x1e, 0xb2, 0xff, 0xff, 0x64, 0x00, 0x00, 0x00, 0x08, 0x00, 0x00, 0x00,
  0x08, 0x00, 0x00, 0x00, 0x64, 0x00, 0x00, 0x00, 0x4c, 0x00, 0x00, 0x00,
  0x53, 0x74, 0x61, 0x74, 0x65, 0x66, 0x75, 0x6c, 0x50, 0x61, 0x72, 0x74,
  0x69, 0x74, 0x69, 0x6f, 0x6e, 0x65, 0x64, 0x43, 0x61, 0x6c, 0x6c, 0x2f,
  0x73, 0x65, 0x71, 0x75, 0x65, 0x6e, 0x74, 0x69, 0x61, 0x6c, 0x5f, 0x31,
  0x2f, 0x64, 0x65, 0x6e, 0x73, 0x65, 0x5f, 0x34, 0x2f, 0x4d, 0x61, 0x74,
  0x4d, 0x75, 0x6c, 0x2f, 0x52, 0x65, 0x61, 0x64, 0x56, 0x61, 0x72, 0x69,
  0x61, 0x62, 0x6c, 0x65, 0x4f, 0x70, 0x2f, 0x74, 0x72, 0x61, 0x6e, 0x73,
  0x70, 0x6f, 0x73, 0x65, 0x00, 0x00, 0x00, 0x00, 0x02, 0x00, 0x00, 0x00,
  0x40, 0x00, 0x00, 0x00, 0x40, 0x00, 0x00, 0x00, 0xc4, 0xb0, 0xff, 0xff,
  0x00, 0x40, 0x00, 0x00, 0x1b, 0xc0, 0xd3, 0x3d, 0x2b, 0xe1, 0x8e, 0xbd,
  0x01, 0xaa, 0x4e, 0x3d, 0x04, 0x7b, 0x9c, 0x3e, 0xf8, 0xb0, 0xdf, 0x3c,
  0x67, 0x04, 0x42, 0x3e, 0xae, 0x17, 0x2a, 0xbe, 0x45, 0x23, 0x82, 0x3e,
  0x24, 0x89, 0x00, 0x3e, 0xa7, 0xcb, 0x92, 0xba, 0xc4, 0x6c, 0x76, 0x3e,
  0x8c, 0x64, 0xd7, 0x3d, 0xc1, 0x63, 0x33, 0x3e, 0xa5, 0xef, 0x46, 0x3e,
  0xa8, 0xdb, 0xbe, 0xbc, 0x86, 0xee, 0x9b, 0x3d, 0x8f, 0x59, 0xf5, 0x3d,
  0xcd, 0x47, 0xb5, 0x3d, 0x9d, 0xe9, 0x43, 0x3e, 0xea, 0x96, 0x9c, 0x3d,
  0x99, 0xc8, 0x67, 0x3e, 0x29, 0x61, 0x8d, 0xbd, 0xe1, 0x75, 0x83, 0x3e,
  0x72, 0x44, 0x26, 0x3e, 0x99, 0xd3, 0x40, 0x3e, 0x2e, 0x96, 0x2d, 0xbc,
  0xba, 0x63, 0x28, 0x3d, 0xf3, 0x2c, 0xfb, 0x3c, 0x5d, 0x8b, 0x8e, 0xbd,
  0x89, 0x2f, 0xbc, 0x3d, 0xbc, 0x55, 0xdf, 0x3d, 0xd1, 0x34, 0xc3, 0x3d,
  0xf3, 0x50, 0xd2, 0xbd, 0x98, 0x11, 0x24, 0x3d, 0x5e, 0xfa, 0x3d, 0x3e,
  0x95, 0xfd, 0x20, 0x3e, 0xf2, 0xa6, 0x44, 0x3d, 0x84, 0xc9, 0x8e, 0x3e,
  0x89, 0x82, 0x5a, 0x3e, 0xad, 0x11, 0x74, 0xbd, 0x89, 0x50, 0xf0, 0x3d,
  0x5a, 0xaf, 0xd0, 0xbd, 0x83, 0xd2, 0x8f, 0x3e, 0x1b, 0xff, 0x7b, 0x3e,
  0xa6, 0x01, 0xf5, 0xbb, 0xaa, 0xa3, 0x6e, 0x3e, 0x4b, 0xd9, 0xf6, 0xbc,
  0xd0, 0x09, 0x22, 0x3e, 0x92, 0x5f, 0x85, 0x3e, 0xea, 0x01, 0x4a, 0x3e,
  0xc0, 0x24, 0x3e, 0x3e, 0x3a, 0x8d, 0xdc, 0xbd, 0xfa, 0xec, 0xac, 0xbd,
  0xea, 0x67, 0x9f, 0x3e, 0xc1, 0xbb, 0xa2, 0x3d, 0x55, 0x87, 0x8e, 0x3e,
  0xd5, 0xfb, 0x3e, 0x3e, 0x1a, 0x0b, 0x1c, 0x3e, 0x57, 0x96, 0x56, 0xbd,
  0xac, 0xc6, 0x8c, 0xbd, 0x8f, 0xf4, 0xca, 0x3d, 0xf8, 0xf7, 0xd8, 0xbc,
  0xe3, 0xc3, 0x16, 0xbd, 0xa5, 0x79, 0x50, 0x3d, 0xf2, 0x39, 0x43, 0xbe,
  0x70, 0x92, 0xb3, 0xbd, 0xd2, 0xf9, 0x26, 0xbe, 0xd3, 0x83, 0x44, 0x3e,
  0xc1, 0xae, 0x27, 0x3e, 0xe1, 0x9c, 0x17, 0x3e, 0x7e, 0x45, 0x41, 0xbe,
  0x58, 0xbf, 0x8d, 0x3c, 0x89, 0x88, 0x55, 0x3e, 0x01, 0x49, 0x38, 0xbe,
  0x33, 0xe0, 0x5b, 0x3e, 0x3e, 0xf1, 0x16, 0xbe, 0x84, 0x22, 0x29, 0xbd,
  0xee, 0xb8, 0xed, 0xbd, 0x0e, 0x69, 0x10, 0xbe, 0xf3, 0x31, 0xfc, 0xbd,
  0x48, 0xb4, 0xaf, 0xbc, 0x36, 0x78, 0x59, 0xbe, 0x43, 0xbf, 0x2f, 0x3e,
  0x65, 0x3e, 0x11, 0x3e, 0x5e, 0xaa, 0x95, 0xbd, 0xec, 0xd7, 0x39, 0xbd,
  0xb8, 0x60, 0xf5, 0x3c, 0xe6, 0x54, 0xd1, 0x3d, 0xc0, 0xb1, 0x3b, 0xbb,
  0x92, 0xb7, 0x9c, 0x3d, 0x20, 0x16, 0x32, 0xbd, 0x60, 0x33, 0x88, 0xbc,
  0xb7, 0x10, 0x14, 0x3e, 0x38, 0x0a, 0xb6, 0xbc, 0x09, 0xaa, 0x2d, 0xbe,
  0x17, 0x74, 0xc8, 0xbd, 0xb0, 0x2b, 0x12, 0xbe, 0xb2, 0x16, 0x8b, 0x3d,
  0xcb, 0xb8, 0xf7, 0xbd, 0x3c, 0x3e, 0x32, 0xbd, 0xaf, 0xad, 0x2c, 0x3e,
  0x68, 0x5a, 0xc0, 0xbc, 0x9f, 0x52, 0x0e, 0xbe, 0x1e, 0xd8, 0x9a, 0x3d,
  0xfa, 0x9f, 0xf6, 0x3d, 0x80, 0x74, 0x5e, 0x3c, 0xb6, 0xa6, 0x04, 0xbe,
  0x70, 0x4d, 0x40, 0x3c, 0x40, 0xbb, 0x9e, 0x3b, 0x23, 0x26, 0x05, 0xbe,
  0x37, 0x7e, 0x24, 0xbe, 0xa1, 0xd5, 0xd5, 0xbd, 0x0e, 0x06, 0x00, 0xbe,
  0x39, 0x20, 0x1f, 0x3e, 0x4d, 0xff, 0x2b, 0xbe, 0x90, 0x52, 0x3e, 0x3c,
  0x19, 0x19, 0x4e, 0x3e, 0x90, 0xe6, 0x1b, 0xbe, 0x77, 0xc4, 0x1b, 0x3e,
  0xce, 0xe6, 0xd3, 0x3d, 0x9e, 0x95, 0x91, 0xbd, 0x48, 0x45, 0xc4, 0x3c,
  0xe0, 0xfd, 0x4c, 0xbc, 0x32, 0x89, 0xc8, 0x3d, 0x9a, 0x01, 0x9c, 0xbd,
  0xda, 0xd0, 0x1c, 0xbe, 0x35, 0x65, 0x4b, 0xbe, 0xba, 0x62, 0x95, 0x3d,
  0xb0, 0xd7, 0x12, 0xbe, 0xd1, 0xb8, 0x22, 0xbd, 0x0a, 0x7d, 0xce, 0xbd,
  0x9a, 0x5a, 0x05, 0x3e, 0x0e, 0x76, 0x28, 0xbe, 0xb6, 0xe3, 0x0e, 0x3d,
  0xa2, 0x9a, 0x00, 0xbe, 0x29, 0x2b, 0xc5, 0x3c, 0x06, 0x0b, 0x0f, 0xbe,
  0x43, 0x87, 0xd3, 0xbc, 0x57, 0x02, 0xc5, 0x3d, 0x7e, 0x69, 0x69, 0xbe,
  0x06, 0x55, 0x8a, 0x3c, 0x1c, 0x02, 0x1e, 0x3e, 0xb7, 0xb3, 0x61, 0xbe,
  0xe4, 0x25, 0x6d, 0xbb, 0xf0, 0x9e, 0x35, 0xbe, 0x44, 0xff, 0x9a, 0x3c,
  0xf2, 0x9a, 0x81, 0x3e, 0x2b, 0x55, 0x32, 0x3e, 0x66, 0x61, 0x75, 0x3e,
  0x85, 0x64, 0x94, 0xbd, 0x96, 0x25, 0x7f, 0xbe, 0x46, 0xf7, 0xe6, 0xbd,
  0xc4, 0xda, 0x66, 0xbd, 0x4f, 0x25, 0x5a, 0x3d, 0xe3, 0xe1, 0x8b, 0x3d,
  0xb5, 0xed, 0xb0, 0x3d, 0xd1, 0xaa, 0x85, 0x3d, 0x3e, 0x49, 0x0f, 0x3e,
  0xa7, 0xa6, 0x2b, 0x3e, 0x17, 0x10, 0xb0, 0x3d, 0x1e, 0x09, 0xfb, 0x3c,
  0x32, 0x5c, 0x34, 0x3e, 0x19, 0x53, 0xc9, 0x3d, 0x60, 0xec, 0x16, 0x3e,
  0x5f, 0x25, 0x6a, 0x3e, 0x0c, 0x9b, 0x78, 0x3d, 0xcc, 0x8c, 0x1e, 0xbe,
  0xa4, 0x60, 0x23, 0xbe, 0x15, 0x55, 0x16, 0xbe, 0x14, 0x91, 0x7f, 0xbe,
  0x7b, 0x34, 0x28, 0xbe, 0xcc, 0x05, 0xf9, 0x3c, 0xa5, 0xc7, 0x25, 0xbe,
  0x47, 0xd5, 0x21, 0x3e, 0x40, 0xc7, 0x45, 0x3e, 0x3b, 0xa5, 0x6b, 0x3e,
  0xb7, 0x81, 0x52, 0x3e, 0x04, 0x29, 0xa6, 0xbd, 0xfb, 0xaa, 0xa3, 0xbd,
  0xfc, 0xe4, 0x38, 0xbd, 0x40, 0x83, 0x1a, 0x3e, 0x70, 0xe9, 0x64, 0xbd,
  0x29, 0xf6, 0x23, 0x3d, 0x3e, 0x2e, 0x1a, 0x3b, 0x9e, 0xf6, 0xa1, 0x3c,
  0xb2, 0x45, 0x06, 0x3d, 0x1b, 0x1e, 0x08, 0x3e, 0x4b, 0xf8, 0x39, 0xbe,
  0x3e, 0x36, 0x01, 0xbe, 0xd2, 0x05, 0x25, 0x3d, 0x1e, 0xeb, 0x08, 0x3e,
  0x18, 0x9e, 0x61, 0xbe, 0x33, 0x67, 0x8c, 0xbd, 0x83, 0x52, 0x22, 0xbd,
  0x82, 0xca, 0xb6, 0xbc, 0x79, 0x89, 0xd3, 0x3d, 0x69, 0x9b, 0x3c, 0xbd,
  0x1f, 0x9c, 0xca, 0xbd, 0x4b, 0x9b, 0x49, 0x3d, 0x91, 0x24, 0x59, 0x3d,
  0xb8, 0x3e, 0xb3, 0x3d, 0x2b, 0x2a, 0x27, 0x3e, 0xd3, 0xd4, 0x03, 0x3e,
  0xbe, 0x1a, 0x9f, 0xbb, 0xbd, 0xa6, 0x1b, 0xbc, 0x9a, 0x0b, 0xcd, 0x3d,
  0xe9, 0xca, 0x83, 0xbb, 0x96, 0xfc, 0x05, 0xbe, 0x61, 0x2c, 0x5f, 0x3d,
  0x9d, 0x28, 0x07, 0x3e, 0x46, 0xd5, 0x84, 0xbe, 0x16, 0xa0, 0x2a, 0x3e,
  0x0e, 0x8a, 0x70, 0xbe, 0xf9, 0x31, 0xd0, 0xbd, 0x58, 0x58, 0xb4, 0xbb,
  0x0d, 0x47, 0x29, 0x3e, 0xd6, 0xce, 0x9d, 0xbd, 0xd4, 0xf9, 0x93, 0xbd,
  0xae, 0x89, 0x2d, 0x3d, 0x91, 0xbb, 0xe8, 0x3d, 0x63, 0x5c, 0x5c, 0xbe,
  0x68, 0xf5, 0x69, 0xbe, 0x65, 0x1f, 0x55, 0xbe, 0xba, 0xb1, 0x11, 0xbe,
  0x85, 0x1e, 0x39, 0xbe, 0x36, 0x12, 0xfb, 0x3d, 0xbe, 0x46, 0x12, 0x3e,
  0x3c, 0x5b, 0x10, 0x3e, 0xe8, 0x62, 0x88, 0xbc, 0x43, 0xc6, 0xf3, 0x3d,
  0x55, 0x24, 0x71, 0xbe, 0xee, 0x2f, 0xa1, 0xbc, 0x3a, 0x23, 0x3b, 0xbe,
  0x13, 0x8c, 0xb0, 0xbd, 0x46, 0x21, 0xc7, 0xbc, 0x7c, 0x41, 0x4d, 0xbe,
  0xf2, 0x3b, 0x2b, 0x3e, 0x8b, 0x31, 0x98, 0x3d, 0xa0, 0x70, 0x4d, 0xbd,
  0x3a, 0x82, 0xb7, 0x3d, 0xd5, 0x28, 0x40, 0xbd, 0xfa, 0xb3, 0x2e, 0xbe,
  0xa4, 0x70, 0x09, 0xbd, 0x9c, 0xfd, 0x5b, 0xbd, 0x15, 0x05, 0x32, 0xbe,
  0x3f, 0x3c, 0x26, 0x3e, 0xae, 0x18, 0x82, 0xbd, 0x2c, 0x0e, 0x39, 0x3d,
  0x9d, 0x4b, 0x7d, 0xbe, 0xdf, 0x28, 0x9d, 0x3d, 0x28, 0xe9, 0xb1, 0xbc,
  0xe3, 0x0b, 0x07, 0x3e, 0xa1, 0x63, 0xd0, 0x3d, 0x9f, 0x46, 0x0e, 0x3e,
  0x79, 0x4b, 0x20, 0xbe, 0xda, 0x06, 0xef, 0xbb, 0xf9, 0x39, 0x79, 0x3e,
  0x18, 0x82, 0xac, 0x3e, 0xf7, 0xdc, 0x5d, 0x3e, 0xaf, 0xad, 0x29, 0x3e,
  0x6c, 0xe3, 0xd3, 0xbd, 0x47, 0x51, 0xb2, 0x3e, 0xf9, 0xb6, 0xec, 0x3c,
  0x0b, 0xd8, 0xca, 0x3d, 0x66, 0x20, 0x23, 0x3e, 0xa9, 0x7b, 0xc7, 0xbd,
  0x45, 0x2f, 0x57, 0x3d, 0x31, 0x76, 0x41, 0xbd, 0x69, 0xa0, 0x9c, 0x3d,
  0x33, 0x62, 0x21, 0x3e, 0x3c, 0x2a, 0x83, 0x3e, 0xec, 0xf4, 0x8b, 0x3e,
  0x7d, 0xc1, 0x98, 0x3d, 0x79, 0xb4, 0x74, 0x3d, 0xed, 0x07, 0x14, 0xbd,
  0xd3, 0x2f, 0x1e, 0x3e, 0x0e, 0x9c, 0x61, 0x3c, 0xb7, 0x59, 0xc7, 0x3d,
  0xbd, 0x7c, 0x82, 0xba, 0xd2, 0xb1, 0x19, 0x3c, 0x9e, 0xe5, 0x9a, 0x3e,
  0xdf, 0x56, 0xfa, 0x3d, 0x30, 0x16, 0xa2, 0x3d, 0x4f, 0x20, 0x97, 0x3e,
  0x80, 0x66, 0x3c, 0x3e, 0xec, 0x15, 0x50, 0x3e, 0x71, 0x90, 0x60, 0xbd,
  0xb0, 0x4f, 0xe7, 0x3d, 0xaa, 0x8c, 0x47, 0x3e, 0xfb, 0x1e, 0xa8, 0x3e,
  0x1a, 0xb5, 0xfb, 0x3c, 0x60, 0xfe, 0xc6, 0xbc, 0x38, 0xe4, 0x83, 0x3d,
  0xc9, 0xd7, 0xa9, 0x3e, 0x9a, 0x8d, 0xdf, 0x3d, 0x33, 0x11, 0xbf, 0xbd,
  0x8a, 0xf1, 0xa8, 0x3e, 0xd0, 0x1d, 0x3f, 0xbd, 0x4c, 0xae, 0x43, 0x3d,
  0x2f, 0x8c, 0x3d, 0x3d, 0x39, 0xca, 0x54, 0x3e, 0xe3, 0x83, 0x36, 0x3e,
  0xb4, 0x3b, 0xfe, 0xbb, 0x09, 0x29, 0xab, 0x3d, 0xba, 0x38, 0x16, 0x3e,
  0x76, 0x73, 0x9b, 0x3d, 0x90, 0x6c, 0x98, 0x3e, 0x8c, 0x61, 0x8a, 0x3e,
  0xfd, 0x80, 0x50, 0x3e, 0x64, 0xf2, 0x44, 0x3d, 0xb7, 0xf1, 0x18, 0x3e,
  0x5d, 0x76, 0x9c, 0x3c, 0x2c, 0xa2, 0x8f, 0x3e, 0x9d, 0xcf, 0xb4, 0xbd,
  0x6c, 0x89, 0xd7, 0xbc, 0xbb, 0x78, 0xaf, 0xbc, 0x68, 0xdd, 0xb7, 0x3e,
  0xb7, 0x14, 0x14, 0xbd, 0xa7, 0x23, 0x01, 0xbd, 0x0e, 0x50, 0xa8, 0x3e,
  0xa6, 0x00, 0x8f, 0x3e, 0x7b, 0x1c, 0xca, 0x3d, 0x42, 0x8d, 0x19, 0x3e,
  0xaa, 0xaa, 0xfc, 0x3d, 0xf1, 0xa1, 0x7d, 0x3e, 0xa6, 0xd4, 0x46, 0xbc,
  0xdf, 0xfe, 0x9e, 0x3d, 0x6f, 0x2d, 0x66, 0x3e, 0xd2, 0x21, 0x79, 0x3e,
  0xbe, 0xb0, 0x32, 0x3e, 0x09, 0x2b, 0x07, 0x3e, 0xf2, 0x50, 0x66, 0x3d,
  0xad, 0x01, 0xa6, 0x3e, 0x03, 0x67, 0xb0, 0x3d, 0xfc, 0xc4, 0x59, 0x3e,
  0xf5, 0x68, 0x84, 0x3c, 0xa8, 0x06, 0x86, 0x3e, 0x4f, 0x68, 0x8b, 0x3e,
  0x5b, 0xf0, 0x8a, 0x3d, 0x6d, 0xd5, 0x53, 0x3e, 0x53, 0xb8, 0x88, 0x3e,
  0xe1, 0x74, 0x23, 0x3e, 0xb9, 0xac, 0xbb, 0x3e, 0x1f, 0x05, 0x3b, 0x3d,
  0x93, 0x33, 0xc8, 0x3e, 0x8e, 0x1e, 0xbf, 0x3d, 0x1f, 0x43, 0xd0, 0x3d,
  0xed, 0xab, 0x85, 0x3e, 0x30, 0x07, 0xa3, 0x3e, 0xad, 0xa2, 0x93, 0x3e,
  0xb4, 0xc3, 0x97, 0x3e, 0x8f, 0x3c, 0x31, 0x3e, 0x02, 0x48, 0x35, 0x3e,
  0x23, 0xee, 0x43, 0x3e, 0x11, 0x29, 0x12, 0x3e, 0x7d, 0x0c, 0xaf, 0x3d,
  0x03, 0x3c, 0xf4, 0xbc, 0xa4, 0x8d, 0x31, 0x3a, 0x48, 0x44, 0xdf, 0x3d,
  0x67, 0x1e, 0x96, 0x3e, 0xea, 0x78, 0x5b, 0xbd, 0xbb, 0x22, 0xa2, 0xbd,
  0x0e, 0xd3, 0x39, 0x3e, 0x86, 0x14, 0xd2, 0xbd, 0xde, 0x7c, 0xa5, 0x3d,
  0xa0, 0x7d, 0x8e, 0x3d, 0xcc, 0xfd, 0x52, 0x3e, 0x29, 0x8a, 0x6b, 0x3e,
  0x52, 0xc6, 0x10, 0x3d, 0x11, 0x50, 0xa4, 0x3e, 0xec, 0xbc, 0xa2, 0x3d,
  0xf6, 0xa0, 0x59, 0x3d, 0x02, 0x2f, 0x83, 0x3e, 0x07, 0x87, 0xc3, 0x3e,
  0xee, 0x38, 0xdc, 0xbd, 0x8c, 0x20, 0xcc, 0x3d, 0x77, 0x37, 0x00, 0xbd,
  0x54, 0x4a, 0x09, 0xbd, 0x88, 0x05, 0x40, 0xbd, 0x62, 0xaf, 0x86, 0x3d,
  0x30, 0xb0, 0xae, 0x3b, 0x9f, 0xf6, 0x85, 0x3c, 0xf2, 0x5f, 0x15, 0x3e,
  0x32, 0xe9, 0x2a, 0x3d, 0xca, 0x43, 0x9e, 0x3b, 0x85, 0xdb, 0x1c, 0x3e,
  0x6d, 0xd7, 0x87, 0xbe, 0xc2, 0x19, 0x55, 0x3e, 0x49, 0x06, 0xe0, 0xbe,
  0xd6, 0x35, 0x9a, 0x3c, 0x9c, 0xc3, 0xb3, 0xbe, 0xfc, 0x22, 0xb2, 0x3c,
  0x9a, 0x73, 0xac, 0xbc, 0x30, 0x6b, 0x6c, 0xbd, 0x70, 0x73, 0x33, 0x3c,
  0xfc, 0x11, 0x25, 0xbe, 0x08, 0x69, 0xec, 0xb8, 0xb5, 0x56, 0x3f, 0x3b,
  0xd0, 0x15, 0xbb, 0xbd, 0x5b, 0x9f, 0x49, 0xbe, 0xff, 0xe7, 0x64, 0xbe,
  0x98, 0xec, 0xea, 0x3c, 0xf7, 0xc9, 0x59, 0xbe, 0x2d, 0x7e, 0x0f, 0xbd,
  0xbe, 0xd1, 0x95, 0x3a, 0x38, 0x54, 0xda, 0xbd, 0x3d, 0xbf, 0x41, 0x3e,
  0x18, 0xc5, 0xae, 0xbb, 0x54, 0x4c, 0x05, 0x3e, 0xf0, 0x22, 0x84, 0x3e,
  0x70, 0x67, 0xbd, 0xbd, 0xca, 0xf7, 0x91, 0xbd, 0xa0, 0x9e, 0x39, 0xbc,
  0xca, 0xaa, 0xbb, 0xbd, 0x56, 0xe0, 0x4b, 0xbc, 0xff, 0xf0, 0x9b, 0x3d,
  0x70, 0xd1, 0x27, 0xbe, 0xb1, 0x32, 0x19, 0x3d, 0x98, 0x37, 0x95, 0x3e,
  0xff, 0xfe, 0xbe, 0x3d, 0xb7, 0x29, 0xc0, 0xbe, 0xc4, 0x67, 0x0a, 0x3c,
  0xe6, 0xaf, 0xe0, 0xbd, 0xd7, 0xe5, 0x5c, 0x3e, 0x50, 0x1b, 0x46, 0xbc,
  0x01, 0x67, 0x6c, 0xbe, 0xc2, 0x4e, 0x37, 0x3d, 0xc8, 0x66, 0x59, 0xba,
  0x4d, 0x83, 0x15, 0xbd, 0x3b, 0x11, 0x12, 0xbe, 0xd2, 0x0b, 0xaa, 0x3d,
  0xda, 0x71, 0xcc, 0xbd, 0xe5, 0x66, 0xd8, 0xbd, 0xac, 0xbd, 0xc1, 0x3d,
  0x55, 0xd6, 0x75, 0xbe, 0xfe, 0x1a, 0x2c, 0x3d, 0xaf, 0xc2, 0x11, 0xbc,
  0xcd, 0x9a, 0x20, 0xbe, 0x93, 0xb5, 0x53, 0x3e, 0xbe, 0x35, 0x59, 0x3d,
  0xc5, 0x07, 0x24, 0x3d, 0xa5, 0xba, 0x65, 0x3e, 0x18, 0xd7, 0x78, 0xbc,
  0x28, 0xb8, 0x08, 0xbd, 0x5f, 0x69, 0x2d, 0xbd, 0x37, 0xc0, 0x56, 0xbe,
  0x43, 0xb2, 0x57, 0x3e, 0xdd, 0xa3, 0x8b, 0x3e, 0x2a, 0xbf, 0x48, 0x3e,
  0x95, 0x74, 0x3f, 0x3d, 0xa8, 0xef, 0xe7, 0x3d, 0x0a, 0xa0, 0x72, 0x3b,
  0xc4, 0xab, 0x32, 0xbe, 0xbf, 0x9e, 0x7a, 0xbc, 0x4d, 0x9f, 0x4f, 0x3d,
  0x3d, 0x22, 0x11, 0x3e, 0x26, 0x66, 0x88, 0xbe, 0x5d, 0x44, 0xf8, 0xbb,
  0x5d, 0x4e, 0xda, 0x3d, 0x98, 0x84, 0x63, 0xbe, 0x89, 0x85, 0x84, 0x3c,
  0x05, 0x9f, 0x0c, 0x3e, 0xf5, 0x4c, 0x21, 0xbe, 0x49, 0x3e, 0x36, 0xbe,
  0xaa, 0x68, 0x6f, 0xbe, 0xfb, 0x91, 0x9d, 0xbd, 0x29, 0xeb, 0x16, 0x3e,
  0x71, 0xe9, 0x64, 0xbd, 0x94, 0x94, 0x1d, 0xbe, 0x44, 0xaa, 0xe3, 0xbc,
  0x05, 0x22, 0x02, 0x3e, 0x8e, 0x73, 0xb9, 0x3d, 0xf7, 0x46, 0x4b, 0x3e,
  0x23, 0x6c, 0xd4, 0xbd, 0xbb, 0xf4, 0x31, 0xbd, 0x6f, 0x2d, 0x29, 0x3e,
  0xa8, 0xce, 0x67, 0xbe, 0xdc, 0xa3, 0x55, 0xbe, 0xad, 0xba, 0x39, 0xbe,
  0x7a, 0xcb, 0x1e, 0x3e, 0x70, 0x6b, 0x2e, 0x3e, 0x10, 0xd6, 0x2d, 0xbe,
  0xbb, 0x7d, 0x29, 0x3e, 0x44, 0xef, 0xcb, 0x3d, 0x9c, 0x88, 0x3c, 0x3d,
  0xfb, 0x7c, 0xe2, 0xbd, 0x58, 0xaa, 0x76, 0xbe, 0x1e, 0xfe, 0xdb, 0xbc,
  0x18, 0x93, 0xf2, 0x3d, 0x54, 0x9e, 0x41, 0xbe, 0xa9, 0xfb, 0x27, 0x3e,
  0x38, 0x85, 0xde, 0x3c, 0x06, 0xa5, 0x96, 0x3c, 0xab, 0x5c, 0xdf, 0x3d,
  0x9d, 0xf1, 0x97, 0x3c, 0xb5, 0xd9, 0x44, 0x3d, 0x93, 0x9f, 0xc6, 0x3d,
  0x6a, 0x46, 0xad, 0xbd, 0xed, 0x4e, 0x1a, 0xbe, 0x1d, 0x92, 0xcd, 0x3d,
  0x72, 0x69, 0xc9, 0xbd, 0xc5, 0xb3, 0xb4, 0xbd, 0x26, 0xa5, 0x29, 0x3e,
  0x2a, 0xca, 0x3d, 0xbe, 0xdc, 0x71, 0xf2, 0x3d, 0xd1, 0x1f, 0xdb, 0xbc,
  0x1c, 0xbb, 0x77, 0xbe, 0xb4, 0x0d, 0x03, 0x3e, 0x37, 0x99, 0x47, 0xbd,
  0xdb, 0x00, 0x31, 0xbe, 0xc1, 0x76, 0xd5, 0x3d, 0xf7, 0xf5, 0x0b, 0x3e,
  0x4f, 0x46, 0xe7, 0xbd, 0x4a, 0x8a, 0x35, 0xbe, 0x37, 0x0c, 0x85, 0xbd,
  0xc9, 0xb7, 0xc8, 0x3d, 0x81, 0x29, 0x31, 0xbe, 0x6e, 0x8d, 0x05, 0xbe,
  0xbd, 0x9f, 0xa0, 0xbe, 0x08, 0x8f, 0x30, 0xbb, 0xfb, 0xc7, 0x91, 0xbd,
  0xb4, 0x72, 0xf7, 0x3d, 0x00, 0xd5, 0x4d, 0xbe, 0x3d, 0x1a, 0x12, 0x3e,
  0x1c, 0x52, 0x9e, 0xbe, 0x9f, 0x1b, 0xd4, 0xbd, 0xca, 0x32, 0x9a, 0xbd,
  0xb2, 0x10, 0x67, 0xbe, 0xad, 0xde, 0xe2, 0xbd, 0x00, 0x4a, 0x0d, 0xbe,
  0x6d, 0x9d, 0x1e, 0xbb, 0x74, 0x97, 0x89, 0xbb, 0x61, 0xd6, 0x47, 0x3e,
  0x7a, 0x5c, 0x43, 0xbe, 0x92, 0xa5, 0xd8, 0x3d, 0xc9, 0x61, 0x9a, 0xbd,
  0x26, 0x2d, 0x00, 0x3e, 0xb0, 0x50, 0x80, 0xbd, 0x1e, 0x8a, 0xf9, 0x3b,
  0x2f, 0x99, 0x6a, 0x3e, 0x5c, 0xfe, 0x1b, 0xbe, 0x03, 0x2c, 0x7b, 0xbd,
  0x86, 0x6c, 0x09, 0x3e, 0x42, 0xaa, 0x97, 0xbe, 0x7e, 0x3d, 0x29, 0xbe,
  0x91, 0x8d, 0x53, 0xbe, 0x97, 0x4e, 0x84, 0x3e, 0x14, 0xec, 0x05, 0x3e,
  0xd9, 0x9a, 0x89, 0xbe, 0xf9, 0xe5, 0x58, 0x3e, 0x3a, 0x95, 0x79, 0x3d,
  0xf6, 0xb4, 0x9b, 0x3d, 0x89, 0x61, 0x64, 0x3e, 0x6d, 0xd3, 0x9b, 0xbd,
  0xd0, 0x16, 0x48, 0x3e, 0xf4, 0xed, 0xe4, 0xbc, 0x76, 0x49, 0xd0, 0x3d,
  0xee, 0x29, 0x57, 0xbe, 0x68, 0x61, 0x10, 0x3e, 0x78, 0x83, 0xe4, 0xbd,
  0x30, 0xdc, 0x92, 0x3d, 0xf3, 0x48, 0xb5, 0xbd, 0x02, 0x69, 0x31, 0x3d,
  0x88, 0x6e, 0xd5, 0xbd, 0x41, 0x8e, 0x34, 0x3e, 0x0c, 0x1e, 0x64, 0xbe,
  0x6c, 0xed, 0xb1, 0x3d, 0xb5, 0x44, 0x96, 0xbe, 0xef, 0xce, 0x17, 0xbd,
  0x15, 0xde, 0x94, 0x3e, 0xf0, 0x08, 0xc1, 0xbb, 0x32, 0x7d, 0x49, 0xbe,
  0xdd, 0x18, 0x1d, 0x3e, 0xf3, 0xde, 0xd6, 0x3d, 0x0b, 0x30, 0x29, 0xbd,
  0x3b, 0xcc, 0x99, 0x3e, 0x62, 0x20, 0xb5, 0xbd, 0x16, 0xfb, 0xdf, 0x3d,
  0xc2, 0x72, 0xaa, 0xbd, 0x7e, 0xdc, 0x10, 0xbe, 0xf6, 0x71, 0x3e, 0xbe,
  0x09, 0xa1, 0xbe, 0x3d, 0x46, 0x72, 0x21, 0xbe, 0xd6, 0x0b, 0x7c, 0x3d,
  0xb3, 0x99, 0xb3, 0x3b, 0xd2, 0xc9, 0x06, 0x3e, 0xa0, 0x10, 0x1e, 0x3e,
  0x55, 0x27, 0xe1, 0x3d, 0x1b, 0xb5, 0x38, 0xbe, 0xf4, 0x49, 0xc8, 0x3d,
  0x13, 0x8e, 0xe3, 0xbd, 0xec, 0xdc, 0x21, 0xbd, 0xcf, 0x6b, 0x45, 0x3d,
  0x55, 0xde, 0x4a, 0x3b, 0x8c, 0xfd, 0xd7, 0xbb, 0xfc, 0x59, 0x23, 0x3e,
  0x26, 0xde, 0x37, 0x3e, 0x90, 0x02, 0x43, 0x3e, 0xa9, 0x26, 0x10, 0xbe,
  0xfc, 0x72, 0x4f, 0xbe, 0x09, 0x94, 0x5b, 0xbe, 0x9f, 0x0a, 0xd5, 0xbc,
  0x60, 0xb8, 0x55, 0xbe, 0x28, 0x65, 0x67, 0x3d, 0x05, 0xc3, 0x0b, 0xbe,
  0x7e, 0x8f, 0x64, 0x3d, 0x9f, 0x3c, 0x21, 0xbe, 0x25, 0x85, 0xb9, 0xbd,
  0x3b, 0x94, 0x56, 0xbe, 0xa4, 0x8f, 0x02, 0xbe, 0xdf, 0xcb, 0x96, 0xbd,
  0x94, 0xa2, 0xba, 0x3d, 0x11, 0x5e, 0xb0, 0xbd, 0x2c, 0x82, 0x18, 0x3d,
  0x87, 0x40, 0xf4, 0x3c, 0xe7, 0x0f, 0x99, 0x3d, 0x57, 0x4a, 0x25, 0x3c,
  0xe6, 0x3f, 0x9f, 0xbd, 0xa7, 0xda, 0x0d, 0xbe, 0x1c, 0xe5, 0x74, 0x3d,
  0x36, 0x1f, 0x03, 0xbe, 0x0b, 0x0a, 0x6f, 0x3d, 0x9a, 0x63, 0x9e, 0xbc,
  0xce, 0x78, 0xca, 0x3d, 0x28, 0xc4, 0xd2, 0xbd, 0x4f, 0x03, 0xbd, 0xbd,
  0x89, 0xb7, 0x9a, 0x3d, 0x40, 0x0b, 0x50, 0xbe, 0x75, 0xdf, 0x1a, 0x3d,
  0x8c, 0x12, 0x20, 0xbe, 0x91, 0xf5, 0x1d, 0xbe, 0xd0, 0x27, 0x24, 0xbe,
  0x61, 0x62, 0x84, 0xbd, 0x5d, 0x35, 0x75, 0x3d, 0x84, 0xf6, 0xb1, 0xbc,
  0x55, 0x8c, 0x21, 0xbe, 0xb3, 0x2e, 0x88, 0x3d, 0xc0, 0xcb, 0x2c, 0xbd,
  0xba, 0xf9, 0x21, 0xbe, 0x61, 0x85, 0xa2, 0xbc, 0xee, 0x6d, 0x63, 0xbb,
  0xeb, 0xea, 0x05, 0xbe, 0xd0, 0xc5, 0xf8, 0x3a, 0xe6, 0x02, 0x1d, 0x3e,
  0x6b, 0x7f, 0xd6, 0xbd, 0x09, 0x5d, 0x0f, 0xbe, 0x2e, 0xf3, 0x59, 0xbe,
  0xb6, 0x38, 0x1b, 0xbe, 0x5c, 0x03, 0xdb, 0x3d, 0x6b, 0xef, 0xf5, 0x3c,
  0x67, 0x67, 0x01, 0xbd, 0x41, 0x4c, 0x95, 0xbc, 0x22, 0x8f, 0xfd, 0xbd,
  0xe8, 0xd2, 0xa2, 0x3d, 0xd1, 0x51, 0x43, 0xbe, 0xb9, 0x56, 0xc1, 0xbd,
  0x0e, 0x43, 0x94, 0x3c, 0xc0, 0xb8, 0xa6, 0x3d, 0x72, 0xa0, 0xcf, 0xbd,
  0xa7, 0xde, 0x21, 0x3d, 0x58, 0x12, 0x09, 0xbd, 0x00, 0x77, 0x91, 0xbd,
  0xce, 0x85, 0x46, 0xbc, 0xbc, 0xc0, 0x01, 0x3e, 0x5a, 0xc0, 0xe0, 0xbc,
  0x2b, 0x33, 0xd2, 0x3c, 0x20, 0xd9, 0xfa, 0x3d, 0xd6, 0x96, 0xbf, 0x3d,
  0x5b, 0xf2, 0x95, 0xbc, 0x02, 0xc0, 0x1d, 0xbd, 0x4c, 0x68, 0x84, 0xbe,
  0x0f, 0x07, 0xf7, 0x3b, 0x6e, 0x3b, 0xa7, 0x3b, 0xd2, 0xb4, 0xdf, 0xbd,
  0xb4, 0x05, 0xfc, 0xbc, 0x50, 0xb6, 0x85, 0xbd, 0xd9, 0x6e, 0x4e, 0xbe,
  0x20, 0x63, 0xd4, 0xbc, 0x34, 0xc9, 0x8b, 0x3d, 0x7e, 0x28, 0xaa, 0x3c,
  0xde, 0x5e, 0x01, 0xbd, 0xf0, 0x93, 0x7f, 0xbd, 0x0e, 0x4f, 0x17, 0xbe,
  0xe1, 0x64, 0x27, 0x3e, 0x63, 0x2f, 0x7c, 0x3d, 0x31, 0xe2, 0x0f, 0xbe,
  0x4a, 0x69, 0xe0, 0x3d, 0x0f, 0x61, 0x30, 0x3e, 0x9a, 0x3f, 0xae, 0x3b,
  0x67, 0x1b, 0xbc, 0xbd, 0x85, 0x74, 0xe4, 0x3d, 0x05, 0x31, 0x05, 0xbe,
  0xea, 0xd6, 0x03, 0xbe, 0xad, 0xdd, 0x41, 0xbe, 0x1c, 0x2e, 0x21, 0xbe,
  0x9c, 0x50, 0x55, 0x3d, 0xd9, 0x2a, 0x11, 0x3e, 0xa3, 0x94, 0x83, 0x3d,
  0x6d, 0xc4, 0x8e, 0xbd, 0x76, 0x71, 0xb6, 0xbd, 0x35, 0x69, 0xd5, 0x3d,
  0x49, 0x3b, 0x62, 0xbe, 0x93, 0xd2, 0xde, 0x3d, 0xa1, 0xf0, 0x1e, 0x3e,
  0x5c, 0x88, 0x0a, 0xbe, 0xe8, 0x1c, 0x46, 0xbe, 0x4e, 0x87, 0xb7, 0xbd,
  0x6e, 0xc9, 0x52, 0x3d, 0xbf, 0xaa, 0xa7, 0xbe, 0xaf, 0x48, 0x2d, 0xbe,
  0xef, 0x56, 0xf8, 0x3d, 0x1f, 0x9a, 0x5a, 0x3e, 0x0a, 0x69, 0xfd, 0x3d,
  0x12, 0x8e, 0x6b, 0x3d, 0xcd, 0x92, 0x13, 0x3e, 0x07, 0xf1, 0x22, 0x3d,
  0xbe, 0xc6, 0xf8, 0x3d, 0xbc, 0x38, 0x02, 0xbe, 0xc6, 0x58, 0x85, 0xbe,
  0xd4, 0x9f, 0xc9, 0x3d, 0xaa, 0x73, 0x83, 0xbe, 0xb0, 0xe6, 0x19, 0x3d,
  0xdb, 0xb9, 0xdd, 0xbc, 0xf3, 0x5d, 0x9c, 0x3e, 0xdb, 0x7c, 0x79, 0x3e,
  0xf3, 0x49, 0xc2, 0x3d, 0xad, 0x49, 0xb7, 0x3d, 0x68, 0xf6, 0x5a, 0x3e,
  0x09, 0xf8, 0x92, 0xbd, 0x80, 0xbe, 0x05, 0x3e, 0xb0, 0x93, 0x01, 0x3c,
  0xe3, 0xcd, 0x48, 0x3e, 0x4a, 0xda, 0x90, 0x3d, 0x14, 0x04, 0xe0, 0x3d,
  0x77, 0x0a, 0x0a, 0x3e, 0xdb, 0xe2, 0x94, 0x3c, 0x5a, 0x73, 0x84, 0xbe,
  0x30, 0xd3, 0x2d, 0xbe, 0x96, 0x7f, 0x07, 0xbe, 0x4f, 0x1c, 0x79, 0xbc,
  0xc8, 0x95, 0xff, 0xbc, 0x12, 0x6f, 0xc5, 0x3d, 0xe0, 0xd9, 0x41, 0xbe,
  0x50, 0x06, 0x87, 0x3e, 0x75, 0x69, 0x38, 0xbe, 0x10, 0xc7, 0x14, 0x3e,
  0xaf, 0xa5, 0xb7, 0xbd, 0xfe, 0x67, 0xf0, 0xbd, 0x86, 0x95, 0x34, 0xbe,
  0x33, 0x3a, 0xa5, 0x3d, 0x6f, 0x5c, 0x35, 0xbe, 0x5c, 0x94, 0xae, 0xbd,
  0xf1, 0x2f, 0xf3, 0xbd, 0xd4, 0xe7, 0x1b, 0x3e, 0x0c, 0xcc, 0x2e, 0xbe,
  0xe6, 0x3e, 0x82, 0xbd, 0x53, 0xba, 0x58, 0x3e, 0x4d, 0xf6, 0x25, 0xbe,
  0x3a, 0x11, 0x9a, 0x3e, 0x02, 0xa5, 0x28, 0x3e, 0xcb, 0xed, 0xfb, 0xbd,
  0x99, 0x51, 0xdd, 0xbd, 0x94, 0xa9, 0x0c, 0xbe, 0x63, 0xe7, 0x6b, 0xbd,
  0x64, 0x0f, 0xa4, 0x3e, 0x34, 0x9f, 0x56, 0xbe, 0x6c, 0x7b, 0xa4, 0x3d,
  0xbf, 0x6d, 0x8c, 0x3c, 0xb6, 0x4c, 0x95, 0x3c, 0xfc, 0x12, 0x22, 0x3e,
  0x95, 0xb4, 0x11, 0x3d, 0xe1, 0x88, 0x2c, 0x3e, 0xd7, 0x93, 0xcb, 0xbd,
  0x04, 0xf0, 0xc5, 0xbd, 0x30, 0xe3, 0xa8, 0xbd, 0x4b, 0xde, 0x54, 0xbe,
  0xb9, 0xd5, 0x1c, 0xbe, 0xd9, 0x7f, 0x32, 0xbd, 0x6c, 0x73, 0x41, 0x3d,
  0xd6, 0x3d, 0x0c, 0xbe, 0xe1, 0xa9, 0x64, 0x3d, 0xf0, 0xb5, 0x16, 0xbe,
  0x77, 0x30, 0x10, 0x3e, 0xe0, 0x31, 0x41, 0xbe, 0x5c, 0x90, 0x9e, 0x3c,
  0xec, 0xad, 0x33, 0x3e, 0x24, 0xbf, 0x15, 0xbe, 0x5e, 0x17, 0xca, 0x3a,
  0x5c, 0x48, 0xa1, 0xbc, 0x37, 0x46, 0x57, 0xbe, 0xdb, 0x2e, 0x3c, 0xbe,
  0xfe, 0x8a, 0x40, 0xbe, 0x20, 0x8e, 0x25, 0x3e, 0xa5, 0xc5, 0xe1, 0xbd,
  0x4e, 0x30, 0x35, 0x3d, 0xc5, 0x35, 0x28, 0xbe, 0x6c, 0x9c, 0x6e, 0xbe,
  0xc0, 0x06, 0x18, 0xbe, 0xc7, 0x2a, 0x0e, 0x3d, 0x90, 0xf8, 0x2d, 0xbe,
  0xd6, 0xb9, 0x94, 0xbd, 0x82, 0xa0, 0xd6, 0x3d, 0xae, 0xcb, 0x26, 0xbd,
  0xce, 0x4b, 0x44, 0xbd, 0xd0, 0xfa, 0xd2, 0x3d, 0x0a, 0xa1, 0xad, 0x3d,
  0x9a, 0xa2, 0x73, 0x3c, 0xf3, 0x4b, 0x08, 0x3e, 0x4c, 0x30, 0x64, 0x3d,
  0x64, 0x2e, 0x2c, 0xbe, 0xa8, 0xc8, 0x64, 0x3d, 0xb3, 0xf0, 0x61, 0xbe,
  0xcf, 0x7a, 0x01, 0x3e, 0x5a, 0x64, 0x45, 0x3e, 0x7e, 0xc1, 0x67, 0x3b,
  0xa4, 0x44, 0x81, 0x3d, 0x2d, 0x47, 0xdb, 0x3d, 0x30, 0x7e, 0xc7, 0xbd,
  0xcc, 0xb7, 0x0e, 0x3e, 0x9f, 0x65, 0x41, 0xbe, 0x58, 0x11, 0x59, 0xbd,
  0x03, 0xf6, 0x5f, 0x3d, 0x1c, 0x63, 0x0d, 0x3c, 0x3c, 0x24, 0x40, 0x3d,
  0x4c, 0x6c, 0x27, 0x3e, 0x1b, 0xd8, 0xa1, 0x3d, 0x80, 0xcd, 0x55, 0xbe,
  0x55, 0xb2, 0x42, 0xbe, 0xe7, 0x7a, 0x2c, 0xbe, 0xda, 0x7e, 0x05, 0x3d,
  0x55, 0x4c, 0x16, 0xbe, 0x93, 0x5b, 0xb2, 0x3c, 0x44, 0x2c, 0x56, 0xbe,
  0xd8, 0x32, 0x47, 0x3e, 0xbf, 0xeb, 0xd3, 0xbd, 0x7f, 0x3d, 0x5a, 0xbc,
  0x37, 0x57, 0x4e, 0xbe, 0xfc, 0xde, 0x00, 0xbe, 0x7f, 0xdf, 0xf1, 0xbd,
  0xdc, 0x07, 0x08, 0x3e, 0xc7, 0xe6, 0x92, 0x3d, 0xb5, 0xa8, 0x97, 0xbd,
  0xfc, 0x6e, 0x55, 0x3c, 0x65, 0xe6, 0xd3, 0xbd, 0x29, 0x05, 0xf7, 0x3d,
  0x81, 0x55, 0xcb, 0x3d, 0x7c, 0x28, 0x5c, 0xbe, 0x5b, 0x99, 0x31, 0x3e,
  0x32, 0x42, 0x23, 0x3e, 0x43, 0xff, 0xa7, 0xbd, 0x96, 0x74, 0x35, 0xbe,
  0x33, 0xe6, 0x29, 0xbc, 0x73, 0xd0, 0xdb, 0x3d, 0x01, 0x84, 0x5f, 0x3d,
  0x41, 0xe8, 0x96, 0xbd, 0xda, 0xc8, 0x3b, 0xbe, 0xee, 0xdd, 0x09, 0xbd,
  0x6e, 0xdd, 0x72, 0x3d, 0x17, 0xac, 0xbb, 0xbd, 0xd7, 0x69, 0x43, 0xbe,
  0xbc, 0xde, 0x41, 0xbe, 0x9b, 0x28, 0x02, 0x3d, 0xb4, 0x2b, 0x71, 0xbe,
  0x02, 0xa8, 0x9b, 0x3d, 0x29, 0x50, 0xfb, 0x3d, 0x6f, 0x4f, 0x3b, 0x3e,
  0xc3, 0xe2, 0x18, 0xbe, 0x27, 0xdf, 0x38, 0xbe, 0xe4, 0x7a, 0x06, 0x3e,
  0x86, 0xc2, 0x07, 0x3e, 0x36, 0x83, 0x94, 0x3d, 0x32, 0x9c, 0xcc, 0x3d,
  0x1e, 0x13, 0x76, 0xbb, 0x46, 0x7a, 0xed, 0x3d, 0x77, 0x9b, 0xa4, 0x3c,
  0x37, 0xd4, 0x78, 0xbe, 0xe4, 0x8c, 0xc2, 0xbd, 0x52, 0x82, 0x37, 0xbe,
  0x09, 0x8b, 0xc4, 0xbd, 0x69, 0xd3, 0xa6, 0x3d, 0xba, 0x4d, 0xcc, 0x3d,
  0x51, 0x71, 0x2e, 0x3e, 0x1e, 0xfb, 0x4d, 0x3d, 0xae, 0xcd, 0xaf, 0x3c,
  0xc1, 0x08, 0xa5, 0xbd, 0x3d, 0x72, 0xc1, 0xbc, 0x60, 0xd1, 0x11, 0x3c,
  0xc1, 0x9c, 0x0a, 0x3d, 0x9b, 0x8b, 0x9e, 0xbc, 0x17, 0x7e, 0x4a, 0xbe,
  0x3c, 0xce, 0x23, 0xbe, 0xd9, 0xb5, 0x17, 0x3e, 0x01, 0x77, 0x61, 0xbe,
  0xfd, 0x33, 0x39, 0xbd, 0xf6, 0x89, 0x54, 0xbe, 0x56, 0xb1, 0x28, 0x3e,
  0xf8, 0xe8, 0xa2, 0x3e, 0x8b, 0xc5, 0x0d, 0xbd, 0xa5, 0x4f, 0x55, 0x3e,
  0xeb, 0xf2, 0x0c, 0xbc, 0xe4, 0xcd, 0x9e, 0x3e, 0x08, 0x5a, 0xe2, 0x3d,
  0x48, 0x05, 0xd6, 0xbc, 0x86, 0x47, 0x31, 0x3e, 0xbb, 0x17, 0x3d, 0x3d,
  0x01, 0xe0, 0x1c, 0x3d, 0xaa, 0x59, 0x3c, 0x3e, 0x74, 0x46, 0x81, 0x3e,
  0x8c, 0x96, 0x8e, 0x3e, 0x25, 0xfb, 0x5c, 0x3e, 0x31, 0x48, 0x07, 0x3e,
  0x5a, 0x48, 0xbf, 0x3d, 0xdb, 0xf9, 0x53, 0x3e, 0x87, 0x87, 0x29, 0xbd,
  0x79, 0x58, 0x10, 0xbe, 0x9f, 0xc1, 0xc8, 0xbd, 0xa4, 0x6f, 0x7e, 0xbc,
  0x1c, 0x4a, 0xa4, 0x3e, 0x57, 0x96, 0x5b, 0x3e, 0xb0, 0xcb, 0x32, 0x3d,
  0xaa, 0x89, 0x2a, 0x3e, 0xc1, 0x05, 0x84, 0x3e, 0x97, 0x7f, 0x9c, 0x3e,
  0xec, 0xd9, 0x8e, 0x3e, 0xa3, 0x26, 0x96, 0x3e, 0xc6, 0x43, 0x8a, 0x3e,
  0xac, 0x1b, 0x47, 0x3e, 0xcc, 0x5c, 0x2c, 0x3e, 0xf9, 0x41, 0x13, 0x3e,
  0xa6, 0x12, 0xd8, 0x3d, 0xd7, 0xf6, 0x80, 0x3e, 0x0a, 0x31, 0x4a, 0x3d,
  0x2a, 0x7a, 0x9f, 0x3e, 0x1e, 0x61, 0xa0, 0x3e, 0x13, 0x7f, 0x01, 0x3e,
  0xcf, 0x5b, 0x86, 0x3e, 0xd0, 0x03, 0x8b, 0x3e, 0xb2, 0x30, 0x4d, 0xbd,
  0xab, 0x6e, 0xaa, 0x3d, 0x0f, 0xb0, 0x28, 0x3e, 0x55, 0xf0, 0x22, 0x3e,
  0x1f, 0xfc, 0x8a, 0x3e, 0x37, 0x7b, 0x0f, 0xbe, 0x40, 0xf1, 0x9d, 0xbd,
  0x26, 0x12, 0xd3, 0x3d, 0xc5, 0xca, 0x0c, 0x3d, 0x50, 0xb4, 0xea, 0x3d,
  0x56, 0x0a, 0x8b, 0x3e, 0xd6, 0xc4, 0x94, 0x3e, 0xfc, 0xd9, 0xd5, 0x3d,
  0xfb, 0xbd, 0x48, 0xbd, 0xd2, 0x14, 0x81, 0x3d, 0xd5, 0xde, 0xc4, 0x3e,
  0xa8, 0x78, 0x8c, 0xbd, 0x48, 0x00, 0xc0, 0xbd, 0x1e, 0xf9, 0xbc, 0x3d,
  0x9a, 0x52, 0x51, 0xbd, 0x8e, 0x1f, 0x42, 0x3e, 0x87, 0x3f, 0x44, 0x3e,
  0xd6, 0xc5, 0x31, 0x3d, 0x32, 0xab, 0x30, 0xbc, 0xa1, 0x06, 0x3d, 0xbc,
  0xb9, 0xa2, 0x40, 0xbe, 0x36, 0x7d, 0x8e, 0x3d, 0x85, 0x3d, 0xd4, 0xbd,
  0xda, 0x07, 0x7b, 0xbd, 0x16, 0x99, 0xb0, 0xbd, 0x58, 0x77, 0xeb, 0x3d,
  0x42, 0x35, 0xe8, 0xbd, 0x20, 0x3f, 0x86, 0xbc, 0x41, 0x66, 0x94, 0x3d,
  0x19, 0xbe, 0x8b, 0xbe, 0x9f, 0xdf, 0xa7, 0xbe, 0x56, 0x45, 0x0e, 0xbe,
  0x34, 0x4b, 0xef, 0xbd, 0x0d, 0xeb, 0xed, 0xbb, 0x4e, 0x9a, 0xe7, 0xbd,
  0xab, 0x84, 0x83, 0xbd, 0xd1, 0x18, 0x9d, 0xbd, 0xf0, 0x3a, 0x3e, 0x3a,
  0x84, 0x76, 0x37, 0x3e, 0x35, 0x03, 0x76, 0x3d, 0x4c, 0x03, 0x0f, 0x3e,
  0xf0, 0x62, 0xb8, 0x3c, 0x7f, 0xb1, 0x26, 0x3e, 0xa5, 0x47, 0x4c, 0x3e,
  0x49, 0x23, 0x32, 0xbe, 0x45, 0xb6, 0xf5, 0xbd, 0xce, 0x5a, 0x68, 0xbd,
  0x99, 0xc9, 0xc0, 0xbe, 0x97, 0x0f, 0x8c, 0x3e, 0x1a, 0x3d, 0x97, 0x3d,
  0x90, 0x8a, 0x93, 0xbe, 0xd2, 0xdf, 0x6f, 0xbe, 0xc0, 0x06, 0x39, 0x3e,
  0xaa, 0x50, 0xb4, 0x3d, 0x95, 0x7b, 0x4f, 0xbb, 0x39, 0x31, 0x00, 0x3e,
  0xc5, 0x56, 0x34, 0xbe, 0x70, 0x82, 0x83, 0x3d, 0x01, 0x21, 0xea, 0x3c,
  0xec, 0xf8, 0xd9, 0xbd, 0xc1, 0x41, 0x90, 0x3d, 0xda, 0xa0, 0x2c, 0xbe,
  0x2a, 0x75, 0x12, 0xbe, 0x97, 0x05, 0x73, 0xbc, 0x23, 0xbf, 0x1a, 0x3e,
  0xed, 0x14, 0x25, 0xbe, 0xaf, 0xe9, 0xe3, 0x3d, 0x77, 0xf3, 0x31, 0xbd,
  0x44, 0x9f, 0x18, 0x3e, 0x22, 0xac, 0x99, 0xbd, 0x9e, 0xc0, 0x19, 0xbe,
  0xa6, 0xb1, 0x06, 0xbe, 0x5a, 0xa5, 0x91, 0x3e, 0x9e, 0xbf, 0x31, 0x3d,
  0xba, 0x5f, 0xd1, 0xbd, 0x48, 0xd7, 0xe4, 0xbc, 0x3e, 0xcd, 0x77, 0xbd,
  0x07, 0x7d, 0x84, 0xbc, 0xa3, 0x34, 0x90, 0x3d, 0x82, 0x00, 0x37, 0xbe,
  0xf7, 0x42, 0x4a, 0x3d, 0x75, 0x0a, 0x7c, 0x3e, 0x9c, 0xa9, 0xd2, 0xbc,
  0xab, 0x00, 0x69, 0xbe, 0x96, 0xe3, 0xc9, 0xbb, 0xa0, 0x79, 0xa4, 0x3e,
  0x40, 0xca, 0x10, 0xbe, 0xf5, 0x0c, 0xa4, 0xbe, 0x85, 0xcc, 0xa5, 0x3b,
  0xe9, 0x78, 0xce, 0x3d, 0xfa, 0x9f, 0xa5, 0xbe, 0x38, 0x2f, 0xeb, 0x3c,
  0x21, 0xdf, 0x3b, 0xbe, 0xa9, 0x58, 0x73, 0xbe, 0x48, 0xfd, 0x2b, 0xbe,
  0x77, 0xa0, 0x8a, 0x3d, 0x4f, 0x2d, 0x8e, 0xbe, 0x08, 0xbf, 0xc0, 0xbc,
  0xe6, 0xd8, 0x62, 0xbb, 0xe9, 0x9e, 0x98, 0xbe, 0xf7, 0x6a, 0x89, 0xbd,
  0x18, 0x0f, 0x83, 0xbd, 0x16, 0xa9, 0x68, 0x3e, 0xc3, 0x40, 0x50, 0xbe,
  0x4e, 0x0a, 0x48, 0xbc, 0x9e, 0xfa, 0x51, 0xbe, 0xce, 0x36, 0x58, 0x3e,
  0xf0, 0xf2, 0x77, 0x3e, 0x1d, 0x99, 0x9a, 0x3c, 0x48, 0x86, 0xec, 0x3d,
  0x71, 0xf9, 0x52, 0xbc, 0xd5, 0x5f, 0x46, 0xbc, 0xe1, 0x81, 0x58, 0x3e,
  0x7f, 0x12, 0x3a, 0x3d, 0xd8, 0x9f, 0x66, 0xbe, 0x5f, 0x1e, 0x5e, 0xbe,
  0x13, 0x25, 0x68, 0x3e, 0x8a, 0xa6, 0xc9, 0xbd, 0x7f, 0x15, 0xd1, 0xbd,
  0x3b, 0x97, 0xe7, 0xbd, 0x68, 0x8a, 0x01, 0x3d, 0xdf, 0x27, 0x43, 0xbe,
  0x29, 0x79, 0x66, 0xbd, 0x5d, 0x65, 0x9f, 0xbb, 0xd6, 0x7a, 0xe5, 0x3d,
  0x17, 0x2d, 0x38, 0x3e, 0xce, 0x62, 0x98, 0xbd, 0x65, 0xf2, 0x7b, 0x3d,
  0x54, 0x4a, 0xfa, 0xbd, 0x80, 0x89, 0x5f, 0xbd, 0xa1, 0x14, 0x6f, 0x3d,
  0x54, 0xd4, 0x71, 0xbd, 0xb0, 0xa1, 0x63, 0xbe, 0xf3, 0x22, 0x8f, 0xbc,
  0x46, 0xdf, 0xc3, 0xbd, 0xce, 0x88, 0x97, 0xbe, 0x75, 0x87, 0x00, 0xbb,
  0x4b, 0xa4, 0x59, 0xbe, 0x38, 0xfb, 0x9f, 0xbc, 0x08, 0x76, 0x0b, 0x3e,
  0x7f, 0x64, 0x8b, 0x3d, 0x6a, 0xa6, 0xb9, 0xbd, 0xce, 0xe4, 0xb2, 0x3e,
  0x5e, 0x9c, 0x7c, 0xbe, 0x25, 0x61, 0x6e, 0x3e, 0xaa, 0xc1, 0x08, 0x3e,
  0xdf, 0xf7, 0x1d, 0xbe, 0x91, 0xcb, 0x49, 0x3d, 0x1c, 0x2a, 0x7b, 0xbc,
  0xb3, 0x38, 0x1a, 0x3e, 0xb7, 0xd5, 0x58, 0xbe, 0x0d, 0x2e, 0x55, 0x3d,
  0x02, 0x68, 0xda, 0x3d, 0x67, 0x34, 0xb5, 0xbc, 0x27, 0x1b, 0x75, 0xbd,
  0x4b, 0xc0, 0x45, 0xbe, 0x60, 0x6e, 0x45, 0xbd, 0x48, 0x8e, 0x12, 0x3e,
  0x8e, 0xb6, 0x23, 0xbe, 0x6f, 0x31, 0x03, 0x3d, 0xb8, 0x3e, 0x12, 0xbe,
  0x90, 0x4b, 0x0e, 0xbe, 0x07, 0x51, 0x8c, 0x3c, 0xc8, 0xa8, 0x39, 0xbe,
  0x69, 0x11, 0x34, 0x3e, 0x55, 0xbe, 0x2b, 0xbe, 0x9b, 0x4c, 0xc3, 0xbd,
  0x5a, 0x48, 0x48, 0xbc, 0x93, 0x3b, 0x44, 0xbe, 0x39, 0xe9, 0x82, 0xbd,
  0xaf, 0xd2, 0x62, 0xbb, 0xb2, 0x89, 0x48, 0x3d, 0x3c, 0xf5, 0x29, 0x3e,
  0xe4, 0x53, 0x64, 0xbe, 0xa9, 0xcf, 0xcd, 0xbd, 0x24, 0xa8, 0x6c, 0xbd,
  0xc8, 0x33, 0xd0, 0x3d, 0xf6, 0xc2, 0x1d, 0xbd, 0xdb, 0x41, 0x29, 0xbd,
  0x97, 0x6d, 0xed, 0xbd, 0x52, 0x08, 0x68, 0xbd, 0x6c, 0xda, 0x0f, 0x3e,
  0xe1, 0xe5, 0x25, 0x3d, 0x7c, 0xc3, 0xfe, 0xbd, 0x75, 0xdc, 0x61, 0xbd,
  0x20, 0xec, 0x2f, 0xbe, 0x4f, 0x97, 0x33, 0xbd, 0x91, 0x47, 0x1f, 0x3e,
  0x77, 0x2e, 0x26, 0x3e, 0x49, 0x68, 0x4e, 0xbe, 0xaf, 0x94, 0x80, 0x3d,
  0xc8, 0x41, 0x4c, 0x3d, 0xb7, 0x9c, 0x99, 0xbd, 0x2f, 0x18, 0x45, 0xbe,
  0x55, 0xbc, 0xec, 0xbd, 0x0c, 0xe9, 0x87, 0xbd, 0x2a, 0xe8, 0x24, 0x3e,
  0x5a, 0x71, 0x0f, 0x3e, 0x56, 0xd3, 0x62, 0x3d, 0x2c, 0xb3, 0x53, 0xbe,
  0x0b, 0xd7, 0x0f, 0x3e, 0x6c, 0xfb, 0x18, 0x3d, 0xd1, 0x16, 0x5a, 0xbe,
  0xde, 0x49, 0x17, 0x3d, 0x9c, 0xe4, 0xc5, 0xbd, 0xac, 0x91, 0xab, 0x3d,
  0x4e, 0xbb, 0x85, 0x3d, 0xdf, 0x7a, 0x24, 0x3d, 0x60, 0xe6, 0xe3, 0x3d,
  0x33, 0x1e, 0xee, 0x3d, 0xa4, 0xc7, 0x30, 0x3e, 0x6d, 0xfb, 0x6b, 0xbd,
  0xb7, 0x62, 0x34, 0x3e, 0xf0, 0x3a, 0x2e, 0x3e, 0x17, 0xe2, 0xa6, 0x3d,
  0xfd, 0x05, 0xa1, 0x3e, 0x3c, 0x6b, 0xfa, 0xbc, 0x56, 0xe7, 0x8b, 0xbc,
  0x5b, 0x3e, 0xb6, 0x3d, 0x6f, 0xac, 0xe0, 0xbc, 0x55, 0xbd, 0x3a, 0x3c,
  0xbc, 0xe6, 0x03, 0x3b, 0xae, 0xe2, 0x0f, 0x3e, 0x05, 0x90, 0xdd, 0x3d,
  0xcc, 0x32, 0xae, 0x3e, 0x1a, 0x7a, 0x89, 0x3d, 0x4f, 0xdb, 0x6c, 0x3d,
  0x81, 0x30, 0x11, 0x3e, 0x35, 0xa5, 0x03, 0xbe, 0xe1, 0x8f, 0x66, 0x3c,
  0x60, 0xb7, 0x17, 0xbd, 0xc5, 0xbe, 0x0d, 0xbd, 0x5d, 0xb5, 0x26, 0x3c,
  0x3d, 0xec, 0x6c, 0x3d, 0xd4, 0x49, 0xac, 0x3e, 0x86, 0xd3, 0xff, 0x3d,
  0x4a, 0x54, 0x54, 0xbd, 0xc9, 0xc4, 0x87, 0x3e, 0x70, 0x69, 0xb4, 0x3e,
  0xa6, 0x5e, 0x41, 0xbd, 0x35, 0xb4, 0x87, 0x3c, 0x0d, 0x14, 0xf2, 0xbc,
  0xa4, 0xd3, 0xa5, 0x3d, 0xbc, 0x90, 0xf1, 0x3d, 0xb2, 0x74, 0x88, 0xbc,
  0x31, 0x19, 0x75, 0xbd, 0x8f, 0x20, 0x09, 0x3c, 0xa3, 0x1a, 0x51, 0xbc,
  0xbd, 0x29, 0x9e, 0x3e, 0xa2, 0xf1, 0x90, 0xbd, 0x55, 0xb4, 0x7b, 0x3e,
  0x64, 0xaf, 0x6f, 0xbd, 0x56, 0x1f, 0x70, 0x3e, 0x8f, 0x20, 0xa3, 0x3d,
  0xae, 0x87, 0x50, 0x3e, 0x30, 0xca, 0x98, 0x3e, 0x1f, 0x8a, 0x60, 0x3e,
  0x70, 0x2d, 0x43, 0x3d, 0x16, 0x01, 0x06, 0x3e, 0x58, 0xc1, 0x63, 0x3e,
  0xec, 0x2b, 0x76, 0x3d, 0xda, 0xf9, 0x9a, 0xbc, 0x49, 0x26, 0x28, 0x3e,
  0x1e, 0x23, 0xbb, 0xbc, 0xba, 0x3c, 0xd3, 0x3d, 0x6a, 0xeb, 0x22, 0x3e,
  0x2a, 0x15, 0xc2, 0x3e, 0xcf, 0xeb, 0x30, 0xbe, 0xec, 0xba, 0x8c, 0x3e,
  0x6e, 0x58, 0x0f, 0x3e, 0x33, 0x46, 0x72, 0x3e, 0x29, 0x8e, 0x59, 0x3e,
  0xfc, 0x84, 0x9a, 0x3e, 0x72, 0xa7, 0x25, 0x3e, 0x48, 0xec, 0x42, 0x3e,
  0x6b, 0x78, 0x23, 0x3e, 0x02, 0xd1, 0xc9, 0x3d, 0xfd, 0xe9, 0xf7, 0x3d,
  0x2f, 0x0e, 0xbb, 0x3c, 0xb5, 0x39, 0x17, 0x3a, 0x2a, 0xfe, 0xcd, 0x3c,
  0xee, 0x87, 0x76, 0x3d, 0xbb, 0x2d, 0x57, 0x3e, 0xd6, 0x00, 0x10, 0x3e,
  0x35, 0xad, 0x84, 0x3e, 0x52, 0x3f, 0xa1, 0x3a, 0x46, 0x08, 0xcb, 0x3c,
  0x35, 0x09, 0xb4, 0x3c, 0xc1, 0xf8, 0x9a, 0x3e, 0x06, 0x06, 0x8c, 0x3e,
  0x48, 0x8b, 0x81, 0x3e, 0x36, 0x91, 0x9c, 0x3e, 0xb0, 0xf3, 0x40, 0x3e,
  0xa9, 0xcb, 0x54, 0x3e, 0x86, 0x1b, 0xbe, 0xbc, 0xaf, 0x4d, 0x41, 0xbd,
  0x81, 0x3b, 0x32, 0x3e, 0xee, 0xfb, 0xc3, 0xbd, 0x5d, 0xcd, 0x22, 0x3d,
  0x7a, 0xc5, 0x10, 0x3e, 0x12, 0xb5, 0x8f, 0x3c, 0x4c, 0xb4, 0x44, 0x3e,
  0x66, 0x5f, 0x53, 0xbd, 0x82, 0xb3, 0x68, 0x3e, 0x31, 0x74, 0x1f, 0x3e,
  0xc3, 0x5e, 0x73, 0x3e, 0xd1, 0xbc, 0x86, 0x3e, 0xb2, 0xe7, 0x7f, 0x3e,
  0x1e, 0x56, 0x84, 0x3e, 0x48, 0x84, 0x69, 0x3e, 0x70, 0x59, 0x14, 0x3e,
  0xed, 0x6d, 0x5f, 0xbd, 0x51, 0x69, 0xa5, 0x3e, 0x0e, 0x88, 0x02, 0x3e,
  0xa6, 0x87, 0xa8, 0x3e, 0xce, 0xd3, 0x2d, 0x3e, 0x35, 0x5d, 0x33, 0xbd,
  0xad, 0xf6, 0xf3, 0x3d, 0x71, 0x93, 0xac, 0x3e, 0xc6, 0x5a, 0xb7, 0xbc,
  0x05, 0xd7, 0x25, 0x3d, 0x94, 0x2a, 0x0f, 0x3e, 0xe8, 0x97, 0x55, 0x3e,
  0x76, 0x77, 0x91, 0x3e, 0x52, 0x3a, 0x26, 0x3d, 0x9f, 0x42, 0xa3, 0x3e,
  0xa5, 0xf0, 0x5a, 0x3d, 0xd2, 0x60, 0xa7, 0x3e, 0x58, 0x90, 0x0e, 0xbe,
  0x85, 0x7b, 0xc5, 0xbc, 0x41, 0xb9, 0x25, 0x3e, 0xf3, 0x2c, 0x5a, 0x3e,
  0x21, 0x85, 0xa5, 0x3e, 0xdc, 0x24, 0xe8, 0xbd, 0xc4, 0xeb, 0xff, 0x3d,
  0xf8, 0xec, 0x57, 0x3d, 0x85, 0x1b, 0x5b, 0x3d, 0x0f, 0xf8, 0xbd, 0x3e,
  0x37, 0x71, 0x38, 0xbe, 0xf3, 0xca, 0x8b, 0xba, 0xa1, 0x32, 0xe9, 0x3c,
  0x1e, 0x83, 0x36, 0xbe, 0x8b, 0x2f, 0x42, 0xbe, 0x1f, 0x90, 0xea, 0x3d,
  0xb3, 0x24, 0x0a, 0xbe, 0xd6, 0x47, 0x40, 0x3e, 0x4c, 0xde, 0x1b, 0xbe,
  0xe6, 0x84, 0xfa, 0xbd, 0x19, 0x03, 0x30, 0xbe, 0x12, 0xec, 0x2d, 0x3e,
  0x09, 0x62, 0x22, 0x3e, 0xa2, 0x5d, 0x48, 0xbe, 0xf4, 0x9e, 0x02, 0xbe,
  0x99, 0x90, 0xc9, 0x3c, 0x74, 0x20, 0xd4, 0xbd, 0x4a, 0x0e, 0x3d, 0xbc,
  0x42, 0xd3, 0x5d, 0xbd, 0x13, 0x82, 0xe1, 0xbd, 0x8e, 0x6a, 0x72, 0xbe,
  0xe7, 0x45, 0x39, 0xbe, 0x69, 0xdd, 0xb0, 0xbd, 0x19, 0x53, 0x67, 0x3c,
  0x24, 0x65, 0xff, 0x3d, 0x03, 0xa0, 0x37, 0x3e, 0x5a, 0x3b, 0xe5, 0xbd,
  0xf6, 0x2a, 0xc9, 0x3d, 0xc6, 0x2c, 0x18, 0x3e, 0x5c, 0x30, 0x65, 0xbc,
  0x70, 0x11, 0x7e, 0x3d, 0x00, 0x5e, 0xa0, 0x3d, 0xe2, 0x87, 0x1f, 0xbe,
  0x77, 0xcb, 0x52, 0x3e, 0x55, 0x9a, 0x48, 0xbe, 0x8e, 0x4d, 0x2a, 0x3d,
  0x23, 0x6d, 0x27, 0x3d, 0xd8, 0x43, 0xa0, 0xbd, 0x1d, 0x85, 0x58, 0xbe,
  0xf0, 0xb5, 0xa2, 0x3a, 0x17, 0xc5, 0x95, 0xbd, 0xfa, 0x31, 0xd0, 0x3c,
  0xcc, 0x02, 0xd8, 0xbb, 0x44, 0x9f, 0xa9, 0x3d, 0x9e, 0xe7, 0xe8, 0xbd,
  0x9e, 0x73, 0x3a, 0x3e, 0x6f, 0xec, 0x52, 0x3d, 0x0e, 0x44, 0xc0, 0x3d,
  0xca, 0xca, 0x43, 0xbe, 0x7f, 0xa1, 0xa6, 0xbd, 0xee, 0x7a, 0xd1, 0xbc,
  0x6d, 0xf2, 0xbf, 0x3d, 0x80, 0xe0, 0x06, 0xbc, 0x6f, 0x55, 0x04, 0xbe,
  0x90, 0x91, 0x11, 0x3e, 0x59, 0x1e, 0x17, 0x3e, 0x05, 0x50, 0xe9, 0x3c,
  0x2c, 0x8c, 0xa5, 0xbd, 0xb7, 0x14, 0x05, 0x3e, 0x5c, 0x17, 0x3f, 0xbe,
  0x6a, 0xd3, 0x13, 0x3e, 0xe7, 0xd7, 0x12, 0xbe, 0x75, 0x90, 0xd6, 0xbd,
  0x25, 0xc1, 0x50, 0xbe, 0x72, 0x59, 0xb9, 0x3e, 0x67, 0xb7, 0x35, 0x3e,
  0xd1, 0xbf, 0xd0, 0x3d, 0x8e, 0x0a, 0x6e, 0x3e, 0xa0, 0x80, 0xcb, 0xbb,
  0x16, 0x1e, 0xa7, 0x3e, 0x90, 0xd4, 0x74, 0x3e, 0x9d, 0x55, 0x90, 0x3e,
  0x87, 0x78, 0x38, 0x3e, 0x1c, 0x61, 0xe0, 0xbd, 0x28, 0x90, 0xa8, 0x3e,
  0x7d, 0xed, 0x9f, 0x3d, 0x8a, 0xf9, 0x09, 0x3e, 0x6e, 0x8e, 0x0e, 0x3e,
  0x55, 0xba, 0x8d, 0x3e, 0xaa, 0xae, 0x26, 0x3c, 0xf8, 0xd3, 0xbf, 0x3e,
  0x0c, 0x0b, 0x51, 0x3e, 0x70, 0xdf, 0xa3, 0x3c, 0x7a, 0x6c, 0x0b, 0xbe,
  0xf2, 0x6e, 0x7c, 0x3e, 0xa7, 0xb5, 0x53, 0xbd, 0xc3, 0x28, 0x24, 0x3e,
  0xbc, 0x6c, 0x02, 0xbc, 0x7d, 0x00, 0x16, 0x3e, 0xe6, 0x29, 0xcd, 0xbd,
  0x14, 0x9b, 0xb9, 0xbc, 0x1e, 0xf0, 0x8e, 0x3d, 0x15, 0x42, 0x76, 0x3d,
  0x0b, 0x5d, 0x77, 0x3d, 0x1d, 0x25, 0x9e, 0xbd, 0xa5, 0x44, 0x2c, 0xbd,
  0x68, 0xf5, 0x8b, 0xbd, 0x9f, 0xcf, 0x24, 0x3e, 0x90, 0xbc, 0x76, 0x3d,
  0xfb, 0x72, 0x52, 0x3e, 0x94, 0xce, 0x91, 0x3d, 0x84, 0xe9, 0x74, 0x3e,
  0xeb, 0x28, 0x93, 0x3e, 0x75, 0x1a, 0x03, 0x3e, 0x43, 0xcf, 0x9e, 0x3e,
  0xe8, 0x94, 0xfa, 0x3c, 0x63, 0xa8, 0xc7, 0x3d, 0xda, 0x40, 0x50, 0xbc,
  0x3e, 0x9e, 0xed, 0x3d, 0x50, 0x8d, 0x2e, 0x3e, 0x50, 0xcb, 0x40, 0x3e,
  0xff, 0x2f, 0x9c, 0x3e, 0x27, 0x2e, 0x7f, 0x3e, 0x6e, 0xb2, 0x9b, 0xbc,
  0x3f, 0xfa, 0x75, 0x3e, 0x52, 0x3a, 0x97, 0x3e, 0x94, 0xa4, 0x8b, 0x3e,
  0x23, 0xbd, 0xb1, 0x3e, 0xd0, 0x94, 0x44, 0xbe, 0xf0, 0x13, 0xc0, 0x3c,
  0xc6, 0x4f, 0x08, 0x3c, 0xdd, 0xa2, 0xcc, 0x3d, 0x72, 0x47, 0x22, 0x3e,
  0xe0, 0x7a, 0x12, 0xbd, 0x79, 0xa7, 0x83, 0x3e, 0x26, 0x4a, 0x54, 0x3c,
  0x92, 0x90, 0x14, 0x3d, 0x1f, 0x37, 0x80, 0x3e, 0xb1, 0x1c, 0x79, 0xbd,
  0x9b, 0x31, 0x1f, 0x3e, 0x3c, 0xdc, 0x6f, 0x3e, 0x57, 0x62, 0x6f, 0x3e,
  0x57, 0xed, 0x51, 0x3d, 0xc0, 0x1a, 0xf4, 0x3d, 0x7d, 0xec, 0xf8, 0x3d,
  0x30, 0xe2, 0xfa, 0x3d, 0xb5, 0xa1, 0x77, 0x3e, 0xca, 0x93, 0x13, 0xbd,
  0xd4, 0xa5, 0xb9, 0x3d, 0x25, 0x80, 0x3e, 0x3e, 0xde, 0xf5, 0x0c, 0x3e,
  0x84, 0x07, 0x18, 0xbd, 0x60, 0x63, 0x0f, 0x3e, 0x7b, 0x17, 0xe2, 0x3d,
  0x2a, 0x83, 0xaa, 0x3d, 0xf0, 0xcf, 0xc0, 0x3e, 0x34, 0x02, 0x10, 0xbd,
  0xe4, 0xec, 0x85, 0xbc, 0x73, 0x00, 0x19, 0x3e, 0xfb, 0xed, 0xe6, 0x3d,
  0x63, 0x45, 0xbc, 0x3e, 0x4f, 0x08, 0x7f, 0xbd, 0x85, 0x82, 0x4b, 0x3e,
  0x03, 0xe6, 0xe2, 0xbd, 0x68, 0x9e, 0xa5, 0x3e, 0x34, 0x4c, 0xc3, 0x3a,
  0xee, 0xe7, 0x3b, 0x3e, 0xaa, 0x95, 0x00, 0xbd, 0x02, 0x85, 0x53, 0x3e,
  0x29, 0x9b, 0x95, 0x3e, 0xe6, 0xb4, 0xd5, 0x3c, 0x08, 0x66, 0x83, 0x3e,
  0x85, 0xcd, 0x8f, 0x3d, 0x21, 0xfd, 0xb7, 0x3d, 0x8d, 0x4b, 0xc2, 0x3d,
  0xb4, 0x54, 0x9a, 0x3e, 0xe9, 0x4b, 0x6b, 0x3e, 0x30, 0x03, 0x1b, 0x3e,
  0x88, 0x61, 0x9d, 0x3e, 0xe5, 0x36, 0x0a, 0x3e, 0xf6, 0xb9, 0x44, 0x3d,
  0x82, 0x7e, 0x8a, 0x3d, 0x3e, 0xa0, 0x02, 0x3d, 0x4e, 0xf3, 0x02, 0x3e,
  0x69, 0x63, 0x0d, 0xbe, 0xc4, 0xe8, 0x0f, 0x3e, 0xb4, 0xbd, 0xef, 0x3d,
  0xea, 0x9a, 0x99, 0x3e, 0xdd, 0x1e, 0x17, 0xbd, 0xe8, 0x23, 0x83, 0x3e,
  0x48, 0x24, 0xbd, 0xbd, 0xf0, 0x7e, 0x39, 0x3e, 0x0b, 0x80, 0x25, 0x3d,
  0x94, 0xc7, 0x1e, 0x3e, 0xc6, 0x41, 0x2f, 0x3e, 0x41, 0x37, 0x36, 0x3d,
  0x94, 0x99, 0x9e, 0x3e, 0xef, 0x81, 0x3c, 0x3e, 0x60, 0x98, 0x82, 0x3e,
  0x78, 0xcf, 0x80, 0x3d, 0x57, 0xaa, 0x8a, 0x3e, 0x9e, 0x92, 0x9c, 0x3d,
  0xdb, 0x22, 0xa8, 0xbc, 0x2d, 0x94, 0x04, 0x3e, 0x6d, 0xbb, 0x89, 0x3e,
  0xec, 0x01, 0xa9, 0x3d, 0x2e, 0x90, 0x02, 0x3e, 0x84, 0x13, 0x1f, 0x3e,
  0xc6, 0xb5, 0xe7, 0xbd, 0xfe, 0x8e, 0x0a, 0x3c, 0xa8, 0xfd, 0xdd, 0x3d,
  0xd8, 0xfa, 0x28, 0xbd, 0x44, 0xd7, 0x56, 0x3e, 0x22, 0xf3, 0x0b, 0x3e,
  0x77, 0x01, 0xd9, 0x3d, 0x9f, 0x80, 0xf7, 0x3c, 0x62, 0xa4, 0x16, 0xbd,
  0x8d, 0xe1, 0x0e, 0x3d, 0x47, 0x7c, 0x64, 0x3e, 0x98, 0x45, 0xae, 0x3e,
  0xa0, 0xa5, 0xd5, 0xbd, 0x91, 0x5b, 0xc8, 0x3d, 0xf3, 0xee, 0xd8, 0xbc,
  0x1b, 0x22, 0x83, 0x3e, 0xef, 0x78, 0x85, 0x3d, 0x29, 0xf9, 0xf9, 0x3d,
  0xd7, 0xe4, 0x90, 0x3e, 0xe8, 0xbe, 0x07, 0x3e, 0xa0, 0x03, 0xbd, 0x3e,
  0x4c, 0x33, 0x82, 0x3e, 0x49, 0xeb, 0x9d, 0x3e, 0x05, 0x1b, 0x8e, 0xbd,
  0xcc, 0x45, 0x29, 0x3e, 0x2e, 0x67, 0x96, 0xbd, 0xde, 0x95, 0x25, 0x3e,
  0x3e, 0xd1, 0x5d, 0x3d, 0x5f, 0xf4, 0x9f, 0x3e, 0x72, 0x5d, 0x04, 0xbe,
  0x3a, 0x24, 0xd3, 0x3b, 0x06, 0x6d, 0x39, 0x3e, 0xa8, 0x2c, 0x02, 0x3e,
  0xc5, 0xc3, 0x48, 0x3e, 0x8d, 0x34, 0xb8, 0xbd, 0x8b, 0xcc, 0x1c, 0x3e,
  0xbf, 0x33, 0x4c, 0x3d, 0x6b, 0x78, 0xd3, 0x3c, 0x24, 0xe4, 0x65, 0x3e,
  0x29, 0x4b, 0x94, 0xbd, 0xda, 0x23, 0x70, 0x3c, 0x7b, 0xf3, 0x09, 0x3d,
  0x49, 0xcb, 0xc9, 0xbd, 0x33, 0xa5, 0x64, 0xbc, 0x77, 0xc4, 0xbe, 0x3b,
  0x89, 0x8c, 0x65, 0x3e, 0x0d, 0xa3, 0x0b, 0xbd, 0x44, 0x7a, 0x23, 0x3e,
  0xd3, 0x72, 0x1b, 0xbe, 0xdc, 0x61, 0x07, 0x3e, 0x21, 0x94, 0x0b, 0x3d,
  0x59, 0x63, 0xd1, 0xbc, 0x32, 0xc0, 0xb1, 0x3c, 0x69, 0xdf, 0xc6, 0xbd,
  0x21, 0xe3, 0xb5, 0x3e, 0x70, 0x5c, 0x0f, 0x3e, 0x3c, 0x6c, 0x4e, 0x3d,
  0x6c, 0xe2, 0xe8, 0x3d, 0xff, 0x9f, 0xba, 0x3e, 0x88, 0xa9, 0x58, 0x3e,
  0x82, 0x07, 0x95, 0x3e, 0xa0, 0xf8, 0x8e, 0x3e, 0xde, 0xf7, 0xa4, 0x3e,
  0x26, 0x5e, 0x3e, 0x3e, 0x43, 0x84, 0xa3, 0xbd, 0xfa, 0xf4, 0x41, 0x3e,
  0x6e, 0x7f, 0x93, 0x3e, 0xf6, 0x0a, 0x81, 0x3d, 0x87, 0xfa, 0x41, 0xbd,
  0x87, 0x39, 0x85, 0x3d, 0x86, 0x81, 0xfb, 0x3b, 0x02, 0x07, 0xd7, 0xbc,
  0x6c, 0x3a, 0xa4, 0x3c, 0x00, 0xe4, 0x87, 0x3e, 0xc9, 0x4d, 0x6f, 0x3e,
  0x57, 0xb8, 0xf2, 0x3d, 0x81, 0x79, 0xf0, 0xbd, 0x88, 0x25, 0x1f, 0x3e,
  0xbc, 0x99, 0x0a, 0x3d, 0x20, 0x2f, 0x3e, 0xbc, 0x96, 0xac, 0x0c, 0x3d,
  0x38, 0x1a, 0xdb, 0xbd, 0xee, 0x1d, 0x4f, 0x3e, 0x1b, 0x78, 0x3d, 0xbc,
  0x88, 0xee, 0x71, 0x3e, 0xd0, 0x02, 0xc3, 0x3d, 0x83, 0xc6, 0x9c, 0x3e,
  0x81, 0xd2, 0xe2, 0x3d, 0xc1, 0x23, 0x95, 0x3e, 0x98, 0xd2, 0x4e, 0xbd,
  0x3a, 0x19, 0x98, 0x3e, 0xdf, 0xb0, 0x84, 0x3d, 0x2a, 0x4a, 0x2a, 0xbd,
  0x46, 0xa1, 0x53, 0x3e, 0x93, 0xe7, 0x31, 0x3d, 0x49, 0x77, 0x58, 0x3e,
  0xce, 0x4c, 0x0e, 0x3e, 0x08, 0xa9, 0x47, 0x3e, 0xd0, 0x39, 0xeb, 0x3d,
  0xe3, 0x96, 0x04, 0x3d, 0xbc, 0x84, 0xbc, 0xbb, 0xd9, 0x7b, 0xd9, 0x3d,
  0x2e, 0xff, 0xc4, 0x3e, 0x6a, 0x81, 0x0c, 0x3e, 0x5d, 0x6b, 0x9d, 0x3c,
  0x34, 0x15, 0x9c, 0x3c, 0x87, 0x81, 0x02, 0x3d, 0x22, 0x15, 0x01, 0x3d,
  0x8b, 0x93, 0x3b, 0x3e, 0x4a, 0xea, 0x36, 0x3e, 0x9d, 0x47, 0x81, 0x3e,
  0x96, 0x63, 0xb1, 0x3e, 0x72, 0xad, 0x31, 0xbe, 0xf7, 0xd0, 0x1c, 0x3e,
  0x05, 0xbf, 0x82, 0x3c, 0x98, 0x0d, 0xe2, 0xbb, 0x24, 0xef, 0x96, 0x3e,
  0x0a, 0x3a, 0xcc, 0x3c, 0xdb, 0xff, 0x37, 0xbd, 0xbd, 0xb4, 0x18, 0x3d,
  0xef, 0x9c, 0x59, 0xbd, 0xc3, 0xed, 0x0d, 0x3c, 0xe8, 0x32, 0xb3, 0xbc,
  0x0c, 0x90, 0x40, 0xbe, 0x67, 0xf8, 0x45, 0xbb, 0xc3, 0x05, 0x39, 0x3e,
  0x45, 0x1d, 0x52, 0x3d, 0x57, 0x3c, 0x26, 0xbe, 0x7b, 0x34, 0x10, 0xbe,
  0xea, 0x8b, 0x22, 0xbe, 0x35, 0x5c, 0xc5, 0x3d, 0x9a, 0xcc, 0x2d, 0x3e,
  0x48, 0x27, 0xfc, 0x3d, 0xcd, 0x19, 0xe2, 0xbd, 0x77, 0xc6, 0x35, 0x3e,
  0x1e, 0x27, 0x80, 0x3d, 0x1d, 0xcd, 0x9b, 0xbd, 0x9f, 0x62, 0x3b, 0xbe,
  0x14, 0xf9, 0x54, 0x3d, 0x03, 0x5e, 0x8f, 0x3c, 0x9e, 0x29, 0x86, 0x3d,
  0x9f, 0x5c, 0x89, 0x3d, 0x3c, 0x11, 0xda, 0xbd, 0x1e, 0x84, 0xcb, 0x3d,
  0xa8, 0x27, 0xec, 0xbd, 0xac, 0xf9, 0x31, 0x3e, 0xa8, 0x89, 0xc6, 0x3d,
  0x03, 0xd3, 0x0f, 0x3e, 0xf3, 0xe3, 0xba, 0xbd, 0x0d, 0xd6, 0x53, 0xbe,
  0x62, 0x23, 0x4f, 0xbe, 0x12, 0xc9, 0x16, 0x3e, 0x36, 0x2e, 0xd2, 0xbd,
  0xae, 0xd9, 0xeb, 0x3c, 0x18, 0xa7, 0x72, 0xbe, 0x09, 0x34, 0x1a, 0xbe,
  0x8b, 0xd3, 0x38, 0x3e, 0x2f, 0x26, 0x67, 0xbd, 0xf3, 0x30, 0xab, 0x3d,
  0xbf, 0xd8, 0x89, 0x3d, 0xd4, 0xcc, 0xaa, 0xbd, 0xa1, 0x6f, 0x18, 0x3e,
  0x0d, 0x36, 0xad, 0x3d, 0x4c, 0x21, 0x46, 0x3e, 0x10, 0xa9, 0x14, 0x3d,
  0xf5, 0x8e, 0xac, 0x3d, 0xed, 0xcf, 0xe8, 0xbc, 0xf7, 0xf8, 0x71, 0xbe,
  0x66, 0x2e, 0xad, 0x3d, 0x75, 0xba, 0xff, 0xbd, 0x84, 0x30, 0x39, 0xbe,
  0x01, 0xc3, 0x65, 0xbd, 0x4c, 0x8b, 0xaa, 0xbd, 0xc6, 0x62, 0x05, 0xbe,
  0xc3, 0xf4, 0x39, 0xbd, 0xef, 0xf1, 0xfc, 0x3d, 0x5c, 0x09, 0xf7, 0xbd,
  0x8a, 0x58, 0xb8, 0x3d, 0x11, 0x44, 0x54, 0xbe, 0x02, 0x38, 0x5c, 0xbe,
  0x67, 0x82, 0x8a, 0xbd, 0xba, 0x3b, 0x69, 0xbe, 0x9f, 0x50, 0x1b, 0xbe,
  0x53, 0x75, 0x63, 0xbe, 0x89, 0x02, 0x08, 0x3e, 0x15, 0xcf, 0x9d, 0x3d,
  0x7a, 0x0e, 0xcd, 0xbc, 0x96, 0x92, 0x87, 0x3d, 0xea, 0xa6, 0xfa, 0x3c,
  0xb4, 0x59, 0x93, 0xbc, 0xe1, 0x3d, 0x6e, 0x3e, 0x39, 0x79, 0x84, 0x3e,
  0xb3, 0xfe, 0x61, 0x3e, 0xcc, 0x7b, 0xa2, 0x3d, 0x00, 0x9a, 0x17, 0x3e,
  0x87, 0xb9, 0x3a, 0x3c, 0x49, 0xe4, 0x94, 0x3c, 0x6d, 0x32, 0x00, 0xbe,
  0x57, 0x63, 0x62, 0xbd, 0xea, 0x90, 0xeb, 0x3a, 0x9f, 0xfb, 0x44, 0x3e,
  0xbe, 0x0e, 0x01, 0x3e, 0x98, 0x76, 0x7a, 0x3e, 0x05, 0x17, 0x90, 0xbc,
  0x69, 0xcf, 0x8b, 0x3e, 0xe2, 0x76, 0x46, 0x3c, 0x14, 0xbe, 0x4e, 0x3e,
  0x2a, 0x6d, 0x5e, 0x3e, 0xaf, 0x3f, 0x7d, 0x3e, 0x85, 0x0a, 0x11, 0xbe,
  0xb9, 0x5a, 0xd7, 0x3c, 0x9a, 0x39, 0x88, 0x3d, 0xed, 0x63, 0x0e, 0xbc,
  0x47, 0xde, 0x97, 0xbd, 0x68, 0x62, 0x8b, 0x3e, 0xe3, 0x32, 0x98, 0x3e,
  0xce, 0x74, 0x1e, 0x3e, 0xe9, 0x21, 0x6c, 0x3e, 0x7d, 0xcb, 0x80, 0x3d,
  0xad, 0x6d, 0x56, 0x3e, 0x62, 0x3b, 0x45, 0x3e, 0xce, 0xbd, 0xba, 0x3d,
  0xfc, 0xea, 0x5c, 0x3e, 0xc2, 0x7d, 0x7d, 0x3e, 0xcd, 0x31, 0x7f, 0x3d,
  0x2d, 0xeb, 0x43, 0x3e, 0x63, 0xd3, 0xbb, 0x3d, 0xa3, 0xde, 0xfa, 0x3d,
  0x6f, 0xeb, 0x11, 0x3d, 0x4b, 0xc2, 0x88, 0x3e, 0x3d, 0x2c, 0xa6, 0x3e,
  0x46, 0xcf, 0x16, 0x3d, 0xcc, 0xeb, 0x22, 0xbd, 0xab, 0x7c, 0xfa, 0xbd,
  0xc0, 0x5b, 0xb2, 0xbd, 0x70, 0xb9, 0xe2, 0xbb, 0x62, 0xbc, 0x29, 0x3c,
  0xcd, 0x54, 0x58, 0x3e, 0xc3, 0x17, 0x5d, 0x3e, 0xaa, 0x18, 0x17, 0x3d,
  0xe1, 0xb2, 0x70, 0xbe, 0x55, 0x86, 0xb9, 0xbd, 0xf9, 0x0d, 0x51, 0x3d,
  0xa2, 0xb8, 0x14, 0xbe, 0xbb, 0x6d, 0x40, 0x3e, 0xa0, 0xdb, 0x22, 0x3e,
  0xed, 0xeb, 0xa3, 0x3e, 0x5e, 0x96, 0xa7, 0x3e, 0x9b, 0x01, 0x41, 0x3e,
  0xc1, 0x97, 0xcc, 0x3e, 0xf5, 0x3d, 0x32, 0x3d, 0x28, 0xa7, 0x84, 0x3e,
  0xb1, 0x30, 0x10, 0x3d, 0x29, 0x01, 0x94, 0x3e, 0xba, 0x85, 0x83, 0x3d,
  0x47, 0x6e, 0x37, 0x3e, 0x54, 0x86, 0xe5, 0x3d, 0x6a, 0x63, 0x66, 0xbd,
  0xa8, 0xc1, 0x61, 0xbc, 0xfc, 0x4d, 0x89, 0x3e, 0x42, 0x49, 0x32, 0x3e,
  0x7a, 0x3f, 0x64, 0x3e, 0x0b, 0x3b, 0xaf, 0x3d, 0xbd, 0x56, 0x39, 0x3e,
  0xdb, 0xd6, 0x0c, 0xbc, 0xc5, 0x8e, 0xdc, 0x3c, 0x45, 0x46, 0x16, 0xbd,
  0xfb, 0x2d, 0x73, 0x3e, 0x29, 0x91, 0x15, 0x3e, 0x55, 0xb8, 0x02, 0x3e,
  0xc1, 0x9f, 0x28, 0x3e, 0x2e, 0xba, 0x06, 0x3d, 0x6f, 0xb7, 0x95, 0x3e,
  0x40, 0x33, 0xa4, 0xbb, 0xb0, 0x9c, 0xd0, 0x3d, 0xaf, 0xb6, 0x3c, 0x3e,
  0xaa, 0x01, 0x48, 0xbc, 0x78, 0x53, 0x5b, 0x3e, 0x7a, 0x0f, 0x54, 0x3d,
  0x69, 0x6d, 0x7d, 0x3e, 0xbd, 0xea, 0xc2, 0x3d, 0xe9, 0xf2, 0x64, 0xbd,
  0xd0, 0x4c, 0x45, 0x3e, 0x45, 0x63, 0x95, 0xbc, 0x8f, 0xcd, 0x86, 0x3e,
  0x6e, 0xb8, 0x6c, 0x3e, 0x89, 0xd0, 0x41, 0x3e, 0xb5, 0xa6, 0x49, 0x3e,
  0x38, 0x0f, 0x1d, 0x3e, 0x0f, 0x1f, 0xc6, 0xbd, 0x1f, 0xcd, 0x20, 0xbc,
  0xaf, 0x4a, 0x98, 0x3e, 0xc1, 0xf1, 0x92, 0x3d, 0x05, 0xc0, 0x03, 0x3e,
  0x40, 0x78, 0xaf, 0x3e, 0xc9, 0x0d, 0x96, 0x3e, 0x20, 0x05, 0xa4, 0xbd,
  0x80, 0xde, 0xdd, 0xbd, 0x9f, 0x18, 0xc0, 0x3d, 0xb7, 0x48, 0x84, 0xbd,
  0x79, 0xa2, 0x41, 0xbd, 0xba, 0x28, 0xa7, 0xbd, 0xc2, 0x90, 0xa8, 0xbc,
  0x62, 0xab, 0xb2, 0x3e, 0x5f, 0x98, 0x51, 0x3c, 0xc6, 0x9f, 0xc6, 0x3c,
  0xf9, 0xf7, 0x94, 0x3e, 0x23, 0xc7, 0xa0, 0xbc, 0xdc, 0x61, 0x42, 0x3d,
  0x71, 0x5c, 0x0c, 0xbe, 0x24, 0x92, 0xf3, 0x3d, 0x66, 0x79, 0x91, 0x3e,
  0x70, 0x55, 0x80, 0x3e, 0xd7, 0x8e, 0x7b, 0x3e, 0x90, 0x94, 0x03, 0x3e,
  0x14, 0x87, 0x97, 0x3a, 0x49, 0x76, 0x61, 0xbd, 0x3c, 0xdd, 0xd2, 0x3d,
  0x7a, 0xbf, 0xcc, 0xbd, 0x0b, 0xe5, 0x45, 0xbe, 0x04, 0x1d, 0x48, 0x3d,
  0x45, 0x4e, 0x73, 0x3d, 0x09, 0x02, 0x32, 0xbe, 0x3b, 0x74, 0xcb, 0xbd,
  0xd8, 0xc5, 0xa3, 0xbc, 0x13, 0x06, 0xf8, 0x3d, 0x89, 0x1b, 0x53, 0xbd,
  0xb4, 0x17, 0x09, 0xbe, 0x5d, 0xab, 0xe4, 0xbe, 0x99, 0x2f, 0x4c, 0x3e,
  0xca, 0xcb, 0x4d, 0xbd, 0x32, 0x43, 0xcf, 0x3d, 0xcd, 0xae, 0x81, 0x3e,
  0x69, 0x35, 0x68, 0x3d, 0x3e, 0x91, 0x82, 0x3e, 0x0e, 0x24, 0x6a, 0x3d,
  0x75, 0x6c, 0x48, 0xbe, 0x5f, 0x14, 0xab, 0xbd, 0x4c, 0xe3, 0x67, 0x3c,
  0xf1, 0x77, 0x17, 0x3e, 0xec, 0x6a, 0x69, 0xbe, 0xd7, 0x31, 0xaf, 0xbd,
  0x50, 0xed, 0x14, 0xbe, 0x51, 0x85, 0x26, 0xbe, 0xfa, 0x23, 0x43, 0x3e,
  0xa9, 0x25, 0x74, 0xbe, 0x18, 0xff, 0x58, 0xbe, 0x35, 0xd1, 0x57, 0xbe,
  0xcd, 0x84, 0x1e, 0x3c, 0xf3, 0xba, 0x26, 0x3c, 0xc7, 0xa6, 0x53, 0x3d,
  0xf7, 0xa3, 0x3b, 0x3e, 0xeb, 0xf8, 0x40, 0xbe, 0x1b, 0x84, 0x35, 0x3e,
  0xeb, 0x70, 0x86, 0x3e, 0x39, 0x38, 0x59, 0xbd, 0x43, 0x82, 0x44, 0xbd,
  0x43, 0x19, 0xa9, 0xbd, 0xd1, 0x9a, 0x69, 0xbe, 0x32, 0x84, 0x7e, 0x3e,
  0x2f, 0x81, 0x49, 0x3e, 0x68, 0x49, 0xb6, 0xbd, 0x6f, 0xd4, 0x40, 0x3e,
  0x06, 0xc1, 0x49, 0xbe, 0x20, 0x0e, 0x32, 0xbe, 0xb3, 0x29, 0xf5, 0x3b,
  0x99, 0xef, 0xcb, 0x3d, 0x8a, 0xfb, 0x0b, 0xbe, 0x1e, 0x02, 0x2a, 0x3e,
  0x70, 0x01, 0x38, 0xbe, 0xc6, 0x33, 0x19, 0xbd, 0xc7, 0x95, 0x50, 0x3e,
  0xa8, 0x6b, 0x72, 0x3d, 0x82, 0x0d, 0x1f, 0x3e, 0x58, 0xa2, 0x66, 0x3e,
  0x13, 0x03, 0x03, 0x3e, 0x8b, 0xec, 0x09, 0x3e, 0x46, 0x98, 0x9f, 0x3d,
  0x1c, 0xd0, 0x17, 0xbe, 0x5b, 0x46, 0x85, 0xbe, 0x48, 0xaa, 0xe2, 0xbd,
  0xbb, 0xd8, 0x26, 0x3e, 0x54, 0x3e, 0xb1, 0x3b, 0x93, 0x98, 0xf0, 0x3d,
  0x87, 0x30, 0x37, 0x3e, 0xd6, 0x4b, 0x90, 0x3d, 0x1f, 0xd9, 0x25, 0x3e,
  0xfd, 0x62, 0xfb, 0x3d, 0xd4, 0xc8, 0x59, 0xbe, 0x2c, 0x53, 0x3b, 0x3d,
  0x34, 0xff, 0x3b, 0x3d, 0x2b, 0x05, 0x6e, 0x3d, 0xe6, 0x80, 0x5a, 0x3d,
  0xf9, 0x1c, 0x39, 0x3e, 0xb9, 0x40, 0x77, 0xbd, 0xf5, 0x85, 0x5c, 0x3c,
  0xdc, 0x7b, 0x4f, 0x3e, 0x86, 0xbb, 0x4e, 0x3e, 0xbe, 0x03, 0x8d, 0x3d,
  0xb0, 0x13, 0x0a, 0xbe, 0x58, 0x51, 0x0d, 0xbc, 0xa5, 0x55, 0x33, 0xbe,
  0x45, 0x77, 0x13, 0x3e, 0xe0, 0x38, 0xcb, 0x3d, 0xef, 0x76, 0x1f, 0x3e,
  0x58, 0x09, 0x44, 0x3d, 0x68, 0x22, 0x15, 0x3e, 0xc4, 0xd1, 0x0d, 0xbe,
  0xf6, 0x8c, 0xee, 0xbd, 0x28, 0x77, 0xf9, 0x3d, 0x4d, 0x36, 0xe4, 0xbd,
  0x06, 0x92, 0x4b, 0x3d, 0x2a, 0x22, 0x20, 0x3d, 0x69, 0xee, 0x4b, 0xbd,
  0x7d, 0x06, 0x5c, 0xbe, 0x2a, 0x14, 0x53, 0x3e, 0x51, 0xdd, 0x8d, 0xbd,
  0x3a, 0x3b, 0xf1, 0x3d, 0x3a, 0xea, 0x4c, 0x3e, 0x1b, 0xe1, 0x65, 0xbe,
  0xb0, 0x79, 0x78, 0x3b, 0x25, 0xa8, 0x13, 0xbe, 0xa1, 0x21, 0x11, 0x3d,
  0x84, 0x1f, 0xf1, 0xbc, 0x70, 0x4a, 0x46, 0xbe, 0xbe, 0x36, 0x2e, 0xbc,
  0xbf, 0x3b, 0x3a, 0x3d, 0x4a, 0x95, 0x3e, 0xbe, 0x70, 0x50, 0x1e, 0x3e,
  0xf8, 0x6b, 0x33, 0xbe, 0xa7, 0xca, 0x16, 0xbd, 0x79, 0x14, 0x01, 0xbe,
  0xd5, 0x15, 0x16, 0x3e, 0xbf, 0x65, 0xe3, 0x3d, 0xa9, 0x74, 0x5b, 0xbe,
  0xd5, 0xfa, 0x45, 0xbe, 0x67, 0x02, 0x5c, 0xbe, 0x65, 0xeb, 0x2a, 0xbe,
  0xb2, 0x79, 0x4b, 0xbe, 0xb2, 0xb7, 0xef, 0xbd, 0xc0, 0x97, 0xeb, 0xbd,
  0x21, 0xe3, 0xf9, 0x3d, 0x9b, 0x85, 0x24, 0xbe, 0x4e, 0xb7, 0x23, 0xbe,
  0x1d, 0xf4, 0x58, 0xbe, 0x8b, 0xf4, 0x44, 0x3e, 0xf2, 0x93, 0xba, 0xbe,
  0x0d, 0xd2, 0xf9, 0x3c, 0xf0, 0x57, 0xfe, 0xbd, 0x60, 0x92, 0x7f, 0x3e,
  0x71, 0xfc, 0x7f, 0x3d, 0xe4, 0xcf, 0x7c, 0xbd, 0x52, 0x84, 0x95, 0xbe,
  0xdc, 0xc9, 0x19, 0xbd, 0x6a, 0x53, 0x2e, 0x3d, 0x29, 0xda, 0xc2, 0xbc,
  0xfa, 0x78, 0x1d, 0xbe, 0x0e, 0x9e, 0x6a, 0xbc, 0x64, 0x12, 0x6b, 0xbe,
  0x88, 0xfb, 0x6f, 0xbd, 0x4b, 0x81, 0xa7, 0xbd, 0xeb, 0x1e, 0xf4, 0x3d,
  0x42, 0x2f, 0x90, 0x3e, 0xaf, 0xd9, 0xe1, 0xbd, 0x64, 0x66, 0x89, 0x3a,
  0x64, 0x00, 0x18, 0xbe, 0x89, 0x06, 0x74, 0xbc, 0x81, 0x84, 0x12, 0x3d,
  0x78, 0x34, 0x21, 0xbd, 0x0e, 0x0c, 0xb4, 0xbd, 0xc9, 0x4f, 0x07, 0xbe,
  0xb0, 0x69, 0x9b, 0xbe, 0x4d, 0x80, 0xa7, 0x3e, 0x60, 0x47, 0xb9, 0x3d,
  0x83, 0xd1, 0x9d, 0xbe, 0x60, 0x14, 0x60, 0xbe, 0x43, 0xd5, 0x8b, 0x3e,
  0x6b, 0xcb, 0x1f, 0x3e, 0xb6, 0x7f, 0xa1, 0x3d, 0xc3, 0xc9, 0xb1, 0x3d,
  0x44, 0xf0, 0x86, 0xbe, 0x07, 0xf6, 0x81, 0x3e, 0x29, 0x67, 0x88, 0x3e,
  0x97, 0x1b, 0xdd, 0xbc, 0xf5, 0x83, 0x61, 0x3c, 0xbc, 0x53, 0x42, 0xbe,
  0xbe, 0xf6, 0x50, 0x3d, 0x15, 0xa5, 0x9c, 0x3d, 0x86, 0x33, 0xe6, 0x3d,
  0x5a, 0x3c, 0xb4, 0xbe, 0xf2, 0x71, 0x0a, 0xbe, 0xeb, 0xb0, 0x0d, 0x3e,
  0x33, 0x93, 0x18, 0xbd, 0xc4, 0x31, 0xfe, 0x3b, 0x98, 0x4d, 0xf6, 0xbd,
  0x44, 0x2a, 0x77, 0x3d, 0x5e, 0xa3, 0x99, 0xbc, 0x87, 0xde, 0x70, 0xbe,
  0x05, 0x70, 0xa9, 0xbd, 0x78, 0xef, 0x4c, 0xbd, 0x4d, 0xc3, 0x24, 0xbd,
  0x6e, 0xfc, 0x15, 0xbe, 0xb4, 0x19, 0x5c, 0x3d, 0x80, 0x32, 0xa7, 0x3d,
  0x30, 0xd0, 0x6c, 0x3e, 0xfa, 0x84, 0x4b, 0x3e, 0xad, 0x98, 0x0e, 0xbe,
  0x57, 0xef, 0x46, 0x3e, 0x65, 0xac, 0x6d, 0xbe, 0x95, 0xa9, 0x5d, 0x3e,
  0x98, 0x31, 0xf2, 0x3d, 0x18, 0x36, 0x9d, 0xbe, 0xea, 0xf7, 0x18, 0xbe,
  0xdb, 0x56, 0xb5, 0x3c, 0x1a, 0xdf, 0x7f, 0x3b, 0x73, 0x70, 0xb0, 0xbd,
  0xce, 0x09, 0x51, 0xbd, 0xd3, 0x4a, 0xef, 0x3d, 0x22, 0x3b, 0x52, 0x3c,
  0x10, 0xb0, 0xe3, 0x3d, 0xb4, 0x25, 0x56, 0xbe, 0x67, 0xf7, 0x8d, 0x3d,
  0x57, 0xb5, 0x1f, 0xbe, 0xb0, 0xa6, 0xba, 0xbd, 0x2c, 0xca, 0x9d, 0xbc,
  0xc9, 0x3a, 0x89, 0xbe, 0x65, 0x9b, 0x86, 0x3e, 0x2d, 0xda, 0x12, 0x3d,
  0xb9, 0x4e, 0xdd, 0xbd, 0x99, 0x44, 0x37, 0xbe, 0xe2, 0x5a, 0x8f, 0xbc,
  0x12, 0x98, 0x55, 0x3e, 0x9d, 0x40, 0xe2, 0x3d, 0xe0, 0x1a, 0x83, 0x3e,
  0x0c, 0xa0, 0x01, 0xbe, 0xd4, 0x15, 0x95, 0xbd, 0x79, 0x21, 0x9c, 0x3e,
  0xcd, 0xe0, 0x2f, 0x3d, 0xc3, 0x50, 0x72, 0xbe, 0x37, 0xfd, 0x69, 0xbe,
  0x48, 0x3d, 0xee, 0xbc, 0x1a, 0xab, 0xe0, 0x3d, 0x4a, 0x03, 0xb0, 0xbe,
  0xa7, 0x32, 0x41, 0xbd, 0x4a, 0x5f, 0xa2, 0xbc, 0xec, 0xba, 0xf0, 0x3d,
  0x37, 0x18, 0x3d, 0xbd, 0xa6, 0x0b, 0x45, 0x3c, 0xaa, 0x05, 0x80, 0x3d,
  0x72, 0x83, 0xfe, 0x3d, 0x22, 0xbf, 0x07, 0xbe, 0xfb, 0xa1, 0x87, 0x3d,
  0x5c, 0xaa, 0x27, 0x3e, 0xda, 0xa2, 0x18, 0xbe, 0x90, 0x7a, 0x35, 0x3e,
  0xad, 0x1d, 0xb6, 0x3d, 0x8c, 0x9a, 0x93, 0xbe, 0xe0, 0xd1, 0x2f, 0xbe,
  0x48, 0x7e, 0x07, 0xbe, 0xd7, 0x21, 0x14, 0x3e, 0xb0, 0x1b, 0x3e, 0xbd,
  0x21, 0x1e, 0x69, 0xbd, 0xff, 0x37, 0xd8, 0xbc, 0xb0, 0x5c, 0xce, 0x3d,
  0x62, 0xbb, 0x14, 0xbe, 0x96, 0x76, 0x9c, 0x3d, 0x9d, 0x51, 0x82, 0x3c,
  0x09, 0x16, 0xf8, 0x3d, 0x30, 0xd0, 0xa1, 0x3d, 0x46, 0xeb, 0x8e, 0xbe,
  0x88, 0x8e, 0xa7, 0xbc, 0x6e, 0x99, 0xb3, 0x3d, 0xfe, 0xd5, 0xa1, 0x3d,
  0x8a, 0x4f, 0xb7, 0x3d, 0x88, 0x82, 0x3c, 0x3e, 0xe0, 0x36, 0x50, 0x3e,
  0x91, 0x98, 0x78, 0xbc, 0xb1, 0x6d, 0xbb, 0x3c, 0xe3, 0x0a, 0x11, 0x3e,
  0x37, 0xd6, 0x01, 0xbe, 0x10, 0xf2, 0x06, 0xbe, 0x63, 0xc3, 0x55, 0xbe,
  0x15, 0xc0, 0x32, 0x3e, 0x85, 0x3a, 0x99, 0xbd, 0xd3, 0x89, 0x21, 0xbe,
  0xa1, 0x87, 0x0c, 0xbe, 0xcd, 0x9a, 0x2e, 0xbe, 0xb6, 0xd2, 0x25, 0xbd,
  0x64, 0xbf, 0xf6, 0xbd, 0x30, 0xf3, 0x1a, 0xbe, 0x5c, 0x5d, 0x0e, 0x3d,
  0x80, 0xad, 0xae, 0x3c, 0xbb, 0x26, 0x91, 0xbd, 0x89, 0x33, 0xe0, 0xbd,
  0xfa, 0x7c, 0x98, 0xbb, 0x26, 0x28, 0x4c, 0xbe, 0x6e, 0x55, 0x82, 0xbd,
  0xfd, 0x3b, 0x42, 0xbe, 0x06, 0x67, 0xbf, 0xbd, 0x5d, 0x0b, 0x1a, 0xbd,
  0xdc, 0x2f, 0x4e, 0xbe, 0x73, 0xd2, 0xd8, 0x3d, 0x8f, 0x44, 0x1e, 0xbe,
  0xa3, 0x43, 0xc8, 0x3c, 0x8d, 0x26, 0x22, 0x3e, 0x70, 0x30, 0x10, 0xbd,
  0x28, 0x6f, 0xf3, 0x3c, 0x01, 0x5e, 0xf3, 0x3c, 0x23, 0x0b, 0x13, 0x3e,
  0xfa, 0x9b, 0x1d, 0xbe, 0x71, 0x88, 0x52, 0xbe, 0x27, 0xb2, 0x4c, 0x3e,
  0xb1, 0xf7, 0xed, 0x3d, 0x26, 0x17, 0x81, 0x3d, 0xfd, 0xe7, 0xda, 0xbd,
  0xfd, 0xa0, 0x47, 0x3e, 0xc0, 0x84, 0x22, 0x3b, 0x9f, 0x3f, 0xc2, 0xbd,
  0x9c, 0x28, 0x3b, 0xbe, 0x03, 0x6d, 0x13, 0xbe, 0x70, 0xb0, 0x60, 0xbd,
  0x8d, 0xb8, 0x37, 0xbd, 0x40, 0x6d, 0x3a, 0x3e, 0x8e, 0x90, 0x4a, 0x3e,
  0xe4, 0xdb, 0x15, 0xbd, 0x62, 0x09, 0x97, 0x3c, 0xab, 0x6f, 0xe9, 0x3d,
  0x7a, 0xcd, 0xb8, 0x3d, 0x0b, 0x4d, 0xe5, 0xbd, 0xa6, 0xb8, 0xb2, 0xbd,
  0xc4, 0x65, 0x67, 0x3d, 0xe9, 0x67, 0x0c, 0xbe, 0x68, 0xb1, 0xbe, 0xbc,
  0xce, 0x2f, 0x05, 0xbe, 0xcf, 0xbb, 0x09, 0x3e, 0x8f, 0xd0, 0x20, 0x3e,
  0x44, 0x04, 0x6b, 0x3d, 0x46, 0xad, 0x02, 0x3d, 0xc2, 0x79, 0x15, 0x3e,
  0xcf, 0x6a, 0x76, 0x3e, 0xad, 0x19, 0x1c, 0x3e, 0xfa, 0x51, 0x17, 0xbd,
  0xd3, 0x2f, 0xcb, 0xbd, 0x85, 0xbe, 0x86, 0x3e, 0xc9, 0x9c, 0xd5, 0xbd,
  0xdc, 0xad, 0x66, 0x3e, 0xad, 0x99, 0xac, 0x3e, 0x99, 0x30, 0x2d, 0x3e,
  0x98, 0x07, 0xb3, 0x3e, 0x92, 0xb7, 0x64, 0x3e, 0xad, 0x40, 0xdc, 0x3c,
  0xfa, 0x5e, 0xf3, 0x3d, 0xe3, 0x27, 0xa4, 0xbd, 0xa6, 0xf8, 0xf6, 0x3d,
  0xcd, 0x5c, 0xcb, 0xbd, 0x02, 0x35, 0x56, 0xbd, 0x14, 0x78, 0xb6, 0x3e,
  0x80, 0x85, 0x2e, 0x3e, 0xeb, 0xfa, 0x54, 0xbc, 0x9e, 0x8b, 0x02, 0x3e,
  0xfe, 0xf7, 0x2e, 0xbd, 0xe2, 0x19, 0x24, 0x3c, 0x2d, 0x37, 0xc2, 0x3b,
  0x57, 0x27, 0x43, 0x3e, 0x65, 0xf7, 0x44, 0x3e, 0x0e, 0xf8, 0xc2, 0x3d,
  0xeb, 0x94, 0x0f, 0xbd, 0x48, 0x51, 0x8a, 0x3e, 0xa5, 0x3f, 0x47, 0x3e,
  0x50, 0x8b, 0x2e, 0x3e, 0x09, 0xaf, 0x35, 0x3e, 0xe3, 0x0d, 0xcf, 0xbb,
  0x33, 0xd3, 0x22, 0x3e, 0x80, 0xd0, 0x18, 0x3e, 0xeb, 0xe4, 0x91, 0x3c,
  0x82, 0x07, 0x2f, 0x3e, 0xde, 0x9c, 0x52, 0x3c, 0x69, 0x83, 0xd0, 0x3c,
  0x4a, 0x3d, 0xa6, 0x3e, 0x81, 0x07, 0x4f, 0x3e, 0x00, 0xf4, 0x2a, 0x3c,
  0x84, 0x54, 0x6e, 0x3e, 0x1e, 0x68, 0x7d, 0x3e, 0xb3, 0x4a, 0x94, 0x3e,
  0xf6, 0x5d, 0x94, 0x3e, 0x8e, 0x0a, 0x92, 0x3e, 0x30, 0xc8, 0x1a, 0x3c,
  0xe2, 0xec, 0x46, 0x3e, 0x01, 0x04, 0x2e, 0xbe, 0x77, 0xd8, 0x9d, 0x3e,
  0x00, 0xe0, 0xc6, 0x3e, 0xf6, 0xc4, 0xe6, 0x3d, 0x63, 0x81, 0x4d, 0x3e,
  0xcd, 0xc7, 0x3a, 0x3e, 0x94, 0x1e, 0xa1, 0x3e, 0x66, 0x19, 0x8d, 0x3d,
  0x01, 0xad, 0x9d, 0x3e, 0x20, 0xd7, 0x4b, 0x3d, 0xae, 0xc5, 0x33, 0xbe,
  0x1c, 0x89, 0x49, 0x3e, 0xbf, 0xf0, 0x59, 0xbe, 0xba, 0x92, 0x21, 0xbe,
  0xd5, 0x79, 0xb1, 0x3c, 0xec, 0x6f, 0x1b, 0x3c, 0x2d, 0xb2, 0x3a, 0x3d,
  0x50, 0x03, 0x86, 0x3e, 0xfc, 0x42, 0x71, 0xb9, 0xb7, 0xd8, 0x10, 0xbe,
  0xa0, 0xda, 0xd4, 0x3d, 0x46, 0xeb, 0xa1, 0xbb, 0x00, 0xc0, 0x83, 0xbe,
  0x13, 0x04, 0x58, 0xbd, 0xeb, 0x8f, 0xa5, 0xbe, 0xab, 0xd9, 0xa5, 0x3d,
  0x3f, 0xff, 0x2a, 0xbd, 0x41, 0xb0, 0x20, 0xbe, 0x8a, 0x00, 0xd2, 0xbc,
  0xb3, 0x0b, 0x84, 0xbe, 0xcf, 0xb8, 0x84, 0x3b, 0x52, 0xdd, 0x33, 0x3e,
  0x7e, 0xc2, 0xf5, 0x3c, 0xef, 0xcb, 0x9e, 0x3d, 0x20, 0xe0, 0x9c, 0x3d,
  0x78, 0x98, 0x35, 0x3e, 0x96, 0xb6, 0x1f, 0xbe, 0x92, 0xd3, 0x02, 0x3e,
  0x96, 0x56, 0x83, 0xbb, 0xd0, 0x58, 0x44, 0x3d, 0xf1, 0x40, 0x90, 0x3e,
  0xf3, 0xe1, 0x37, 0x3d, 0xf9, 0x0b, 0xe4, 0xbe, 0x08, 0x19, 0x9a, 0xbd,
  0x5c, 0x4e, 0x1d, 0x3e, 0x58, 0x97, 0x35, 0x3e, 0x01, 0xb7, 0x5a, 0xbe,
  0x67, 0x2e, 0x36, 0x3d, 0x38, 0x2c, 0xa2, 0x3d, 0x1a, 0x68, 0x3b, 0x3e,
  0x76, 0x14, 0xb9, 0xbd, 0x6c, 0x85, 0xcf, 0x3d, 0xf9, 0x35, 0x83, 0x3e,
  0xcc, 0xc1, 0x9e, 0x3d, 0x5f, 0x86, 0x40, 0x3e, 0xaa, 0xd2, 0x2b, 0xbe,
  0xff, 0x33, 0xcc, 0xbd, 0x97, 0xf9, 0xd6, 0xbd, 0x7a, 0xb3, 0x8c, 0x3d,
  0xd1, 0x9d, 0x23, 0x3e, 0x72, 0x67, 0x45, 0xbe, 0x11, 0x38, 0x29, 0xbe,
  0xda, 0xbb, 0xd7, 0xbd, 0x2c, 0xa4, 0x09, 0xbe, 0x3f, 0xc6, 0xa5, 0xbd,
  0x08, 0x60, 0x6b, 0xbe, 0x44, 0x6c, 0xf1, 0xbd, 0xfa, 0xd0, 0xec, 0xbb,
  0x89, 0x5b, 0xfc, 0xbd, 0x6e, 0x0d, 0x4d, 0x3d, 0x2e, 0xfd, 0xda, 0x3d,
  0xe9, 0xd8, 0x23, 0xbe, 0x61, 0x2d, 0x59, 0x3e, 0x5e, 0x25, 0x0b, 0xbe,
  0x9c, 0x5a, 0x2e, 0xbe, 0x43, 0x35, 0xc6, 0x3d, 0x96, 0xd8, 0xb1, 0x3d,
  0x1d, 0xdf, 0xa4, 0x3e, 0x0a, 0x03, 0x1f, 0xbe, 0x50, 0xea, 0x67, 0xbe,
  0xa4, 0xb9, 0x7f, 0x3b, 0xcd, 0xba, 0x40, 0x3e, 0xdc, 0xa5, 0x80, 0xbe,
  0x25, 0xcc, 0xfd, 0x3c, 0x0c, 0x21, 0x91, 0x3d, 0x0e, 0xf6, 0x3c, 0xbe,
  0xb7, 0x7e, 0x3e, 0xbe, 0xd4, 0x41, 0xcd, 0xbd, 0x75, 0x49, 0xe0, 0xbe,
  0x38, 0xa5, 0x21, 0xbe, 0xdd, 0xe8, 0x05, 0xbe, 0x71, 0xe0, 0xed, 0xbd,
  0x6c, 0xae, 0x18, 0xbd, 0x93, 0x05, 0xc6, 0xbc, 0x5d, 0x1f, 0x8b, 0x3e,
  0xf3, 0xe4, 0x2b, 0x3e, 0x78, 0xc0, 0x15, 0xbe, 0x8e, 0xfe, 0x48, 0x3d,
  0x6e, 0x1e, 0x79, 0x3c, 0x92, 0x26, 0x8e, 0x3e, 0x3e, 0x56, 0xff, 0x3b,
  0xe4, 0x68, 0x91, 0x3e, 0x1d, 0x8d, 0x71, 0xbd, 0x5a, 0x0d, 0x78, 0xbe,
  0xbe, 0xd5, 0xb6, 0x3c, 0xe4, 0x93, 0x2c, 0x3c, 0x1f, 0xe3, 0xb2, 0xbc,
  0x33, 0xa6, 0x35, 0xbe, 0xae, 0xd7, 0x9c, 0x3e, 0xf0, 0xbd, 0x13, 0x3e,
  0xea, 0xfa, 0x30, 0xbd, 0xc9, 0x12, 0x3f, 0x3e, 0xaa, 0xac, 0x0e, 0x3e,
  0x6c, 0x14, 0x0b, 0xbd, 0x36, 0x07, 0x8d, 0x3e, 0xd7, 0xc8, 0x36, 0xbe,
  0xd5, 0x13, 0x32, 0xbd, 0x06, 0x31, 0x57, 0x3c, 0x6d, 0xba, 0x34, 0x3e,
  0xcd, 0x24, 0x77, 0x3d, 0xc8, 0x80, 0x4f, 0x3e, 0x92, 0x18, 0x77, 0xbe,
  0xc8, 0x2f, 0x27, 0xbe, 0x79, 0x4d, 0x31, 0x3e, 0xcc, 0xbf, 0x11, 0xbd,
  0xa4, 0x41, 0x2a, 0xbe, 0x5c, 0x0b, 0xaf, 0xbd, 0x0d, 0xc6, 0x4b, 0xbe,
  0xe4, 0x78, 0x0d, 0xbe, 0x0c, 0xa0, 0x8d, 0xbe, 0x66, 0xbe, 0xba, 0xbd,
  0x61, 0x3e, 0xc6, 0x3d, 0x7d, 0x8d, 0x79, 0xbe, 0xf8, 0xeb, 0xb6, 0xbd,
  0x9b, 0x79, 0x0b, 0x3e, 0xfb, 0xa8, 0x52, 0xbe, 0x9c, 0x23, 0x9a, 0xbd,
  0xc6, 0x7a, 0x8d, 0x3e, 0xf1, 0x00, 0x8c, 0x3c, 0xd1, 0x08, 0x47, 0xbe,
  0xc3, 0x43, 0xde, 0xbb, 0x73, 0x01, 0x45, 0xbe, 0xc8, 0x53, 0x43, 0x3a,
  0x6d, 0x15, 0x9d, 0xbd, 0xe7, 0x08, 0x81, 0xbd, 0x19, 0xf5, 0x58, 0xbe,
  0xd9, 0x0f, 0xd6, 0x3d, 0xc8, 0x7e, 0x3d, 0xbd, 0xf2, 0x0c, 0xd9, 0xbd,
  0x6e, 0x98, 0xae, 0x3c, 0x77, 0xa0, 0x39, 0x3d, 0x76, 0xbd, 0xcb, 0xbd,
  0x26, 0xc7, 0x59, 0xbd, 0xb2, 0x64, 0x9f, 0xbd, 0x19, 0xf9, 0x30, 0x3c,
  0x59, 0xf3, 0x33, 0x3e, 0x80, 0x60, 0x8f, 0x3d, 0xd3, 0x8a, 0x38, 0x3c,
  0xea, 0xef, 0x70, 0xbe, 0xa3, 0xb5, 0x1f, 0x3e, 0x83, 0xf9, 0xb4, 0xbc,
  0x6c, 0x6f, 0x2c, 0x3e, 0x70, 0xbe, 0x04, 0xbe, 0x7b, 0x8b, 0xeb, 0xbd,
  0x03, 0x75, 0x87, 0x3d, 0xe7, 0x8a, 0xb9, 0x3d, 0xd0, 0x2c, 0x26, 0xbe,
  0x1f, 0xa9, 0x41, 0x3c, 0xea, 0x34, 0x3c, 0xbe, 0x46, 0x61, 0x04, 0xbe,
  0x52, 0xd5, 0x02, 0xbe, 0xfb, 0x2f, 0xed, 0xbd, 0x9a, 0x5f, 0x22, 0xbe,
  0x24, 0x21, 0x68, 0xbe, 0xc1, 0xee, 0x2e, 0x3e, 0x85, 0x6f, 0xf3, 0x3d,
  0x44, 0x04, 0x1e, 0xbc, 0xaf, 0x42, 0xa6, 0x3d, 0xf9, 0xea, 0x44, 0x3d,
  0x0e, 0x0a, 0x2e, 0xbe, 0x55, 0x84, 0x6c, 0xbe, 0xd8, 0x33, 0xa7, 0xbd,
  0x40, 0x72, 0x2a, 0xbe, 0x50, 0xfe, 0x28, 0xbe, 0x79, 0x7e, 0x2d, 0x3e,
  0xca, 0xd5, 0x08, 0xbe, 0x69, 0xaa, 0x09, 0xbe, 0x42, 0x86, 0x05, 0x3e,
  0x7c, 0x66, 0x22, 0xbe, 0x0a, 0xc1, 0x8c, 0xbc, 0xfa, 0x07, 0xc3, 0x3d,
  0x0c, 0x09, 0xf6, 0x3d, 0x26, 0xc2, 0xe6, 0x3d, 0x13, 0x02, 0xca, 0xbc,
  0xfb, 0x6b, 0xb7, 0x3d, 0x0e, 0xa0, 0xa0, 0x3c, 0x5d, 0xb8, 0x2a, 0xbc,
  0x0f, 0x1e, 0xb3, 0x3d, 0x88, 0x77, 0x55, 0xbd, 0x02, 0x1d, 0x51, 0xbe,
  0x2c, 0x60, 0x21, 0x3e, 0x10, 0x0a, 0xc2, 0x3b, 0xe9, 0x7f, 0x24, 0xbe,
  0x8a, 0x45, 0xba, 0x3d, 0x21, 0x24, 0x00, 0xbe, 0x49, 0x5b, 0x09, 0x3e,
  0x41, 0x36, 0x85, 0xbe, 0x12, 0x2d, 0x24, 0xbe, 0x97, 0x35, 0x47, 0xbe,
  0x51, 0x85, 0x07, 0xbd, 0x15, 0xec, 0x89, 0x3d, 0x68, 0x82, 0xd6, 0x3d,
  0x82, 0x27, 0x0a, 0x3d, 0x6a, 0x6a, 0x89, 0xbe, 0xd2, 0x69, 0x35, 0xbd,
  0xc9, 0x73, 0x63, 0x3d, 0x4d, 0xc0, 0x3d, 0x3d, 0x75, 0x81, 0xaf, 0xbd,
  0x2c, 0xb3, 0x6b, 0xbd, 0x7d, 0x23, 0x2a, 0xbe, 0xde, 0x9d, 0x19, 0xbe,
  0x57, 0x80, 0xc2, 0x3c, 0x72, 0xb3, 0x7f, 0x3d, 0xa1, 0x60, 0x8e, 0x3d,
  0xad, 0xf5, 0x0e, 0x3e, 0x4a, 0x56, 0x5a, 0x3c, 0x3f, 0xe7, 0x6b, 0xbe,
  0x9d, 0x75, 0xe8, 0xbd, 0xa2, 0xf3, 0x12, 0xbe, 0x34, 0x2f, 0x0a, 0xbe,
  0x35, 0xd8, 0xf3, 0xbd, 0x72, 0x3c, 0x3c, 0x3d, 0x38, 0x99, 0xa6, 0xbd,
  0xce, 0x48, 0x00, 0xbe, 0xa3, 0x16, 0x1f, 0x3e, 0xee, 0x40, 0xc2, 0x3d,
  0xd0, 0xcc, 0x89, 0xbc, 0x51, 0xc5, 0xf4, 0xbd, 0x59, 0x1f, 0x9a, 0x3d,
  0xe8, 0xe6, 0x69, 0xbe, 0x31, 0x81, 0x32, 0x3c, 0x21, 0x69, 0xbe, 0xbc,
  0x01, 0x68, 0x3b, 0xbe, 0xba, 0x9b, 0xaa, 0xbd, 0xd3, 0x73, 0x25, 0xbe,
  0x5d, 0x5b, 0xe7, 0x3b, 0xea, 0x58, 0x01, 0x3e, 0x05, 0x89, 0x98, 0x3d,
  0xe8, 0xe3, 0x99, 0x3c, 0xfb, 0xf3, 0x06, 0x3e, 0xcf, 0x40, 0xa6, 0xbd,
  0xa4, 0x92, 0xb2, 0x3d, 0x4d, 0x8c, 0xe2, 0x3d, 0x37, 0x7b, 0xed, 0xbd,
  0xc1, 0x89, 0x20, 0xbe, 0xd2, 0x32, 0xc9, 0xbd, 0xc0, 0xc8, 0x2e, 0xbe,
  0xb4, 0x3b, 0x0a, 0xbe, 0x48, 0xd9, 0x09, 0xbd, 0x71, 0x54, 0x82, 0x3d,
  0x20, 0x42, 0x24, 0x3d, 0xaa, 0x34, 0x80, 0x3c, 0x60, 0x4a, 0xfe, 0xbc,
  0xfb, 0x4b, 0x33, 0x3d, 0x4e, 0x74, 0x9e, 0x3d, 0x90, 0x45, 0xac, 0x3d,
  0xba, 0x2d, 0x89, 0x3e, 0x64, 0xbe, 0x67, 0x3e, 0xdc, 0xae, 0xad, 0xbd,
  0x70, 0x44, 0x30, 0xbd, 0xe7, 0x35, 0x35, 0x3c, 0x03, 0x6f, 0xf9, 0x3d,
  0xdd, 0xc1, 0x89, 0x3e, 0xc2, 0x88, 0x44, 0x3e, 0x3f, 0x3c, 0x8d, 0x3e,
  0xda, 0x95, 0x0f, 0xbe, 0xf8, 0x93, 0x68, 0xbd, 0xdb, 0xc5, 0xff, 0xbc,
  0xcd, 0x65, 0x1a, 0x3e, 0x27, 0x57, 0xce, 0x3d, 0x2c, 0xb6, 0x27, 0xbd,
  0xc1, 0xb8, 0x98, 0x3e, 0x4e, 0xc6, 0x40, 0x3d, 0xfc, 0xb1, 0xbb, 0x3e,
  0x53, 0xf9, 0xb6, 0xbd, 0x9e, 0xdf, 0xc7, 0x3d, 0x4b, 0x2d, 0xdf, 0x3d,
  0x28, 0x7f, 0x82, 0x3e, 0x7b, 0xed, 0x78, 0x3d, 0xec, 0xf2, 0x04, 0xbe,
  0x78, 0xa7, 0xa7, 0x3d, 0xd4, 0x5e, 0x1c, 0x3e, 0xdc, 0xd8, 0x85, 0x3e,
  0x6d, 0x35, 0x98, 0x3b, 0x1f, 0xb0, 0xa5, 0x3e, 0xc2, 0x80, 0x79, 0x3c,
  0xd9, 0x1d, 0x6c, 0x3e, 0x8c, 0x06, 0x47, 0x3e, 0x18, 0x07, 0x79, 0x3e,
  0x7d, 0x76, 0x82, 0x3c, 0x61, 0xab, 0xdf, 0xbc, 0x3e, 0xd8, 0x2b, 0x3d,
  0xe4, 0x4a, 0x2b, 0x3e, 0x98, 0x16, 0x2a, 0x3e, 0xaa, 0x1d, 0x03, 0x3e,
  0xd4, 0x3a, 0x9a, 0x3e, 0x4d, 0x09, 0x1e, 0x3e, 0x6a, 0x5d, 0x5c, 0x3e,
  0xa5, 0xe7, 0x8c, 0x3d, 0xf7, 0x7a, 0xc3, 0xbd, 0x15, 0x2f, 0x54, 0x3e,
  0x40, 0x13, 0xed, 0x3d, 0x6a, 0x99, 0x80, 0x3e, 0xc9, 0xe6, 0x95, 0x3e,
  0xa2, 0x99, 0x5e, 0x3e, 0x43, 0xf0, 0x89, 0x3e, 0x53, 0x38, 0xa3, 0xbd,
  0xa2, 0x54, 0xc5, 0xbd, 0xf4, 0x69, 0xa4, 0xbd, 0x97, 0xd8, 0xf7, 0x3d,
  0x91, 0x4a, 0xff, 0xbd, 0x33, 0x40, 0xe1, 0xbc, 0x6f, 0xfc, 0x1f, 0x3e,
  0xe5, 0x03, 0x38, 0xbe, 0x42, 0xa0, 0x8a, 0xbd, 0xcc, 0x52, 0xd2, 0xbd,
  0x21, 0x1c, 0xab, 0x3d, 0x9e, 0xc2, 0xb1, 0x3d, 0xb6, 0xa5, 0xbb, 0x3d,
  0xe1, 0x55, 0xc0, 0x3e, 0x4e, 0x38, 0xc6, 0xbd, 0xfb, 0xba, 0xed, 0xbd,
  0x3b, 0xa7, 0x4f, 0xbe, 0x31, 0x5a, 0x0a, 0xbd, 0xe4, 0xd6, 0x05, 0x3e,
  0x27, 0x1c, 0x99, 0xbd, 0x00, 0x94, 0x3e, 0x3d, 0x2f, 0x1a, 0x6b, 0xbd,
  0xef, 0x83, 0x52, 0xbd, 0x3e, 0xc2, 0xc7, 0x3d, 0xbe, 0x4f, 0x64, 0xbd,
  0xf3, 0x36, 0x6f, 0xbe, 0xfd, 0xf3, 0x40, 0xbe, 0xb9, 0x65, 0xd6, 0x3d,
  0x22, 0xcf, 0x49, 0xbe, 0x7a, 0xc0, 0xce, 0xbc, 0xa1, 0x31, 0x13, 0xbd,
  0xfb, 0xf7, 0xf2, 0xbc, 0xec, 0xca, 0x75, 0xbe, 0xb3, 0x92, 0x48, 0xbd,
  0x5f, 0x01, 0x00, 0x3d, 0xa8, 0x3e, 0x06, 0x3e, 0x2a, 0xc1, 0x2a, 0xbe,
  0xe6, 0x62, 0xd5, 0xbd, 0xfa, 0xfe, 0xb9, 0xbd, 0xd0, 0x8f, 0xe7, 0xbc,
  0x79, 0x7e, 0x1c, 0xbe, 0x7a, 0xa6, 0xb2, 0xbc, 0x16, 0xae, 0x5a, 0xbc,
  0x14, 0x99, 0x40, 0x3d, 0x3e, 0x8f, 0x45, 0x3d, 0xea, 0x1a, 0x6c, 0xbe,
  0xa0, 0x7e, 0x1d, 0xbd, 0x76, 0x2f, 0x32, 0x3e, 0x5e, 0x49, 0x9d, 0x3d,
  0x23, 0x39, 0xe7, 0xbd, 0xfe, 0xdb, 0xb4, 0x3a, 0x69, 0x6e, 0x68, 0xbe,
  0x60, 0x2f, 0xc5, 0x3c, 0x09, 0x8b, 0x97, 0xbd, 0xe7, 0x5c, 0x0d, 0x3e,
  0xa4, 0x82, 0x30, 0xbe, 0x44, 0xa7, 0xbb, 0x3d, 0x69, 0xc0, 0xd2, 0x3d,
  0x6b, 0x66, 0x2b, 0xbd, 0x07, 0x8e, 0x7d, 0x3d, 0x00, 0x62, 0x41, 0xbe,
  0x4a, 0x55, 0xec, 0x3d, 0x16, 0x4a, 0xc5, 0xbc, 0x2f, 0x00, 0x05, 0xbe,
  0x85, 0x62, 0xef, 0xbc, 0x36, 0x91, 0xb2, 0xbd, 0xc1, 0x03, 0xc1, 0xbc,
  0x5b, 0x2c, 0x10, 0xbe, 0xae, 0xbf, 0x1e, 0x3d, 0xdd, 0xcf, 0x1b, 0x3e,
  0x2c, 0x72, 0x04, 0xbc, 0x81, 0xc4, 0xbd, 0x3c, 0x4c, 0x53, 0x7d, 0x3d,
  0xf1, 0xd5, 0x0a, 0x3e, 0x4e, 0xfd, 0xee, 0x3d, 0x46, 0x89, 0x15, 0xbe,
  0x22, 0xeb, 0xe0, 0x3d, 0x85, 0x6a, 0x1c, 0x3e, 0x76, 0xca, 0x44, 0xbe,
  0x1e, 0xf1, 0xe0, 0xbc, 0xf1, 0x61, 0x37, 0xbe, 0x0e, 0xeb, 0x31, 0x3e,
  0xd1, 0xa2, 0x72, 0xbe, 0xee, 0x2f, 0x58, 0xbe, 0x33, 0x3b, 0x11, 0x3d,
  0x93, 0x15, 0xf4, 0x3d, 0x80, 0xcf, 0x22, 0xbd, 0x85, 0x02, 0x68, 0xbe,
  0x37, 0xda, 0x99, 0xbd, 0x76, 0x64, 0xcb, 0xbd, 0x86, 0x89, 0xf1, 0xbd,
  0x0e, 0xbd, 0x0a, 0x3e, 0x2f, 0xb4, 0x88, 0xbe, 0x19, 0xdd, 0x8b, 0xbb,
  0x7e, 0xed, 0x63, 0xbe, 0x86, 0x58, 0x66, 0xbe, 0x4a, 0x19, 0xcc, 0x3d,
  0xc1, 0x82, 0x95, 0x3b, 0x86, 0x1b, 0x57, 0xbd, 0x42, 0xf5, 0x06, 0x3e,
  0x31, 0x3f, 0xc5, 0x3d, 0xfb, 0x6f, 0x1e, 0x3e, 0x89, 0xbd, 0x7e, 0x3d,
  0xc6, 0x74, 0x5b, 0x3e, 0x0b, 0x19, 0x30, 0x3d, 0xe4, 0x69, 0x3a, 0x3e,
  0x9d, 0x79, 0x3a, 0x3e, 0xb8, 0x80, 0x94, 0xbc, 0x34, 0x78, 0xd6, 0xbd,
  0x79, 0x06, 0x83, 0xbc, 0xe1, 0xdb, 0x29, 0xbe, 0x15, 0xf0, 0x97, 0xbc,
  0x58, 0x82, 0x1b, 0x3e, 0xe3, 0xbc, 0x07, 0x3e, 0xbe, 0x58, 0x18, 0x3d,
  0x58, 0xf7, 0xed, 0x3c, 0x3a, 0xb8, 0x83, 0xbe, 0x2e, 0x8e, 0x1e, 0xbe,
  0x47, 0x63, 0xc0, 0xbd, 0xc5, 0x7a, 0xc0, 0x3c, 0xf4, 0x18, 0xe8, 0x3d,
  0x4c, 0x6b, 0x68, 0x3c, 0x60, 0xc6, 0x60, 0x3d, 0xd0, 0x7a, 0x86, 0xbc,
  0xef, 0x34, 0xaa, 0xbd, 0x3c, 0xd1, 0x9a, 0xbe, 0x37, 0xc9, 0xe4, 0x3d,
  0x04, 0x49, 0x36, 0xbe, 0x89, 0x33, 0xc0, 0xbc, 0x4a, 0x8d, 0x87, 0x3d,
  0xb7, 0xf9, 0x78, 0xbd, 0x18, 0x04, 0xd7, 0xbd, 0x4f, 0x61, 0x3f, 0x3e,
  0x33, 0x78, 0x3b, 0xbd, 0xdb, 0x98, 0x6b, 0x3e, 0xa9, 0x3a, 0xa7, 0x3c,
  0x98, 0x05, 0xcf, 0xbd, 0xfa, 0x72, 0xab, 0xba, 0x1e, 0xc6, 0x89, 0x3e,
  0x94, 0xcc, 0xec, 0x3d, 0x9e, 0x3e, 0xb9, 0x3d, 0x09, 0xb7, 0x8d, 0x3e,
  0x77, 0x21, 0x38, 0x3e, 0xf5, 0xff, 0xb1, 0xbd, 0x1f, 0x13, 0x6a, 0x3e,
  0xaf, 0x72, 0x97, 0x3e, 0x50, 0xf7, 0x6c, 0x3c, 0xc2, 0x2c, 0x2d, 0x3e,
  0xdd, 0xbf, 0x7e, 0x3e, 0x3e, 0x73, 0x77, 0xbd, 0x57, 0xb3, 0x2d, 0x3e,
  0x88, 0xac, 0x69, 0x3c, 0x4c, 0x7f, 0xa1, 0x3e, 0xcf, 0x2a, 0x4c, 0x3e,
  0xec, 0x62, 0x1a, 0x3d, 0xe8, 0xfd, 0xf8, 0x3d, 0x43, 0x84, 0x16, 0x3e,
  0x7b, 0x7c, 0x48, 0x3e, 0xbf, 0x2e, 0x94, 0x3d, 0xe7, 0x62, 0x35, 0x3e,
  0x8c, 0x5e, 0x88, 0x3e, 0xd7, 0xed, 0x37, 0x3e, 0x50, 0x47, 0x7c, 0x3d,
  0x6a, 0xc5, 0x87, 0x3e, 0x47, 0xf4, 0x82, 0x3e, 0x49, 0xc8, 0xef, 0x3a,
  0x2f, 0xcb, 0x91, 0x3e, 0xe8, 0xb7, 0xda, 0x3d, 0x8a, 0x26, 0x3b, 0x3e,
  0x12, 0x64, 0xe7, 0xbb, 0xa8, 0x62, 0x92, 0x3d, 0x88, 0x20, 0xfe, 0xbc,
  0x15, 0x71, 0x8d, 0x3e, 0x43, 0x5d, 0x82, 0x3e, 0xfd, 0x72, 0x6f, 0x3b,
  0x80, 0xb5, 0xc3, 0x3d, 0x34, 0xb8, 0x3b, 0x3e, 0x82, 0x96, 0x78, 0x3e,
  0xfd, 0xb4, 0xd2, 0xbd, 0xc5, 0x8f, 0x51, 0x3e, 0x15, 0x84, 0x6c, 0x3e,
  0x17, 0xdb, 0x9d, 0xbd, 0x99, 0x84, 0xb8, 0x3c, 0xbe, 0xd5, 0xa5, 0x3d,
  0x36, 0x4d, 0x74, 0x3e, 0xbb, 0xd3, 0x8c, 0x3d, 0x91, 0x47, 0x1f, 0xbd,
  0x1d, 0x8f, 0xcc, 0xbd, 0x88, 0xd3, 0x7d, 0x3e, 0x16, 0x7d, 0x35, 0x3e,
  0xa6, 0x80, 0x85, 0x3e, 0x29, 0x8f, 0xd4, 0xbd, 0xb5, 0xcb, 0x5c, 0x3e,
  0xb1, 0xf8, 0xab, 0x3c, 0x86, 0x87, 0xa5, 0xbc, 0x15, 0x93, 0x69, 0x3e,
  0x04, 0x19, 0xec, 0x3c, 0x70, 0xa1, 0x69, 0x3e, 0xa3, 0xe4, 0xc5, 0x3d,
  0x36, 0x78, 0x1c, 0x3e, 0x44, 0x30, 0x2b, 0x3e, 0xb4, 0xc6, 0x25, 0x3e,
  0x47, 0xf9, 0xe2, 0x3c, 0xe1, 0xfa, 0x74, 0x3e, 0x26, 0x2d, 0x78, 0x3d,
  0x28, 0x10, 0xe6, 0x3c, 0xaa, 0xaa, 0x0f, 0xbe, 0x30, 0x6d, 0x3b, 0xbd,
  0xbc, 0x69, 0x5e, 0xbe, 0x58, 0x8e, 0x8d, 0x3e, 0x70, 0x92, 0x7b, 0xbe,
  0xe9, 0x14, 0xa8, 0xbe, 0x87, 0x22, 0x95, 0xbe, 0x6a, 0xb8, 0xd2, 0x3c,
  0xf8, 0xef, 0x0b, 0x3d, 0xea, 0xc1, 0x30, 0x3e, 0x7e, 0x8b, 0xdf, 0xbd,
  0x4a, 0x5d, 0x31, 0xbe, 0xb9, 0x2a, 0xc3, 0xbb, 0xe1, 0xfc, 0x03, 0x3e,
  0x57, 0x79, 0x25, 0xbd, 0x69, 0xc6, 0x38, 0x3e, 0x24, 0xd3, 0x70, 0xbd,
  0x01, 0x55, 0x9a, 0xbe, 0xfe, 0xc1, 0x95, 0xbe, 0x48, 0xb7, 0x92, 0x3c,
  0x80, 0x4e, 0x9f, 0x3e, 0x06, 0xb5, 0x40, 0x3d, 0x44, 0x55, 0x72, 0x3b,
  0x00, 0xb1, 0x57, 0x3e, 0xee, 0x94, 0x54, 0xbd, 0xf2, 0xa1, 0x21, 0xbd,
  0xb8, 0xe0, 0x5f, 0xbe, 0xbb, 0xe7, 0x96, 0x3e, 0x06, 0x1e, 0xe5, 0xbd,
  0xe5, 0xc3, 0x56, 0xbd, 0x6d, 0x5a, 0xee, 0x3c, 0xe9, 0xaa, 0xe0, 0x3d,
  0xaa, 0xc2, 0x06, 0xbf, 0x5e, 0xcd, 0x15, 0x3d, 0x46, 0x4a, 0xac, 0x3e,
  0x34, 0x29, 0xd7, 0x3c, 0x50, 0x90, 0x89, 0xbe, 0x1e, 0x2e, 0xf5, 0x3d,
  0x04, 0x00, 0x2e, 0x3e, 0xe2, 0x0f, 0x7a, 0x3e, 0x97, 0x97, 0xa8, 0x3d,
  0xfa, 0xcb, 0x1a, 0xbe, 0x5d, 0xd5, 0x6a, 0x3b, 0x7d, 0x4f, 0x04, 0xbe,
  0xc2, 0x4e, 0xca, 0xbd, 0xad, 0x92, 0xeb, 0x3d, 0x74, 0x32, 0x7b, 0x3e,
  0xa5, 0x38, 0x9f, 0xbe, 0x96, 0xd8, 0x30, 0xbd, 0x70, 0x83, 0x33, 0x3e,
  0x49, 0xf3, 0x9c, 0xbd, 0xf8, 0xd0, 0x80, 0x3d, 0xec, 0xc1, 0x2f, 0x3e,
  0x55, 0x82, 0x04, 0xbd, 0xcd, 0x59, 0x1d, 0x3d, 0x53, 0xc1, 0x13, 0xbe,
  0xac, 0xbd, 0x93, 0xbd, 0xac, 0x65, 0xa1, 0x3e, 0x45, 0xe9, 0x53, 0xbb,
  0xc1, 0x4d, 0x5e, 0x3e, 0x72, 0x5d, 0x3a, 0x3e, 0xbc, 0x90, 0xab, 0xbd,
  0xe1, 0x4e, 0xfc, 0x3d, 0xa6, 0xf2, 0x28, 0xbd, 0x5e, 0x91, 0x83, 0x3d,
  0xd4, 0x31, 0x2f, 0x3e, 0xf1, 0xdd, 0x60, 0x3e, 0xec, 0x63, 0x5a, 0x3e,
  0xee, 0x5d, 0x4b, 0x3e, 0x5c, 0xc0, 0xaa, 0x3e, 0xc8, 0xc3, 0x4c, 0x3e,
  0x69, 0xad, 0xcc, 0xbd, 0xd0, 0x8d, 0x75, 0x3e, 0x86, 0xa1, 0x79, 0x3d,
  0x05, 0xa8, 0xaa, 0x3e, 0x12, 0x16, 0xcc, 0x3d, 0xd0, 0xad, 0x87, 0x3d,
  0x7d, 0xb3, 0x31, 0xbc, 0xa7, 0x24, 0x67, 0xbd, 0x0a, 0xc2, 0x10, 0xbc,
  0xf4, 0x52, 0x3c, 0x3d, 0x64, 0xdc, 0xe9, 0xbc, 0x1c, 0xab, 0x9c, 0x3d,
  0xf0, 0x6c, 0x77, 0x3d, 0xe2, 0x18, 0x69, 0x3d, 0x0a, 0x2f, 0x22, 0x3c,
  0x55, 0xbb, 0x90, 0x3e, 0xd1, 0x9f, 0x11, 0x3e, 0xc1, 0xfc, 0x1e, 0x3c,
  0xd9, 0x86, 0xfe, 0x3d, 0x82, 0x6e, 0xa6, 0x3e, 0x6a, 0x7e, 0x8d, 0x3d,
  0xf5, 0xb3, 0x7d, 0x3e, 0x08, 0x94, 0x32, 0xbb, 0x13, 0xf2, 0x2c, 0x3e,
  0x0b, 0xd1, 0x5b, 0x3e, 0x54, 0xff, 0x11, 0x3e, 0xf4, 0x8a, 0x6c, 0x3e,
  0x3f, 0x58, 0x2e, 0x3e, 0xea, 0xf5, 0xb9, 0x3b, 0x6a, 0xf7, 0x97, 0x3e,
  0xd6, 0x36, 0x12, 0xbd, 0x3f, 0xee, 0x8c, 0x3c, 0x2e, 0xb4, 0x56, 0x3e,
  0x87, 0xf7, 0x41, 0xbd, 0x9c, 0xcc, 0xd7, 0x3c, 0x8c, 0x97, 0xa4, 0x3e,
  0x96, 0xb1, 0x69, 0x3e, 0x5c, 0x94, 0x9e, 0x3d, 0x7b, 0x99, 0x2d, 0x3e,
  0x7c, 0x78, 0x19, 0xbe, 0x90, 0x82, 0x62, 0xbd, 0x3a, 0x96, 0x99, 0x3b,
  0xd8, 0x1e, 0x40, 0x3e, 0x16, 0x2e, 0x90, 0x3e, 0x80, 0x61, 0x92, 0x3d,
  0x72, 0xca, 0xa7, 0xbd, 0x3e, 0xff, 0x2f, 0x3e, 0x5b, 0xc8, 0x59, 0xbe,
  0x4d, 0x9b, 0x3b, 0x3e, 0xc3, 0xbd, 0x83, 0x3e, 0x28, 0xc2, 0xa2, 0x3c,
  0x69, 0xc9, 0x52, 0x3e, 0x57, 0x20, 0x29, 0x3e, 0x00, 0x32, 0x4f, 0xb6,
  0x9b, 0xb8, 0x82, 0xbd, 0x7b, 0x66, 0x6a, 0x3e, 0xd0, 0x17, 0xb0, 0x3c,
  0x34, 0xbf, 0x01, 0xbd, 0x93, 0x15, 0x9a, 0xbd, 0x70, 0xc4, 0x1e, 0x3e,
  0xf0, 0x2b, 0x40, 0xbb, 0x1b, 0x14, 0xc8, 0xbd, 0xc4, 0xec, 0x07, 0xbc,
  0xed, 0xa7, 0x2b, 0xbd, 0x8a, 0x31, 0xb5, 0xbd, 0x4b, 0xfb, 0x19, 0x3e,
  0xf6, 0xf2, 0x68, 0x3e, 0xe4, 0x6e, 0x27, 0x3e, 0x07, 0xae, 0x1a, 0x3e,
  0xd8, 0x70, 0x26, 0x3e, 0x6f, 0xe4, 0xe6, 0x3d, 0x76, 0xa0, 0x87, 0x3e,
  0x70, 0x17, 0x73, 0x3e, 0x68, 0x7c, 0x0d, 0x39, 0x36, 0x26, 0xa4, 0xbd,
  0xa4, 0x1a, 0x19, 0x3d, 0x74, 0x85, 0x3b, 0xbe, 0xe6, 0xa0, 0x90, 0x3d,
  0x79, 0xbc, 0x77, 0xbd, 0xb8, 0xb2, 0x1f, 0x3e, 0xd1, 0x81, 0xbb, 0xbd,
  0xe0, 0x4f, 0xb2, 0x3e, 0x76, 0x85, 0x07, 0xbe, 0xa2, 0x69, 0xc4, 0x3d,
  0x41, 0xbb, 0x9e, 0xbd, 0x33, 0xf2, 0x4c, 0xbc, 0x1a, 0x0a, 0x40, 0xbd,
  0x34, 0x42, 0xcc, 0x3d, 0x5a, 0x9f, 0x86, 0xbc, 0xf1, 0x77, 0x47, 0x3e,
  0x1d, 0x5b, 0x11, 0x3e, 0x15, 0x3d, 0x84, 0x3d, 0x6c, 0xf8, 0x2c, 0xbe,
  0x92, 0xd8, 0x56, 0x3e, 0xcf, 0xef, 0x93, 0xbd, 0x2f, 0x2b, 0xf9, 0x3d,
  0xc6, 0x3e, 0x57, 0x3e, 0x1d, 0xc2, 0xa1, 0xbc, 0xd5, 0x0e, 0xba, 0x3b,
  0x12, 0xa0, 0x11, 0x3e, 0xeb, 0xb5, 0x57, 0x3e, 0x1b, 0x75, 0x7f, 0x3b,
  0x20, 0xc9, 0x2a, 0xbd, 0x08, 0x4a, 0xa3, 0x3d, 0x2c, 0x2a, 0xa4, 0xbd,
  0xf3, 0x75, 0x35, 0x3e, 0xfb, 0x5c, 0x2a, 0x3e, 0xb4, 0xe3, 0xd5, 0x3d,
  0x6a, 0xf9, 0x94, 0xbd, 0xeb, 0x2d, 0x37, 0x3e, 0xdc, 0x46, 0x8a, 0x3e,
  0x2a, 0xb6, 0xc9, 0x3d, 0x2e, 0x6c, 0x4f, 0x3e, 0xfc, 0xb0, 0x88, 0x3e,
  0x5b, 0xa6, 0x27, 0xbe, 0x2c, 0x52, 0x16, 0xbd, 0x05, 0x8c, 0x40, 0x3e,
  0x8d, 0xe4, 0x63, 0x3e, 0x07, 0xd1, 0x9f, 0x3c, 0x5e, 0x2b, 0xa0, 0xbd,
  0x01, 0xc2, 0xb0, 0x3e, 0x21, 0x01, 0x85, 0x3e, 0x73, 0xd1, 0x9e, 0x3e,
  0x40, 0x7d, 0xdb, 0x3d, 0xdf, 0x4b, 0x52, 0x3e, 0xcd, 0x26, 0x6c, 0x3c,
  0xc0, 0xf2, 0xa9, 0x3e, 0xdc, 0xe8, 0x01, 0x3e, 0x0e, 0x79, 0x34, 0x3e,
  0x4d, 0xe8, 0x6d, 0x3d, 0xbc, 0x14, 0x7e, 0xbd, 0x97, 0xf1, 0x86, 0xbd,
  0x6a, 0x84, 0x5b, 0x3e, 0xfd, 0xb7, 0x3b, 0x3c, 0x58, 0x95, 0x75, 0x3e,
  0x33, 0x18, 0xb6, 0x3e, 0x9f, 0xcc, 0x34, 0x3e, 0x11, 0x20, 0x02, 0x3e,
  0xf5, 0xb5, 0xb5, 0x3e, 0xb3, 0xf7, 0x8c, 0x3e, 0x15, 0xb3, 0x5d, 0x3e,
  0xb5, 0x21, 0x2b, 0x3e, 0x69, 0xcf, 0x6d, 0x3e, 0xec, 0x57, 0x0f, 0x3e,
  0x3c, 0x05, 0xb1, 0x3c, 0x45, 0xd9, 0x08, 0x3d, 0x91, 0xd2, 0x84, 0x3d,
  0x4e, 0x67, 0x8d, 0x3e, 0xcf, 0x3b, 0x88, 0x3e, 0x85, 0x52, 0x09, 0x3e,
  0xd5, 0x1c, 0x20, 0x3e, 0x99, 0x8e, 0xa1, 0xbd, 0x95, 0xf8, 0x4e, 0x3e,
  0x1c, 0x11, 0xf9, 0x3d, 0x95, 0x24, 0x51, 0x3e, 0xbf, 0xcf, 0xb3, 0x3d,
  0x4f, 0xa0, 0xd7, 0x3d, 0x8c, 0x9e, 0x7f, 0x3d, 0xcd, 0xee, 0x16, 0xbd,
  0x99, 0x4f, 0xdb, 0x3d, 0x5a, 0xa8, 0x65, 0x3e, 0x0f, 0x02, 0x84, 0x3e,
  0xe9, 0xf4, 0x04, 0x3e, 0xa2, 0x21, 0x56, 0x3e, 0xa2, 0x32, 0x80, 0x3e,
  0x1d, 0x88, 0xc1, 0x3b, 0xf4, 0x66, 0x04, 0x3e, 0xae, 0x06, 0xb2, 0xbd,
  0x8c, 0x31, 0x10, 0x3e, 0xeb, 0xd4, 0x4a, 0x3e, 0x83, 0x57, 0xc1, 0xbd,
  0x7c, 0x6a, 0x64, 0x3e, 0xc6, 0xfa, 0x93, 0x3e, 0x8a, 0x76, 0x8c, 0x3e,
  0x5d, 0xaa, 0x8d, 0x3e, 0x38, 0xdf, 0xba, 0x3a, 0x2a, 0x89, 0x2e, 0xbc,
  0x38, 0xdf, 0xc0, 0x3e, 0x87, 0xab, 0xab, 0xbc, 0x4c, 0x0e, 0xa5, 0x3e,
  0xdc, 0x9f, 0x6a, 0x3e, 0xa5, 0xee, 0x86, 0xbd, 0x49, 0xc2, 0xb1, 0xbc,
  0x42, 0xcb, 0x82, 0x3d, 0xcf, 0xf4, 0x97, 0x3e, 0xe8, 0xe8, 0x6d, 0x3d,
  0x00, 0x34, 0x36, 0x3e, 0x4e, 0x32, 0x38, 0x3e, 0x16, 0x32, 0x86, 0x3c,
  0x48, 0x3b, 0xfc, 0xbd, 0x23, 0xa2, 0x46, 0x3d, 0x3a, 0xb0, 0x35, 0x3d,
  0x88, 0x27, 0x4d, 0xbe, 0x1d, 0x29, 0x4a, 0x3b, 0x44, 0x64, 0x50, 0xbe,
  0xa1, 0xb2, 0x1e, 0xbd, 0xb7, 0x9c, 0x01, 0x3e, 0xb3, 0x1b, 0x0d, 0xbe,
  0x2b, 0x17, 0x46, 0xbd, 0xe5, 0xad, 0xcb, 0x3c, 0x84, 0xba, 0x00, 0xbe,
  0xfb, 0x4e, 0x3e, 0xbe, 0xfd, 0xfa, 0xf8, 0x3d, 0x31, 0xa9, 0xc8, 0xbd,
  0xf1, 0x8c, 0x31, 0xbe, 0x97, 0xbc, 0xee, 0xbc, 0x00, 0x2e, 0x53, 0xbe,
  0xd5, 0xeb, 0xb3, 0x3d, 0x96, 0xf7, 0x65, 0xbe, 0x00, 0x89, 0xf1, 0xbd,
  0x65, 0x2a, 0xb1, 0xbc, 0xad, 0x58, 0x65, 0x3d, 0x0d, 0xc1, 0xe4, 0x3c,
  0x84, 0x45, 0x10, 0x3e, 0xe8, 0xd3, 0xd2, 0xbc, 0xfd, 0xb1, 0x36, 0xbe,
  0x53, 0x5b, 0xcf, 0xbd, 0x99, 0x8c, 0x46, 0xbe, 0xcc, 0xff, 0x3b, 0x3c,
  0x4a, 0x30, 0x1b, 0x3e, 0x42, 0x01, 0x02, 0x3c, 0xb1, 0x5c, 0x15, 0x3e,
  0x54, 0x99, 0x06, 0xbd, 0x58, 0x3f, 0xe2, 0xbd, 0x3b, 0xe5, 0xec, 0x3d,
  0x46, 0xcb, 0x30, 0x3e, 0x16, 0x70, 0x88, 0x3d, 0x75, 0x21, 0x99, 0x3d,
  0x5c, 0xf4, 0x15, 0xbe, 0xa8, 0x6b, 0x53, 0xbe, 0xd4, 0x68, 0xef, 0x3d,
  0x66, 0x14, 0x03, 0xbd, 0x21, 0x0f, 0x18, 0x3d, 0x4e, 0x8b, 0x2c, 0xbe,
  0xc9, 0x89, 0x63, 0xbe, 0x10, 0x67, 0x20, 0xbe, 0xaa, 0x33, 0x9c, 0xbc,
  0x3c, 0x36, 0xc3, 0xbd, 0xc4, 0x2c, 0x50, 0xbe, 0x42, 0xe0, 0xa4, 0xbd,
  0xe2, 0xb3, 0x16, 0x3e, 0x71, 0x71, 0x46, 0xbd, 0x65, 0x55, 0xf0, 0x3d,
  0x54, 0xf4, 0xb0, 0xbc, 0x4f, 0xad, 0xfb, 0xbc, 0xe8, 0xb6, 0x60, 0xbe,
  0xa9, 0x2e, 0x5e, 0xbe, 0x9a, 0xda, 0xc3, 0x3d, 0x9b, 0x22, 0x56, 0xbd,
  0x80, 0x59, 0x96, 0xbc, 0x16, 0xf2, 0xf6, 0xbc, 0xfd, 0x67, 0xdd, 0xbc,
  0xdf, 0x4e, 0xaa, 0x3e, 0xf5, 0xca, 0xa2, 0xbc, 0x52, 0xf2, 0x54, 0x3e,
  0xce, 0xbd, 0x68, 0x3e, 0x5e, 0x14, 0x20, 0x3e, 0x08, 0xb2, 0x1f, 0x3e,
  0x59, 0xe8, 0x9a, 0xbd, 0x31, 0xb5, 0xa2, 0xbd, 0xa2, 0xd0, 0x09, 0x3e,
  0x49, 0x47, 0x47, 0x3e, 0xce, 0xf3, 0x65, 0xbd, 0x70, 0xc5, 0xf3, 0xbc,
  0x84, 0x45, 0xa2, 0xbd, 0x7d, 0xd3, 0x2a, 0x3e, 0xc0, 0xee, 0x32, 0x3e,
  0xce, 0x53, 0xb2, 0xbd, 0xed, 0xe0, 0x8f, 0xbd, 0x7a, 0x98, 0x53, 0x3e,
  0x3d, 0xd3, 0xcd, 0xbc, 0x18, 0x7b, 0xae, 0x3c, 0xb1, 0x26, 0xc4, 0x3d,
  0x54, 0x18, 0xbb, 0x3d, 0x1d, 0xe4, 0x88, 0x3e, 0x40, 0xc4, 0x80, 0x3e,
  0xa3, 0x7c, 0x92, 0x3e, 0x7d, 0x82, 0x0d, 0x3c, 0x36, 0x4b, 0xad, 0x3d,
  0xf6, 0xfb, 0x8a, 0x3d, 0xe4, 0x56, 0xda, 0x3d, 0xeb, 0xa2, 0x1b, 0xbd,
  0xd7, 0x06, 0x96, 0xbd, 0x04, 0xf7, 0x1c, 0x3d, 0x5c, 0xd4, 0xaf, 0xbd,
  0x8d, 0x99, 0x71, 0x3d, 0xb3, 0xec, 0xd2, 0xbc, 0xb6, 0x2e, 0x9d, 0x3e,
  0xb1, 0xf7, 0xed, 0x3c, 0x1b, 0x3e, 0xe4, 0x3d, 0x8b, 0xcd, 0xa2, 0x3e,
  0xbf, 0x71, 0x17, 0x3e, 0x6a, 0xf2, 0xa8, 0xbd, 0x9d, 0xb9, 0xe7, 0x3d,
  0x4a, 0x7c, 0xcb, 0xbd, 0x27, 0x20, 0x80, 0x3e, 0xeb, 0x28, 0x77, 0x3e,
  0xa9, 0xd5, 0xc2, 0xbd, 0xe2, 0x69, 0xf7, 0xbc, 0x38, 0xd5, 0xa5, 0x3e,
  0xe5, 0xfb, 0xb1, 0xbd, 0xa2, 0xf5, 0x29, 0x3e, 0x95, 0x41, 0x9b, 0x3e,
  0x20, 0x62, 0x8e, 0xbd, 0x13, 0xd3, 0xd8, 0xbc, 0x79, 0xdb, 0xb0, 0x3e,
  0x87, 0x43, 0xfa, 0x3d, 0x12, 0xef, 0x8d, 0x3e, 0xf5, 0xa1, 0x47, 0x3e,
  0x0c, 0x54, 0xda, 0x3d, 0x98, 0xea, 0x4d, 0x3e, 0xa3, 0x79, 0x94, 0x3e,
  0x1b, 0xd8, 0xb7, 0x3d, 0x5a, 0xd5, 0x88, 0x3e, 0x8a, 0x37, 0xa1, 0x3e,
  0x25, 0x4e, 0xfc, 0x3c, 0x07, 0x8b, 0x39, 0xbb, 0x25, 0x50, 0x81, 0x3e,
  0xdb, 0xbb, 0x52, 0x3e, 0xac, 0x91, 0xfc, 0xbd, 0x27, 0xf2, 0x94, 0x3e,
  0x40, 0x4f, 0x22, 0x3e, 0x61, 0x6e, 0xc5, 0x3d, 0x41, 0x62, 0xa3, 0x3d,
  0xce, 0x75, 0xc3, 0xbd, 0x62, 0xd9, 0x48, 0x3d, 0xc3, 0x70, 0x35, 0x3c,
  0x0c, 0x3b, 0x48, 0x3e, 0x02, 0xd2, 0x83, 0x3e, 0xe4, 0x1c, 0x65, 0x3e,
  0x49, 0x64, 0x4c, 0xbc, 0x2f, 0x3a, 0x85, 0x3d, 0x60, 0xc2, 0x00, 0x3e,
  0xb2, 0x8c, 0x89, 0x3e, 0xf8, 0x08, 0x2d, 0x39, 0x27, 0x8e, 0x17, 0x3e,
  0x4b, 0xd1, 0x84, 0x3e, 0x1d, 0xb9, 0x7b, 0x3d, 0x48, 0xf6, 0x11, 0x3e,
  0x4f, 0xd3, 0xca, 0x3d, 0x99, 0xbe, 0xcb, 0xbd, 0xfe, 0x23, 0xc6, 0x3d,
  0xc1, 0x89, 0x5a, 0x3e, 0xca, 0xbd, 0x18, 0xbd, 0x2a, 0x61, 0x05, 0x3e,
  0x13, 0x63, 0x98, 0x3e, 0x65, 0x15, 0x8b, 0x3e, 0xa9, 0x76, 0xa5, 0x3e,
  0x77, 0x2d, 0x83, 0x3e, 0x78, 0x75, 0x52, 0x3e, 0x04, 0x58, 0x5b, 0x3d,
  0xef, 0xdf, 0x48, 0x3e, 0x79, 0x06, 0x99, 0x3c, 0x28, 0x47, 0x3b, 0xbd,
  0xef, 0x03, 0x57, 0x3d, 0xe3, 0xa6, 0x75, 0xbd, 0x93, 0xc1, 0x2c, 0x3e,
  0xdd, 0x7b, 0x5d, 0x3e, 0x46, 0x46, 0x93, 0x3d, 0xe4, 0x1b, 0x0f, 0x3c,
  0x9c, 0xd8, 0x22, 0x3e, 0x3a, 0x33, 0x7b, 0xbc, 0x08, 0x3a, 0x83, 0xbd,
  0x37, 0x7e, 0x35, 0xbc, 0x32, 0xb6, 0x87, 0x3d, 0x77, 0xeb, 0x4e, 0x3e,
  0x07, 0x41, 0x4e, 0xbc, 0x77, 0xf6, 0xa9, 0xbc, 0xda, 0x76, 0xa8, 0x3e,
  0xe7, 0x0d, 0x52, 0xbc, 0x33, 0xa6, 0xc8, 0xbd, 0x74, 0xff, 0x46, 0x3d,
  0x2a, 0x4b, 0x4b, 0x3e, 0x46, 0x5c, 0xbd, 0x3b, 0x61, 0x72, 0x82, 0x3e,
  0xa7, 0x83, 0x64, 0x3e, 0x63, 0x5d, 0xc5, 0x3e, 0x18, 0x62, 0xa8, 0xbd,
  0x3e, 0xfa, 0xaa, 0x3d, 0xd5, 0xab, 0x00, 0x3e, 0xe6, 0xbc, 0x84, 0xbd,
  0xeb, 0xac, 0x42, 0x3d, 0x01, 0x8e, 0xe4, 0x3c, 0xfd, 0xc7, 0x46, 0xbe,
  0x0f, 0x68, 0xa9, 0x3d, 0xbc, 0x89, 0xc1, 0x3c, 0xf5, 0xd6, 0xab, 0x3d,
  0x27, 0xa1, 0x1d, 0x3e, 0x97, 0xf1, 0xf1, 0xbd, 0xb1, 0xbb, 0x02, 0x3e,
  0xf4, 0x5c, 0xeb, 0xbc, 0xa4, 0x93, 0xed, 0x3d, 0xa2, 0x52, 0x4a, 0xbe,
  0x98, 0x5c, 0x01, 0xbd, 0x2d, 0xa1, 0x61, 0xbe, 0x6b, 0x86, 0x71, 0xbe,
  0x4c, 0x52, 0x3c, 0x3e, 0x38, 0x37, 0xc1, 0xbc, 0xd4, 0x67, 0x14, 0x3e,
  0x33, 0x67, 0x6e, 0x3d, 0x3f, 0xd6, 0x46, 0xbe, 0x40, 0x83, 0xc6, 0xbd,
  0x23, 0x41, 0x35, 0xbe, 0x5e, 0xe4, 0xf8, 0x3d, 0x35, 0x47, 0x18, 0xbe,
  0x4b, 0xd7, 0x35, 0xbe, 0xdb, 0x33, 0x69, 0xbd, 0x70, 0x5c, 0x0a, 0x3e,
  0xbf, 0xca, 0x41, 0x3b, 0x17, 0xe1, 0xec, 0x3d, 0xfb, 0x2e, 0x69, 0xbd,
  0x42, 0x37, 0x3a, 0xbe, 0x2b, 0xb5, 0x5f, 0x3d, 0x80, 0xec, 0x37, 0xbe,
  0x0e, 0x23, 0x50, 0xbe, 0x6d, 0xa4, 0xe7, 0x3d, 0x75, 0x0f, 0x53, 0x3c,
  0x38, 0x70, 0xde, 0x3d, 0x8c, 0xd7, 0xda, 0xbd, 0xd9, 0x80, 0x94, 0x3d,
  0x19, 0xc3, 0x1f, 0x3b, 0xa8, 0xea, 0xfc, 0x3d, 0x09, 0x57, 0x1f, 0x3d,
  0xb1, 0xb3, 0xb9, 0xbb, 0xaa, 0xae, 0xfd, 0xbd, 0x5b, 0x48, 0x69, 0xbe,
  0x70, 0x00, 0x49, 0x3d, 0x4a, 0xd0, 0x37, 0x3e, 0x86, 0x75, 0xcb, 0xbb,
  0x90, 0x88, 0xdc, 0x3b, 0xe2, 0x98, 0x5f, 0xbe, 0x67, 0x9c, 0x4b, 0xbe,
  0x92, 0x46, 0xc4, 0xbd, 0x03, 0x16, 0x3d, 0xbe, 0x9b, 0x8c, 0xe6, 0x3d,
  0xd8, 0xc7, 0x18, 0xbd, 0xcd, 0xee, 0xd4, 0x3d, 0x14, 0xe0, 0x21, 0xbe,
  0x57, 0x85, 0x7a, 0xbc, 0xbe, 0xa4, 0xd7, 0x3d, 0x18, 0x6e, 0xaa, 0x3d,
  0xef, 0xc4, 0x3b, 0x3e, 0x08, 0x9f, 0x37, 0xbd, 0x1b, 0x2d, 0x8c, 0x3d,
  0xce, 0x3a, 0xd7, 0x3d, 0x5e, 0x42, 0x9b, 0xbd, 0x31, 0x7e, 0x9c, 0x3e,
  0x56, 0x38, 0x0d, 0x3e, 0x0d, 0x47, 0x30, 0x3d, 0xf6, 0xd5, 0xa0, 0x3e,
  0x44, 0x02, 0x70, 0x3e, 0x0f, 0x8c, 0xfa, 0x3d, 0x51, 0x37, 0xa0, 0x3d,
  0x23, 0x31, 0x3d, 0x3e, 0x48, 0x0a, 0x86, 0x3e, 0xc9, 0xee, 0xc6, 0xbc,
  0xdc, 0x26, 0xfe, 0x3d, 0x72, 0x5c, 0x4d, 0x3e, 0x6f, 0x40, 0xbd, 0x3e,
  0xb0, 0xd5, 0xf5, 0xbd, 0x62, 0x13, 0x5e, 0x3d, 0x7e, 0x14, 0xdf, 0xbd,
  0x18, 0x2e, 0xbc, 0x3d, 0x0e, 0x1c, 0x6b, 0x3e, 0x0e, 0x82, 0x65, 0x3e,
  0x94, 0x11, 0x8f, 0x3e, 0x4d, 0x20, 0x56, 0xbd, 0x20, 0x3c, 0x40, 0x3e,
  0x45, 0x8f, 0x4f, 0x3c, 0x70, 0xed, 0xf1, 0x3b, 0xd8, 0xf4, 0x07, 0x3e,
  0x6a, 0x1c, 0xac, 0x3e, 0x60, 0xd1, 0x8f, 0x3e, 0xc6, 0xe5, 0x6a, 0x3d,
  0x10, 0xd5, 0x09, 0x3e, 0x9d, 0x55, 0xfc, 0x3d, 0x73, 0xcb, 0x33, 0x3e,
  0xea, 0xd5, 0x24, 0x3d, 0xbe, 0xf3, 0x05, 0x3e, 0x39, 0x9a, 0xe2, 0x3d,
  0xd2, 0x69, 0x49, 0xbd, 0x42, 0xf1, 0x3c, 0x3d, 0xa0, 0x70, 0x90, 0x3e,
  0xa5, 0x77, 0x56, 0x3e, 0x25, 0x49, 0x91, 0x3e, 0x91, 0xde, 0x9a, 0x3d,
  0x93, 0x82, 0xec, 0x3d, 0x39, 0x90, 0x83, 0x3e, 0x48, 0x3f, 0xdc, 0x3c,
  0xb7, 0x59, 0xc9, 0xbd, 0x74, 0xde, 0x80, 0x3e, 0xd9, 0x4a, 0x98, 0x3e,
  0xb2, 0x55, 0x9b, 0xbd, 0xc9, 0x31, 0xfa, 0x3d, 0x82, 0x64, 0x16, 0x3e,
  0xed, 0x1a, 0x37, 0x3e, 0xbc, 0xf8, 0xa1, 0x3e, 0xb6, 0x7b, 0x95, 0x3e,
  0x6c, 0xca, 0xdc, 0x3d, 0x96, 0x24, 0x52, 0xbd, 0x2e, 0x51, 0x19, 0xbd,
  0xc1, 0x20, 0xe8, 0xba, 0x52, 0x99, 0x93, 0x3d, 0x0b, 0x86, 0x45, 0x3d,
  0xa3, 0x55, 0xf5, 0x3d, 0x8b, 0x02, 0x9c, 0x3e, 0x2c, 0xce, 0x11, 0xbd,
  0x7b, 0xf2, 0x09, 0x3c, 0xa7, 0x83, 0x72, 0x3e, 0x0d, 0xbe, 0x6a, 0x3e,
  0xf5, 0x43, 0x97, 0x3e, 0xd3, 0x6a, 0x8e, 0x3e, 0x5e, 0x9c, 0x8a, 0xbc,
  0x3c, 0x53, 0xde, 0x3d, 0x74, 0x30, 0x99, 0xbd, 0xe8, 0x93, 0xa3, 0x3e,
  0x93, 0x17, 0x15, 0x3e, 0x6a, 0x45, 0x84, 0x3e, 0xfb, 0xe8, 0x78, 0xbc,
  0x20, 0x27, 0xb6, 0x3e, 0x32, 0x76, 0xb1, 0xbd, 0xc5, 0x2e, 0xe1, 0x3c,
  0x98, 0xb2, 0x2a, 0x3e, 0xdf, 0xa9, 0x42, 0x3c, 0x85, 0x0f, 0x54, 0x3e,
  0x57, 0x89, 0x63, 0xbd, 0x19, 0xe9, 0x81, 0x3c, 0xbd, 0xe5, 0x83, 0x3d,
  0x9e, 0x3b, 0x56, 0x3d, 0x51, 0x5d, 0xfa, 0x3c, 0x08, 0x54, 0x61, 0x3e,
  0xa9, 0x86, 0x6d, 0x3e, 0xf0, 0x8d, 0xa7, 0x3d, 0xc8, 0xbf, 0xe6, 0x3d,
  0x2f, 0x63, 0x04, 0x3e, 0x61, 0xcb, 0x88, 0x3e, 0x28, 0xfa, 0x8d, 0x3e,
  0x2a, 0xac, 0x13, 0x3e, 0x63, 0xec, 0x17, 0x3e, 0x89, 0xc4, 0x7a, 0xbd,
  0xfe, 0x5d, 0x0c, 0x3e, 0xd5, 0xa5, 0x56, 0x3e, 0xfe, 0x56, 0x65, 0x3e,
  0x73, 0x53, 0xc1, 0x3d, 0x8c, 0xe7, 0x34, 0x3e, 0x7b, 0x90, 0x63, 0x3e,
  0x99, 0x81, 0x5c, 0x3e, 0xac, 0xbd, 0x53, 0x3e, 0xa0, 0x24, 0x50, 0x3e,
  0x25, 0x6d, 0xd7, 0x3d, 0xf3, 0x9f, 0x3e, 0x3d, 0xdf, 0x65, 0xf7, 0x3d,
  0x1d, 0x42, 0xa6, 0xbd, 0xb3, 0x32, 0x12, 0x3e, 0x2d, 0xb3, 0xbb, 0xbc,
  0x4a, 0x1c, 0xef, 0x3d, 0x09, 0x1c, 0x9b, 0x3e, 0x8e, 0x9b, 0x17, 0x3e,
  0x9a, 0x33, 0x01, 0x3e, 0x0d, 0xf5, 0x4d, 0xbe, 0x60, 0x5e, 0x9d, 0x3e,
  0xcb, 0xf9, 0x9d, 0x3e, 0xd9, 0x1c, 0x22, 0x3e, 0x5c, 0xc9, 0xd8, 0x3d,
  0x23, 0x22, 0xbb, 0xbd, 0x5e, 0x7d, 0x00, 0x3c, 0x82, 0xae, 0x71, 0xbd,
  0x7a, 0xb9, 0x8b, 0x3e, 0x44, 0xaf, 0x2d, 0x3e, 0x28, 0x71, 0x0d, 0x3e,
  0x59, 0x17, 0x16, 0x3e, 0xdc, 0x47, 0xfa, 0x3d, 0xfc, 0x23, 0xcf, 0xbd,
  0x83, 0x9b, 0x54, 0x3d, 0xf5, 0x1e, 0x03, 0x3e, 0x83, 0x5a, 0x14, 0x3e,
  0x53, 0x86, 0x54, 0xbe, 0x1a, 0x3c, 0x35, 0xbe, 0x46, 0x81, 0x9e, 0xbd,
  0x0b, 0x0e, 0x52, 0xbe, 0x0c, 0xe0, 0xe6, 0xbc, 0xe0, 0xf9, 0xde, 0xbd,
  0x3d, 0x7d, 0xd4, 0xbd, 0x93, 0x20, 0xba, 0xbd, 0x64, 0x8c, 0x03, 0xbe,
  0xbe, 0x3e, 0x2d, 0xbe, 0x45, 0x1d, 0x53, 0xbe, 0x50, 0x31, 0xef, 0x3c,
  0x4e, 0xe2, 0x68, 0xbe, 0xb8, 0x17, 0xc1, 0xbd, 0x7f, 0x1d, 0xf7, 0x3d,
  0x8b, 0xae, 0x27, 0x3d, 0xa0, 0xef, 0x72, 0xbe, 0xe8, 0x99, 0xca, 0x3d,
  0x06, 0xe7, 0x34, 0xbe, 0xed, 0x16, 0xf1, 0x3d, 0x11, 0xff, 0xb8, 0xbd,
  0x50, 0xea, 0x22, 0x3d, 0x36, 0x16, 0xa5, 0x3d, 0xfc, 0xe1, 0x15, 0xbe,
  0xc6, 0xb0, 0xaf, 0xbd, 0x9b, 0x8d, 0xb8, 0xbc, 0xdd, 0x89, 0xee, 0x3c,
  0xf4, 0xa2, 0x52, 0xbc, 0x38, 0x8c, 0x5d, 0x3c, 0x51, 0x3d, 0x32, 0xbd,
  0xf7, 0x02, 0xd5, 0xbd, 0xe7, 0x7c, 0xde, 0xbd, 0x90, 0xc1, 0xa9, 0xbb,
  0x0f, 0x3c, 0xa6, 0xbd, 0x52, 0x47, 0xd3, 0x3b, 0xae, 0x0d, 0xd6, 0x3d,
  0x38, 0x56, 0xef, 0x3d, 0x05, 0x4b, 0x9d, 0x3c, 0x93, 0xa6, 0x38, 0x3e,
  0x76, 0x34, 0x1a, 0x3e, 0xa0, 0x33, 0x4a, 0xbe, 0xdc, 0xc9, 0x98, 0x3b,
  0x16, 0xff, 0xf5, 0xbd, 0xe5, 0x36, 0x29, 0xbd, 0x15, 0x94, 0xe2, 0x3c,
  0x87, 0xad, 0x40, 0xbe, 0x1b, 0x36, 0x2f, 0x3e, 0x7a, 0xb4, 0xa9, 0xbd,
  0x9e, 0xe6, 0x5f, 0x3d, 0x43, 0xde, 0xb4, 0xbc, 0xd5, 0x6e, 0x2e, 0xbe,
  0x21, 0xbf, 0x0b, 0x3d, 0x28, 0xc1, 0x10, 0x3e, 0x32, 0x4e, 0x57, 0xbe,
  0xda, 0x66, 0x32, 0xbe, 0xfc, 0x3a, 0x66, 0xbe, 0x2a, 0xc3, 0x44, 0x3e,
  0x0c, 0xfe, 0x05, 0x3e, 0xf9, 0xc7, 0xe8, 0x3c, 0x3c, 0xba, 0x38, 0xbd,
  0xfa, 0x5c, 0xd2, 0xbd, 0x42, 0x4e, 0x35, 0x3d, 0x49, 0x28, 0xc8, 0xbd,
  0xb3, 0x52, 0xc1, 0x3d, 0x67, 0xd9, 0xcc, 0x3d, 0x82, 0x25, 0x52, 0xbe,
  0xa0, 0x83, 0x7a, 0xbe, 0x09, 0x7d, 0xdd, 0x3d, 0x63, 0x0c, 0xdd, 0xbd,
  0x8b, 0xe4, 0x69, 0xbe, 0x06, 0x45, 0xb2, 0x3d, 0xa2, 0xba, 0x37, 0x3e,
  0x81, 0xc2, 0xa5, 0xbd, 0xd1, 0xc3, 0x33, 0xbe, 0xf6, 0xc1, 0x66, 0xbe,
  0x4c, 0x1e, 0x17, 0xbb, 0x20, 0x60, 0x25, 0xbe, 0x4a, 0x59, 0x00, 0xbe,
  0xe7, 0xae, 0xbc, 0xbb, 0xa7, 0x92, 0x02, 0xbe, 0x4e, 0x24, 0x40, 0xbe,
  0x26, 0x34, 0x0e, 0xbe, 0x1a, 0xc8, 0xbb, 0x3d, 0xf0, 0x4d, 0x06, 0xbe,
  0xf8, 0x8e, 0xe0, 0x3d, 0xc5, 0x3e, 0x15, 0x3c, 0x93, 0xe5, 0xa5, 0x3d,
  0xaa, 0x4d, 0x3c, 0xbe, 0xcc, 0xb1, 0xf0, 0x3d, 0x1b, 0xc5, 0x7d, 0xbe,
  0x98, 0x18, 0x23, 0x3e, 0xfb, 0x9a, 0xf0, 0xbd, 0xb4, 0xad, 0x07, 0x3e,
  0xf5, 0x9b, 0x28, 0x3d, 0x3d, 0x6c, 0xc3, 0xbd, 0x08, 0xa8, 0x3c, 0x3e,
  0x14, 0x8d, 0x4b, 0x3e, 0x67, 0x3a, 0x76, 0xbe, 0xac, 0x27, 0x6f, 0xbe,
  0x6b, 0x8a, 0xad, 0xbd, 0x31, 0x9e, 0x13, 0xbe, 0xea, 0x1a, 0x36, 0x3e,
  0x76, 0x94, 0x06, 0xbe, 0xa4, 0x7d, 0x95, 0x3d, 0x74, 0x66, 0x80, 0xbe,
  0x2e, 0x24, 0xdb, 0x3d, 0xe4, 0xf8, 0xe0, 0xbc, 0x2b, 0x67, 0x1e, 0xbc,
  0x24, 0x19, 0x9e, 0xbd, 0xc4, 0x45, 0x84, 0xbb, 0x3a, 0x48, 0x29, 0x3e,
  0x9a, 0x22, 0x63, 0xbe, 0x93, 0xc6, 0x9b, 0x3d, 0xc3, 0xf8, 0x54, 0x3e,
  0x3f, 0xa0, 0xc2, 0xbd, 0x12, 0x22, 0x39, 0xbe, 0xb5, 0x57, 0x6f, 0x3d,
  0x51, 0x7b, 0xc0, 0x3c, 0x12, 0x17, 0x55, 0x3b, 0xf8, 0xff, 0x2f, 0xbe,
  0xb7, 0x25, 0xa0, 0x3d, 0xbd, 0x34, 0xae, 0x3d, 0x32, 0x6e, 0x7d, 0x3e,
  0x29, 0x8e, 0x45, 0x3e, 0x64, 0xe8, 0x53, 0x3e, 0xb9, 0xae, 0x85, 0x3e,
  0x8d, 0x4b, 0x10, 0x3d, 0xf1, 0x14, 0x22, 0xbd, 0x97, 0xfd, 0x3a, 0xbd,
  0x4e, 0x84, 0x72, 0x3e, 0xc2, 0xa9, 0x3c, 0x3c, 0x37, 0x2b, 0x9b, 0xbd,
  0x0f, 0x00, 0x38, 0x3e, 0x6c, 0x35, 0xd4, 0x3d, 0x96, 0x38, 0x99, 0x3e,
  0xc0, 0x70, 0x6b, 0xbc, 0x9a, 0xf4, 0x48, 0x3c, 0xa2, 0x3a, 0x78, 0x3d,
  0xad, 0x59, 0x29, 0x3e, 0x82, 0x6c, 0x72, 0xbd, 0x32, 0xc0, 0x03, 0xbe,
  0x44, 0x70, 0xcf, 0x3d, 0x8e, 0xd0, 0x42, 0x3e, 0x1e, 0xb4, 0xf7, 0x3d,
  0x73, 0x6c, 0x72, 0x3e, 0xfe, 0x3a, 0x1b, 0x3e, 0x71, 0x66, 0xe1, 0x3d,
  0x67, 0x9e, 0x9b, 0x3e, 0xa8, 0xf1, 0x29, 0x3d, 0x3b, 0xd1, 0xb8, 0x3e,
  0x39, 0xac, 0x60, 0x3c, 0x28, 0x3c, 0x6c, 0x3e, 0xd6, 0x14, 0xa6, 0x3d,
  0x3e, 0x29, 0xf7, 0x3d, 0x46, 0xdb, 0x07, 0x3e, 0xc1, 0x7a, 0x2a, 0x3e,
  0xfa, 0xa9, 0xf8, 0x3d, 0xc6, 0x2a, 0xe9, 0xbc, 0x16, 0x1e, 0x9d, 0x3e,
  0x3c, 0x63, 0xc9, 0xbc, 0x01, 0x74, 0x33, 0x3d, 0x36, 0x5d, 0x50, 0x3e,
  0xc8, 0xca, 0x82, 0xba, 0x48, 0x88, 0x90, 0x3e, 0x06, 0x3a, 0xf9, 0xbc,
  0x76, 0x5f, 0x4e, 0x3b, 0x9c, 0x81, 0x37, 0x3e, 0x94, 0x22, 0x21, 0x3d,
  0xec, 0x68, 0x56, 0x3d, 0x87, 0xbd, 0x0d, 0x3e, 0x69, 0x0a, 0x57, 0x3e,
  0x24, 0x53, 0x9d, 0x3d, 0xb2, 0x0a, 0x15, 0xbd, 0x69, 0xe8, 0x52, 0x3e,
  0x88, 0x11, 0xff, 0x3c, 0x00, 0xa9, 0xd0, 0x3b, 0x94, 0x84, 0x6b, 0x3e,
  0x2e, 0x69, 0xab, 0x3d, 0x25, 0x2c, 0xb0, 0xbc, 0x1d, 0xa8, 0xe6, 0x3d,
  0x4d, 0x05, 0x8a, 0x3d, 0x0e, 0xf5, 0xca, 0xbc, 0x4d, 0x03, 0x67, 0x3e,
  0x98, 0x53, 0x4a, 0x3e, 0x3a, 0xf8, 0x3b, 0x3e, 0x80, 0x06, 0x1b, 0xbc,
  0xdd, 0x4e, 0xa8, 0xbd, 0x9c, 0xe0, 0xbe, 0x3d, 0xc3, 0x02, 0x9c, 0xbb,
  0x66, 0x83, 0x58, 0x3e, 0xe7, 0xe0, 0xb8, 0x3d, 0x57, 0x9f, 0x8a, 0x3e,
  0x6d, 0xe6, 0xca, 0x3d, 0x28, 0x92, 0xb9, 0x3c, 0xd3, 0x90, 0x92, 0x3d,
  0x9c, 0x17, 0x4c, 0x3e, 0x38, 0x2a, 0xad, 0xbd, 0x3b, 0x29, 0xa7, 0x3d,
  0x1c, 0x24, 0x8e, 0x3c, 0xf0, 0xa7, 0xaa, 0x3e, 0xdc, 0x78, 0xcf, 0x3c,
  0x27, 0x17, 0x00, 0xbd, 0x4b, 0xb8, 0x63, 0xbc, 0x9a, 0x44, 0x6c, 0x3e,
  0x65, 0xc0, 0x6a, 0x3e, 0xfb, 0xe8, 0xf6, 0x3c, 0x5f, 0x3d, 0xbc, 0xbc,
  0xe4, 0x87, 0x1b, 0xba, 0x67, 0x9d, 0x0d, 0xbe, 0x37, 0x28, 0xad, 0x3d,
  0x97, 0xa1, 0xf4, 0x3d, 0x2f, 0x52, 0xb7, 0x3e, 0x1a, 0x49, 0xa0, 0x3e,
  0x3b, 0xf1, 0xaf, 0x3d, 0xdb, 0x52, 0xd7, 0x3d, 0xb7, 0x86, 0x0c, 0x3e,
  0xf9, 0x84, 0x27, 0x3e, 0x4f, 0xed, 0x2d, 0x3e, 0xcc, 0x53, 0x4f, 0x3e,
  0x7d, 0x82, 0x89, 0x3e, 0x8d, 0x8a, 0xa5, 0x3c, 0x01, 0x05, 0x38, 0xbd,
  0x97, 0xf2, 0x7e, 0x3d, 0x5e, 0x79, 0x70, 0x3e, 0xc9, 0x0f, 0xef, 0xbd,
  0x92, 0xf3, 0x54, 0x3e, 0x6d, 0x2f, 0x80, 0x3d, 0x1a, 0xab, 0xe0, 0x3d,
  0xa6, 0x63, 0x67, 0x3e, 0xe1, 0x9b, 0x99, 0x3e, 0x9b, 0x93, 0x0d, 0x3e,
  0x02, 0xb2, 0x0f, 0x3e, 0x47, 0x38, 0xc5, 0x3b, 0xe0, 0xba, 0x86, 0x3e,
  0x44, 0xb4, 0xc3, 0x3d, 0x43, 0x04, 0x7a, 0xbd, 0x1e, 0xdc, 0xa3, 0x3e,
  0x46, 0x9f, 0x03, 0x3e, 0x5d, 0x84, 0xdb, 0x3d, 0x06, 0x7b, 0x6e, 0x3d,
  0xfb, 0xb9, 0x43, 0x3e, 0x6e, 0x08, 0x9e, 0x3e, 0x53, 0xbc, 0x50, 0xbe,
  0xd3, 0x7f, 0x22, 0x3e, 0x35, 0x5e, 0x58, 0x3c, 0xd9, 0x92, 0x7b, 0x3e,
  0x5c, 0x89, 0x6b, 0xbc, 0xd8, 0x01, 0x97, 0x3d, 0xcf, 0xb0, 0x94, 0x3e,
  0x41, 0xf7, 0x5a, 0x3e, 0x40, 0xc4, 0x79, 0x3e, 0xbd, 0x34, 0xa8, 0xbd,
  0x1a, 0x0b, 0xe0, 0x3d, 0x1f, 0x00, 0x97, 0x3c, 0x28, 0xfe, 0xf9, 0x3d,
  0xda, 0xa2, 0x58, 0xbd, 0xf7, 0x8a, 0x84, 0xbb, 0xad, 0xc6, 0xc0, 0xbc,
  0x58, 0xed, 0x16, 0x3e, 0x4c, 0x01, 0x93, 0x3e, 0x95, 0x40, 0x8c, 0x3c,
  0x32, 0xf3, 0x1c, 0x3d, 0x80, 0xd0, 0x4c, 0x3e, 0x45, 0xca, 0xa9, 0x3e,
  0xfc, 0x06, 0xeb, 0x3d, 0xf6, 0xc5, 0x96, 0x3d, 0x76, 0x9a, 0xfc, 0x3d,
  0xc8, 0xd2, 0x53, 0xbd, 0xe1, 0xad, 0xb7, 0xb9, 0xa3, 0x4f, 0x8b, 0x3e,
  0x37, 0xff, 0x8b, 0x3e, 0x71, 0xfb, 0x85, 0x3d, 0x8c, 0x96, 0x12, 0xbe,
  0x2e, 0x5d, 0xa9, 0x3e, 0x9b, 0xd0, 0x56, 0x3d, 0x4f, 0xf3, 0xad, 0x3e,
  0xfc, 0x98, 0xa0, 0x3e, 0x87, 0x26, 0x9b, 0x3e, 0x9b, 0x76, 0x97, 0xbc,
  0x17, 0x34, 0x99, 0x3e, 0x04, 0xb5, 0x50, 0x3e, 0xae, 0x29, 0x74, 0x3d,
  0x16, 0x25, 0x6e, 0x3e, 0x16, 0xde, 0xac, 0x3e, 0x47, 0x4f, 0x82, 0xbd,
  0x31, 0xba, 0x6d, 0x3e, 0xd9, 0x5a, 0x0c, 0x3e, 0xb7, 0xa7, 0xaf, 0xbd,
  0xdc, 0xe9, 0xe4, 0x3d, 0x3c, 0x8d, 0x70, 0x3e, 0x97, 0xf3, 0x03, 0x3e,
  0x0b, 0x44, 0x90, 0xbc, 0x99, 0xb6, 0xf0, 0x3d, 0x65, 0xec, 0x8b, 0x3d,
  0xff, 0xe8, 0xb7, 0xbc, 0xc9, 0x8b, 0xef, 0x3d, 0x06, 0x02, 0x72, 0x3e,
  0x05, 0xaa, 0x66, 0xbb, 0x49, 0x01, 0x90, 0xbb, 0xb8, 0xaa, 0x87, 0x3e,
  0x27, 0xbb, 0x02, 0x3e, 0xe3, 0xb2, 0x28, 0x3e, 0x6c, 0xc3, 0x4c, 0x3c,
  0x97, 0x0f, 0x48, 0xbe, 0x51, 0x82, 0x93, 0x3e, 0x77, 0x86, 0x1f, 0xbc,
  0xee, 0xaf, 0x08, 0x3e, 0xe2, 0xa8, 0x24, 0x3e, 0xfc, 0x0a, 0x97, 0x3d,
  0x64, 0x21, 0x87, 0x3d, 0x7b, 0x1a, 0x8e, 0xbd, 0x63, 0x7d, 0x0c, 0xbd,
  0x89, 0xae, 0xa7, 0x3e, 0xbc, 0x64, 0xef, 0xbb, 0xb1, 0xd7, 0x91, 0x3e,
  0x48, 0xfc, 0x8f, 0x3e, 0x63, 0x51, 0x16, 0x3e, 0xbf, 0x61, 0x05, 0x3d,
  0x1b, 0x2f, 0x91, 0x3e, 0xfa, 0xa9, 0x8a, 0x3e, 0x34, 0x05, 0xf4, 0x3d,
  0x63, 0xbf, 0x27, 0x3e, 0x6d, 0x45, 0xda, 0x3c, 0xbb, 0x9b, 0x92, 0x3d,
  0x12, 0x25, 0x4b, 0xbd, 0xba, 0x1c, 0x96, 0x3e, 0x32, 0x4f, 0x9a, 0x3e,
  0xbe, 0x88, 0x45, 0x3d, 0xde, 0x81, 0x2e, 0xbb, 0x0b, 0x57, 0xa4, 0xbc,
  0x09, 0x6d, 0x47, 0x3e, 0x01, 0xff, 0x70, 0x3e, 0x43, 0x64, 0x9b, 0xbd,
  0x38, 0xf0, 0x86, 0x3e, 0xa7, 0x59, 0x06, 0x3e, 0x1f, 0x9f, 0xc8, 0x3d,
  0xce, 0xc5, 0x02, 0xbe, 0x37, 0xae, 0x89, 0x3e, 0x2f, 0x31, 0xc6, 0x3d,
  0xb4, 0x68, 0x8d, 0x3c, 0xcf, 0x8f, 0x70, 0x3d, 0x39, 0x76, 0x06, 0x3e,
  0x8a, 0x75, 0x2a, 0x3d, 0xfb, 0xa7, 0xb1, 0x3d, 0xea, 0xff, 0xe1, 0xbd,
  0x9c, 0x21, 0x5a, 0x3d, 0x5b, 0x0c, 0x49, 0x3e, 0x4b, 0xf2, 0x1e, 0x3e,
  0x85, 0x36, 0xc3, 0xbd, 0x6c, 0xe8, 0x84, 0x3e, 0x63, 0x8f, 0x95, 0xbc,
  0xc4, 0x27, 0x0f, 0xbb, 0x07, 0xa9, 0x0a, 0x3d, 0x56, 0x0d, 0x90, 0x3e,
  0x57, 0xd4, 0x96, 0xbd, 0x41, 0x49, 0x22, 0xbd, 0x20, 0x9d, 0x58, 0x3e,
  0x6d, 0xa2, 0x8e, 0x3e, 0x24, 0x38, 0x80, 0x3e, 0xdb, 0xd6, 0xa4, 0xbd,
  0x7c, 0xb5, 0x90, 0x3e, 0x6b, 0x2f, 0x39, 0x3e, 0x4b, 0xcb, 0xae, 0x3d,
  0xaa, 0xe6, 0xe3, 0x3d, 0xf2, 0x6e, 0x40, 0x3e, 0x92, 0x3a, 0x27, 0x3e,
  0x34, 0x1b, 0xf4, 0xbb, 0xea, 0x6e, 0x44, 0xbc, 0xdb, 0x31, 0x4c, 0x3e,
  0xea, 0xe5, 0xab, 0x3d, 0x9f, 0x02, 0x4b, 0x3e, 0xad, 0x5f, 0x2c, 0xbd,
  0x19, 0x0b, 0x3e, 0x3e, 0xc4, 0x00, 0x20, 0x3e, 0x70, 0x8b, 0x7c, 0x3e,
  0x83, 0x96, 0x39, 0x3e, 0x1b, 0x1f, 0xd1, 0x3e, 0xa1, 0xe3, 0xb0, 0x3e,
  0xbb, 0xef, 0x96, 0x3e, 0x74, 0xad, 0x7e, 0x3e, 0x63, 0x5e, 0x2c, 0x3e,
  0xda, 0x2b, 0x15, 0x3e, 0xc6, 0x82, 0x56, 0x3e, 0x8f, 0xfa, 0x75, 0x3d,
  0xa2, 0x79, 0x2c, 0x3e, 0x0d, 0xf7, 0x2c, 0x3e, 0x1a, 0xa2, 0x63, 0x3e,
  0x9a, 0x5d, 0x20, 0x3e, 0x08, 0x63, 0x86, 0xbb, 0xa3, 0x97, 0x8c, 0xbd,
  0x1a, 0x2c, 0x14, 0x3d, 0x0a, 0x0a, 0x5a, 0x3d, 0x49, 0x93, 0x43, 0x3e,
  0x4c, 0xb7, 0x52, 0x3e, 0x11, 0x4d, 0x4b, 0x3e, 0x25, 0x97, 0x57, 0x3e,
  0xd6, 0x32, 0x56, 0x3e, 0x00, 0xd2, 0x33, 0x3d, 0xae, 0x6c, 0x83, 0x3e,
  0xdd, 0x6e, 0x69, 0x3d, 0x5a, 0xdb, 0xd9, 0xbd, 0xab, 0x91, 0xb3, 0x3e,
  0x82, 0xfb, 0x93, 0x3e, 0xb8, 0x20, 0x31, 0x3e, 0x65, 0x92, 0x1e, 0xbd,
  0x56, 0x58, 0xa2, 0x3e, 0xa9, 0x45, 0x6a, 0x3e, 0x7d, 0xf7, 0xa7, 0x3e,
  0x81, 0x57, 0x04, 0x3c, 0x2a, 0x5f, 0xa7, 0xbc, 0x62, 0x5b, 0xef, 0x3d,
  0x64, 0x72, 0xc7, 0xbc, 0xee, 0xd1, 0x90, 0xbd, 0xba, 0xc1, 0x1e, 0x3e,
  0xd9, 0x55, 0x06, 0xbd, 0xe1, 0x86, 0x09, 0x3e, 0x06, 0xb0, 0x24, 0x3e,
  0x69, 0x35, 0xae, 0x3d, 0xec, 0x99, 0x1e, 0xbb, 0x9b, 0x16, 0x52, 0x3e,
  0x84, 0x7b, 0xb0, 0x3d, 0x31, 0x6b, 0xdc, 0x3d, 0xa6, 0xd1, 0x9f, 0xbd,
  0x96, 0x21, 0x40, 0x3e, 0x77, 0x42, 0x70, 0x3e, 0x33, 0x38, 0x3e, 0x3e,
  0x8d, 0xd9, 0x83, 0x3e, 0x83, 0x31, 0x97, 0x3b, 0xa2, 0x76, 0x26, 0x3d,
  0x35, 0x9d, 0x15, 0x3e, 0x39, 0x42, 0x92, 0x3e, 0xfe, 0xe6, 0x33, 0xbe,
  0xde, 0xa8, 0xe6, 0xbc, 0x01, 0x59, 0xff, 0x3d, 0x3b, 0xa6, 0x0e, 0x3e,
  0x13, 0xf2, 0x31, 0xbd, 0xb3, 0xad, 0x23, 0x3e, 0x63, 0x1c, 0x40, 0x3e,
  0x2a, 0xa4, 0x08, 0x3d, 0xc4, 0x2b, 0xc8, 0xbc, 0x77, 0xdd, 0x83, 0x3e,
  0xc2, 0x64, 0x5e, 0x3d, 0x32, 0x8f, 0x01, 0x3e, 0x87, 0x86, 0x87, 0x3e,
  0x59, 0xa6, 0x77, 0x3e, 0x08, 0xe7, 0xeb, 0xbc, 0x59, 0xfd, 0x04, 0x3e,
  0xfa, 0x1f, 0x12, 0x3e, 0xf9, 0xf9, 0x5f, 0x3d, 0xbd, 0x5a, 0x3c, 0x3e,
  0x5e, 0xc5, 0x89, 0x3e, 0xfd, 0x64, 0x2e, 0x3d, 0xdf, 0xcf, 0x34, 0x3e,
  0x9d, 0x7c, 0xab, 0x3e, 0xeb, 0x0f, 0xa5, 0x3c, 0x9a, 0xd6, 0x17, 0x3e,
  0x3b, 0xde, 0x97, 0x3e, 0x7e, 0x4d, 0x46, 0x3e, 0x92, 0x74, 0x88, 0x3e,
  0x1a, 0x61, 0x33, 0x3d, 0x36, 0xac, 0xdf, 0xbc, 0x91, 0x6d, 0x7b, 0x3d,
  0x30, 0x9a, 0x12, 0x3e, 0x40, 0x90, 0x4b, 0x3e, 0x63, 0x62, 0xf7, 0x3d,
  0x61, 0x39, 0xb8, 0x3e, 0xb8, 0xc0, 0x55, 0x3e, 0x18, 0xe6, 0x80, 0x3e,
  0xe8, 0x4c, 0xb4, 0xbd, 0x6d, 0x34, 0x19, 0x3d, 0x7d, 0x80, 0xab, 0x3d,
  0x22, 0xec, 0x4b, 0x3e, 0xf5, 0x59, 0x3e, 0xbd, 0x6b, 0xb9, 0x30, 0x3c,
  0x31, 0xd5, 0xa4, 0x3e, 0x3e, 0x47, 0x36, 0x3d, 0x17, 0x35, 0x7d, 0x3e,
  0xf3, 0x89, 0x65, 0xbd, 0xdd, 0x67, 0x90, 0x3e, 0x28, 0x4d, 0x50, 0xbd,
  0x43, 0xd2, 0xcd, 0xbd, 0x42, 0x56, 0xa4, 0xbd, 0x46, 0x0c, 0x08, 0x3e,
  0x0b, 0x38, 0x8e, 0x3e, 0xfb, 0x3b, 0x1a, 0x3e, 0x01, 0x2d, 0x43, 0x3c,
  0x46, 0xe9, 0x94, 0x3e, 0x51, 0x8f, 0xe0, 0xbc, 0x0e, 0xf5, 0x36, 0x3e,
  0x75, 0x0a, 0x92, 0xbd, 0xaa, 0x0b, 0x4d, 0x3e, 0x63, 0xd7, 0x5c, 0x3c,
  0x61, 0xdd, 0xa1, 0x3e, 0xcb, 0xa7, 0x87, 0xbd, 0x8e, 0x71, 0xb1, 0x3e,
  0xf9, 0x96, 0x18, 0x3e, 0x97, 0xeb, 0x9c, 0x3d, 0xab, 0xc0, 0x58, 0x3e,
  0x57, 0x99, 0x96, 0xbd, 0x20, 0x28, 0x42, 0x3e, 0x96, 0x67, 0x99, 0x3d,
  0x07, 0x78, 0x46, 0x3e, 0x97, 0x89, 0xaf, 0x3e, 0x9a, 0x13, 0x0a, 0x3e,
  0x37, 0x74, 0x83, 0x3d, 0xc3, 0xc4, 0x2b, 0xbd, 0xed, 0xb2, 0x5f, 0xbe,
  0xbd, 0xc6, 0x4f, 0x3c, 0x18, 0x3f, 0xfb, 0x3d, 0x55, 0x5a, 0x01, 0x3e,
  0x3a, 0xdc, 0x45, 0x3e, 0xa3, 0x35, 0x0d, 0xbc, 0x26, 0xc5, 0x13, 0xbe,
  0xe8, 0xa7, 0x3f, 0xbb, 0x4b, 0x0c, 0x3a, 0xbe, 0x33, 0x64, 0xa9, 0xbd,
  0x3d, 0x22, 0x49, 0xbe, 0xdf, 0x98, 0x51, 0x3d, 0x42, 0x4c, 0x98, 0x3d,
  0x5a, 0x9f, 0x77, 0x3c, 0x37, 0xb8, 0x64, 0xbe, 0xc4, 0x08, 0xd3, 0x3c,
  0x86, 0xa0, 0xaf, 0xbd, 0x96, 0x7e, 0xdc, 0xbd, 0x38, 0x9c, 0x5c, 0x3e,
  0x7d, 0x97, 0xe2, 0xbc, 0xaa, 0x3c, 0x4a, 0xbe, 0x4b, 0x8a, 0x12, 0xbe,
  0xd2, 0x29, 0x8e, 0x3e, 0xe0, 0x88, 0xcb, 0xbc, 0x9b, 0xd3, 0x94, 0xbd,
  0xaa, 0x3b, 0x39, 0x3e, 0xd2, 0xbe, 0x21, 0xbc, 0xfa, 0xb0, 0xbf, 0x3c,
  0x5b, 0x47, 0x67, 0xbe, 0x0b, 0xb1, 0xfe, 0xbd, 0x3a, 0xa6, 0xee, 0x3b,
  0xfd, 0x22, 0xbb, 0x3d, 0x98, 0xa5, 0x3c, 0xbd, 0xae, 0x12, 0xac, 0xbe,
  0xd7, 0x32, 0x51, 0xbe, 0x48, 0x53, 0x08, 0xbd, 0xf3, 0xb5, 0x80, 0xbe,
  0x2d, 0xd4, 0x3d, 0xbc, 0x99, 0x96, 0x69, 0x3d, 0xd7, 0x09, 0xc8, 0xbd,
  0xf9, 0xe5, 0x92, 0xbe, 0xc7, 0x9e, 0x21, 0xbe, 0xac, 0x55, 0x22, 0x3e,
  0xf1, 0xd6, 0xb3, 0x3e, 0x57, 0x2d, 0x92, 0xbd, 0x7c, 0xfd, 0x1d, 0xbe,
  0x49, 0x22, 0xeb, 0x3d, 0x3b, 0xad, 0x36, 0x3e, 0x54, 0x58, 0x11, 0x3d,
