const unsigned char model[] = {
  0x1c, 0x00, 0x00, 0x00, 0x54, 0x46, 0x4c, 0x33, 0x00, 0x00, 0x12, 0x00,
  0x1c, 0x00, 0x04, 0x00, 0x08, 0x00, 0x0c, 0x00, 0x10, 0x00, 0x14, 0x00,
  0x00, 0x00, 0x18, 0x00, 0x12, 0x00, 0x00, 0x00, 0x03, 0x00, 0x00, 0x00,
  0x24, 0x52, 0x00, 0x00, 0x10, 0x00, 0x00, 0x00, 0x1c, 0x00, 0x00, 0x00,
  0x2c, 0x00, 0x00, 0x00, 0x0c, 0x00, 0x00, 0x00, 0x01, 0x00, 0x00, 0x00,
  0xec, 0x00, 0x00, 0x00, 0x01, 0x00, 0x00, 0x00, 0xb4, 0x00, 0x00, 0x00,
  0x0f, 0x00, 0x00, 0x00, 0x54, 0x4f, 0x43, 0x4f, 0x20, 0x43, 0x6f, 0x6e,
  0x76, 0x65, 0x72, 0x74, 0x65, 0x64, 0x2e, 0x00, 0x0c, 0x00, 0x00, 0x00,
  0x88, 0x00, 0x00, 0x00, 0x7c, 0x00, 0x00, 0x00, 0x68, 0x00, 0x00, 0x00,
  0x54, 0x00, 0x00, 0x00, 0x48, 0x00, 0x00, 0x00, 0x40, 0x00, 0x00, 0x00,
  0x34, 0x00, 0x00, 0x00, 0x28, 0x00, 0x00, 0x00, 0x20, 0x00, 0x00, 0x00,
  0x18, 0x00, 0x00, 0x00, 0x10, 0x00, 0x00, 0x00, 0x04, 0x00, 0x00, 0x00,
  0xb6, 0xff, 0xff, 0xff, 0x58, 0x00, 0x00, 0x00, 0xe4, 0xae, 0xff, 0xff,
  0xe8, 0xae, 0xff, 0xff, 0xec, 0xae, 0xff, 0xff, 0xca, 0xff, 0xff, 0xff,
  0x58, 0x02, 0x00, 0x00, 0xd2, 0xff, 0xff, 0xff, 0xcc, 0x0b, 0x00, 0x00,
  0x00, 0xaf, 0xff, 0xff, 0xde, 0xff, 0xff, 0xff, 0x58, 0x4c, 0x00, 0x00,
  0xf6, 0xff, 0xff, 0xff, 0xb4, 0x4d, 0x00, 0x00, 0x00, 0x00, 0x06, 0x00,
  0x0a, 0x00, 0x04, 0x00, 0x06, 0x00, 0x00, 0x00, 0x20, 0x4f, 0x00, 0x00,
  0x00, 0x00, 0x06, 0x00, 0x08, 0x00, 0x04, 0x00, 0x06, 0x00, 0x00, 0x00,
  0x84, 0x50, 0x00, 0x00, 0x34, 0xaf, 0xff, 0xff, 0x05, 0x00, 0x00, 0x00,
  0x31, 0x2e, 0x35, 0x2e, 0x30, 0x00, 0x00, 0x00, 0xf0, 0xfe, 0xff, 0xff,
  0x08, 0x00, 0x00, 0x00, 0x0b, 0x00, 0x00, 0x00, 0x13, 0x00, 0x00, 0x00,
  0x6d, 0x69, 0x6e, 0x5f, 0x72, 0x75, 0x6e, 0x74, 0x69, 0x6d, 0x65, 0x5f,
  0x76, 0x65, 0x72, 0x73, 0x69, 0x6f, 0x6e, 0x00, 0x0c, 0x00, 0x14, 0x00,
  0x04, 0x00, 0x08, 0x00, 0x0c, 0x00, 0x10, 0x00, 0x0c, 0x00, 0x00, 0x00,
  0x20, 0x00, 0x00, 0x00, 0x14, 0x00, 0x00, 0x00, 0x08, 0x00, 0x00, 0x00,
  0x38, 0x50, 0x00, 0x00, 0x01, 0x00, 0x00, 0x00, 0x00, 0x00, 0x00, 0x00,
  0x01, 0x00, 0x00, 0x00, 0x09, 0x00, 0x00, 0x00, 0x0a, 0x00, 0x00, 0x00,
  0x30, 0x4b, 0x00, 0x00, 0x34, 0x01, 0x00, 0x00, 0x5c, 0x4b, 0x00, 0x00,
  0x1c, 0x00, 0x00, 0x00, 0xa4, 0x0a, 0x00, 0x00, 0xb4, 0x4c, 0x00, 0x00,
  0xc4, 0x00, 0x00, 0x00, 0x10, 0x4e, 0x00, 0x00, 0x98, 0x4f, 0x00, 0x00,
  0x60, 0x00, 0x00, 0x00, 0x7e, 0xb0, 0xff, 0xff, 0x10, 0x00, 0x00, 0x00,
  0x0a, 0x00, 0x00, 0x00, 0x14, 0x00, 0x00, 0x00, 0x48, 0x00, 0x00, 0x00,
  0x02, 0x00, 0x00, 0x00, 0x01, 0x00, 0x00, 0x00, 0x40, 0x00, 0x00, 0x00,
  0x32, 0x00, 0x00, 0x00, 0x53, 0x74, 0x61, 0x74, 0x65, 0x66, 0x75, 0x6c,
  0x50, 0x61, 0x72, 0x74, 0x69, 0x74, 0x69, 0x6f, 0x6e, 0x65, 0x64, 0x43,
  0x61, 0x6c, 0x6c, 0x2f, 0x73, 0x65, 0x71, 0x75, 0x65, 0x6e, 0x74, 0x69,
  0x61, 0x6c, 0x5f, 0x38, 0x2f, 0x64, 0x65, 0x6e, 0x73, 0x65, 0x5f, 0x32,
  0x34, 0x2f, 0x52, 0x65, 0x6c, 0x75, 0x00, 0x00, 0x1c, 0xb0, 0xff, 0xff,
  0xda, 0xb0, 0xff, 0xff, 0x10, 0x00, 0x00, 0x00, 0x09, 0x00, 0x00, 0x00,
  0x14, 0x00, 0x00, 0x00, 0x2c, 0x00, 0x00, 0x00, 0x02, 0x00, 0x00, 0x00,
  0x01, 0x00, 0x00, 0x00, 0x09, 0x00, 0x00, 0x00, 0x0e, 0x00, 0x00, 0x00,
  0x64, 0x65, 0x6e, 0x73, 0x65, 0x5f, 0x32, 0x34, 0x5f, 0x69, 0x6e, 0x70,
  0x75, 0x74, 0x00, 0x00, 0x08, 0x00, 0x0c, 0x00, 0x04, 0x00, 0x08, 0x00,
  0x08, 0x00, 0x00, 0x00, 0x10, 0x00, 0x00, 0x00, 0x04, 0x00, 0x00, 0x00,
  0x01, 0x00, 0x00, 0x00, 0x00, 0x00, 0x7f, 0x43, 0x01, 0x00, 0x00, 0x00,
  0x00, 0x00, 0x00, 0x00, 0x32, 0xb1, 0xff, 0xff, 0x10, 0x00, 0x00, 0x00,
  0x08, 0x00, 0x00, 0x00, 0x14, 0x00, 0x00, 0x00, 0x48, 0x00, 0x00, 0x00,
  0x02, 0x00, 0x00, 0x00, 0x01, 0x00, 0x00, 0x00, 0x40, 0x00, 0x00, 0x00,
  0x32, 0x00, 0x00, 0x00, 0x53, 0x74, 0x61, 0x74, 0x65, 0x66, 0x75, 0x6c,
  0x50, 0x61, 0x72, 0x74, 0x69, 0x74, 0x69, 0x6f, 0x6e, 0x65, 0x64, 0x43,
  0x61, 0x6c, 0x6c, 0x2f, 0x73, 0x65, 0x71, 0x75, 0x65, 0x6e, 0x74, 0x69,
  0x61, 0x6c, 0x5f, 0x38, 0x2f, 0x64, 0x65, 0x6e, 0x73, 0x65, 0x5f, 0x32,
  0x35, 0x2f, 0x52, 0x65, 0x6c, 0x75, 0x00, 0x00, 0xd0, 0xb0, 0xff, 0xff,
  0x8e, 0xb1, 0xff, 0xff, 0x10, 0x00, 0x00, 0x00, 0x07, 0x00, 0x00, 0x00,
  0x14, 0x00, 0x00, 0x00, 0x64, 0x00, 0x00, 0x00, 0x02, 0x00, 0x00, 0x00,
  0x40, 0x00, 0x00, 0x00, 0x09, 0x00, 0x00, 0x00, 0x4d, 0x00, 0x00, 0x00,
  0x53, 0x74, 0x61, 0x74, 0x65, 0x66, 0x75, 0x6c, 0x50, 0x61, 0x72, 0x74,
  0x69, 0x74, 0x69, 0x6f, 0x6e, 0x65, 0x64, 0x43, 0x61, 0x6c, 0x6c, 0x2f,
  0x73, 0x65, 0x71, 0x75, 0x65, 0x6e, 0x74, 0x69, 0x61, 0x6c, 0x5f, 0x38,
  0x2f, 0x64, 0x65, 0x6e, 0x73, 0x65, 0x5f, 0x32, 0x34, 0x2f, 0x4d, 0x61,
  0x74, 0x4d, 0x75, 0x6c, 0x2f, 0x52, 0x65, 0x61, 0x64, 0x56, 0x61, 0x72,
  0x69, 0x61, 0x62, 0x6c, 0x65, 0x4f, 0x70, 0x2f, 0x74, 0x72, 0x61, 0x6e,
  0x73, 0x70, 0x6f, 0x73, 0x65, 0x00, 0x00, 0x00, 0x48, 0xb1, 0xff, 0xff,
  0x00, 0x09, 0x00, 0x00, 0xb4, 0x18, 0x76, 0xbe, 0x9e, 0x9c, 0xd2, 0x3d,
  0xbf, 0xfa, 0xc5, 0xbe, 0xd3, 0xb9, 0xcb, 0xbe, 0xf5, 0xa6, 0x9c, 0xbd,
  0x96, 0xee, 0x27, 0x3e, 0x26, 0xf2, 0x9f, 0xbe, 0x15, 0xbc, 0x35, 0x3e,
  0x76, 0xfb, 0xf6, 0xbd, 0x62, 0xc6, 0x28, 0xbe, 0x4b, 0x57, 0xc0, 0xbe,
  0x6a, 0x35, 0x42, 0xbe, 0x85, 0x46, 0x61, 0xbe, 0xb0, 0x30, 0x8a, 0x3e,
  0x81, 0x19, 0xaa, 0x3e, 0xc1, 0x2e, 0xc7, 0xbe, 0x5d, 0xe8, 0xd7, 0x3c,
  0xf3, 0x01, 0xec, 0x3d, 0xe9, 0x68, 0xda, 0xbc, 0xf6, 0x9e, 0x4e, 0xbd,
  0x5f, 0x4d, 0xc2, 0x3d, 0x87, 0x0e, 0xc9, 0xbe, 0x51, 0x75, 0x2a, 0x3e,
  0xb6, 0xef, 0xf8, 0x3e, 0x04, 0x80, 0xcf, 0xbe, 0xce, 0x48, 0xb6, 0xbc,
  0x40, 0x4b, 0x1a, 0x3e, 0xc5, 0x59, 0x58, 0x3e, 0x8c, 0x18, 0xaf, 0xbe,
  0xf3, 0xbd, 0xd3, 0xbd, 0x74, 0x09, 0xce, 0x3d, 0xcc, 0xdf, 0x80, 0x3e,
  0x74, 0x97, 0x88, 0xbc, 0x4d, 0x04, 0xee, 0xbe, 0x59, 0x0d, 0x88, 0x3e,
  0xcf, 0xfa, 0x91, 0x3e, 0x0a, 0x52, 0xbc, 0xbd, 0xb3, 0xc1, 0x1a, 0x3e,
  0xcf, 0x10, 0xd8, 0x3b, 0x73, 0xac, 0x2f, 0xbd, 0x6d, 0x2c, 0x09, 0xbe,
  0x85, 0x45, 0x28, 0x3e, 0x12, 0x5f, 0x38, 0x3e, 0x74, 0x02, 0x09, 0xbf,
  0x1c, 0x5d, 0x1a, 0xbf, 0xc6, 0x2a, 0x3b, 0xbd, 0x49, 0x2d, 0x2b, 0x3e,
  0x36, 0x12, 0xb9, 0xbe, 0x03, 0x85, 0x9b, 0xbd, 0x06, 0x54, 0x48, 0xbd,
  0xf2, 0x81, 0x9c, 0x3e, 0xf9, 0x00, 0x03, 0x3e, 0x48, 0x3b, 0x1f, 0xbf,
  0x88, 0xd5, 0x5c, 0x3e, 0x03, 0x8c, 0x25, 0xbe, 0xde, 0x3b, 0x1b, 0xbb,
  0x11, 0x15, 0xb2, 0xbd, 0xf1, 0xc3, 0x8e, 0xbe, 0x04, 0x58, 0x7b, 0xbb,
  0xc9, 0x54, 0xb9, 0x3e, 0x4b, 0x09, 0xdb, 0xbe, 0x58, 0xb2, 0xf8, 0x3d,
  0xac, 0xb9, 0xf3, 0x3d, 0xba, 0x2f, 0x78, 0xbe, 0x15, 0x02, 0xd5, 0x3d,
  0xc5, 0x50, 0xe0, 0xbd, 0x0c, 0xa0, 0x0f, 0x3b, 0x8b, 0x95, 0xcd, 0xbd,
  0xc3, 0xc9, 0xd7, 0x3e, 0x0a, 0x49, 0x65, 0xbe, 0x36, 0xe8, 0x18, 0x3d,
  0x9e, 0x3b, 0xeb, 0x3e, 0x41, 0x13, 0x6c, 0x3d, 0x9d, 0xd6, 0x76, 0xbe,
  0x5f, 0xc0, 0xbe, 0x3d, 0xa1, 0x99, 0x8d, 0xbe, 0x4e, 0xcd, 0x15, 0x3e,
  0xcc, 0x89, 0xb5, 0x3e, 0xf5, 0xaf, 0xcd, 0xbe, 0x04, 0x57, 0xaa, 0x3e,
  0x98, 0x67, 0x40, 0x3e, 0x9a, 0xe2, 0x10, 0xbe, 0x37, 0x99, 0x12, 0x3e,
  0x84, 0x5c, 0x45, 0xbe, 0xae, 0x81, 0xdd, 0xbe, 0xc1, 0x10, 0xd0, 0xbd,
  0xd8, 0xab, 0xfe, 0x3e, 0x33, 0x76, 0x0f, 0xbe, 0x59, 0xbf, 0xe6, 0xbe,
  0xd1, 0xcd, 0xb8, 0x3e, 0x9f, 0xa8, 0xe4, 0xbc, 0x34, 0x0e, 0x66, 0xbe,
  0xef, 0x50, 0x23, 0xbd, 0x31, 0x53, 0x36, 0x3c, 0xe7, 0xd2, 0x8d, 0xbe,
  0xb1, 0x75, 0xf2, 0x3e, 0x91, 0xd6, 0x89, 0xbe, 0xf6, 0x83, 0x8d, 0x3c,
  0x37, 0xa7, 0xcc, 0x3d, 0x2c, 0x35, 0x0e, 0x3e, 0x7c, 0xba, 0x13, 0xbe,
  0x76, 0xab, 0xe4, 0xbe, 0xae, 0x51, 0x93, 0xbe, 0x99, 0x16, 0x7a, 0xbe,
  0x55, 0xc8, 0x08, 0xbe, 0x87, 0x06, 0x74, 0xbe, 0x2d, 0x2b, 0x79, 0x3d,
  0x91, 0xf2, 0x44, 0x3e, 0xaf, 0xa8, 0xe6, 0xbd, 0xe1, 0x87, 0x9f, 0xbe,
  0x51, 0x47, 0xc3, 0xbd, 0x31, 0x23, 0x27, 0xbe, 0x58, 0xda, 0xc4, 0xbd,
  0x22, 0x09, 0x0a, 0x3f, 0x5c, 0xac, 0x0a, 0xbe, 0xbf, 0x3d, 0xfe, 0xbd,
  0x70, 0x90, 0xbe, 0x3e, 0xa8, 0x17, 0x4e, 0x3d, 0x62, 0xe5, 0x27, 0x3e,
  0xff, 0x4f, 0x91, 0x3d, 0xc6, 0xde, 0x94, 0xbe, 0xd1, 0x2c, 0xd5, 0x3e,
  0xff, 0x5f, 0x8a, 0x3e, 0x1f, 0xe3, 0xe6, 0x3e, 0x74, 0x05, 0x37, 0xbd,
  0x66, 0x20, 0x10, 0xbf, 0xff, 0x6e, 0x92, 0x3e, 0x78, 0x9b, 0x2e, 0x3e,
  0xe2, 0xe8, 0x8e, 0x3d, 0xdd, 0x0b, 0x5b, 0x3e, 0x97, 0xd8, 0xe8, 0xbe,
  0x1d, 0xe9, 0xcc, 0x3e, 0x60, 0x28, 0x24, 0x3e, 0x2b, 0x3b, 0x20, 0xbf,
  0xbd, 0x9b, 0x9d, 0xbe, 0x3d, 0x52, 0x6b, 0xbd, 0xcf, 0x26, 0xf6, 0xbd,
  0x52, 0x4d, 0xae, 0xbe, 0xc2, 0x70, 0x10, 0xbe, 0x84, 0x99, 0xc5, 0xbd,
  0x93, 0x7c, 0x28, 0xbe, 0x31, 0xae, 0x55, 0xbe, 0x6c, 0x69, 0xc5, 0x3e,
  0x2c, 0x54, 0xdf, 0x3d, 0x14, 0xa7, 0x5d, 0xbe, 0x9d, 0x19, 0xcd, 0xbe,
  0x91, 0x17, 0x26, 0x3e, 0x3f, 0x1e, 0xad, 0xbd, 0x9f, 0x86, 0x95, 0x3e,
  0x7b, 0x1f, 0x0a, 0x3f, 0xe0, 0x80, 0x6e, 0xbe, 0xdf, 0x5e, 0x35, 0x3e,
  0x57, 0x4d, 0xb8, 0x3c, 0x98, 0xb5, 0x8f, 0x3e, 0x2b, 0xe3, 0x14, 0x3d,
  0xf8, 0xdb, 0xcc, 0xbc, 0x90, 0xec, 0x0e, 0x3b, 0x6a, 0x5a, 0x62, 0x3d,
  0xa3, 0x33, 0x6b, 0xbe, 0x42, 0xfc, 0xef, 0x3e, 0x22, 0x39, 0x02, 0xbf,
  0xe2, 0xe7, 0x0e, 0xbf, 0x08, 0x5d, 0x33, 0x3e, 0x8d, 0x20, 0x8e, 0xbe,
  0xf4, 0x04, 0x2c, 0xbc, 0xc1, 0x94, 0x1f, 0xbe, 0xe9, 0xdc, 0x8f, 0x3e,
  0x8d, 0xf6, 0x96, 0x3d, 0xfd, 0x44, 0x8d, 0x3e, 0x49, 0x40, 0x10, 0xbf,
  0x2a, 0x3c, 0xe5, 0xbd, 0xd9, 0x93, 0x0c, 0x3d, 0x80, 0xb1, 0x30, 0x3d,
  0x26, 0x97, 0xf6, 0xbc, 0x31, 0x08, 0x14, 0xbe, 0x0c, 0xeb, 0x4a, 0x3e,
  0xf6, 0x61, 0xea, 0x3e, 0x40, 0xe6, 0xbf, 0x3e, 0xd1, 0x9a, 0xc9, 0xbd,
  0xa6, 0x2a, 0x2a, 0xbf, 0x6d, 0x2a, 0x2f, 0x3e, 0x03, 0x8a, 0xca, 0xbe,
  0x56, 0xca, 0x9a, 0xbe, 0x73, 0xf3, 0x23, 0xbe, 0x58, 0xd4, 0x0f, 0xbd,
  0xc8, 0x3a, 0x36, 0x3e, 0x9e, 0x2d, 0xd3, 0xbe, 0x7f, 0xed, 0x92, 0x3e,
  0x6b, 0x48, 0x82, 0x3e, 0x64, 0x8d, 0xb7, 0x3d, 0xee, 0x0f, 0xbf, 0x3c,
  0x1e, 0x8a, 0xa1, 0xbe, 0x5f, 0x51, 0x1f, 0xbd, 0xd2, 0x52, 0x6e, 0xbd,
  0xb5, 0x05, 0xd8, 0x3d, 0xe7, 0x6d, 0xe2, 0x3e, 0x3a, 0x79, 0x25, 0xbf,
  0x75, 0x57, 0xb1, 0x3e, 0x17, 0xb6, 0x85, 0xbe, 0x6f, 0xb4, 0xcb, 0xbe,
  0xb5, 0x82, 0xa5, 0xbe, 0x01, 0x2f, 0xe7, 0xbe, 0xab, 0x75, 0xba, 0x3c,
  0xea, 0xbd, 0xfb, 0xbd, 0xea, 0xfc, 0xc3, 0xbd, 0x57, 0xb6, 0xa3, 0x3e,
  0x14, 0x9a, 0xe9, 0xbd, 0xce, 0x65, 0x0c, 0xbd, 0x59, 0x97, 0x3c, 0xbe,
  0xf0, 0xdf, 0xb5, 0xbd, 0x46, 0xcd, 0xbe, 0xbe, 0x8c, 0x73, 0x03, 0xbe,
  0x08, 0x0e, 0x9f, 0x3e, 0x51, 0x76, 0xbc, 0xbd, 0x3d, 0xaf, 0xaa, 0x3e,
  0xa1, 0xbd, 0xe4, 0x3e, 0x18, 0x60, 0xb4, 0xbd, 0xb9, 0x60, 0x02, 0x3e,
  0xf2, 0x79, 0x9e, 0xbe, 0x84, 0x78, 0x92, 0xbe, 0xe3, 0xb0, 0xae, 0x3e,
  0xa2, 0x85, 0x7d, 0x3e, 0xa3, 0xf3, 0xd2, 0x3e, 0x35, 0xc5, 0x0f, 0xbf,
  0x41, 0xa5, 0x84, 0x3d, 0xcd, 0xb9, 0x9b, 0x3c, 0xef, 0xe7, 0xd1, 0x3d,
  0xb6, 0x9f, 0xf1, 0x3d, 0x49, 0x58, 0xb5, 0xbe, 0x27, 0xab, 0x1c, 0xbe,
  0xc8, 0x81, 0xcf, 0xbd, 0x14, 0x77, 0xff, 0xbd, 0x8d, 0x92, 0xd1, 0x3e,
  0x0f, 0x86, 0x3a, 0x3d, 0x17, 0x2d, 0x12, 0x3d, 0x04, 0x83, 0xba, 0xbe,
  0xb6, 0xd6, 0x25, 0xbe, 0x90, 0xf6, 0x93, 0xbe, 0x45, 0xf7, 0x82, 0x3e,
  0xcd, 0xe5, 0x94, 0xbe, 0xa7, 0x3e, 0x4e, 0xbe, 0x8a, 0xe7, 0x82, 0x3e,
  0x5e, 0xb8, 0x16, 0xbe, 0xa2, 0xaa, 0x13, 0x3e, 0x91, 0xc3, 0x0f, 0xbe,
  0x49, 0x5b, 0x35, 0x3c, 0xc9, 0xe0, 0x26, 0xbe, 0xc7, 0xd9, 0xc1, 0x3e,
  0xe2, 0xd7, 0x23, 0xbe, 0xe0, 0x61, 0x91, 0x3e, 0xe4, 0xab, 0x8e, 0x3e,
  0xbb, 0xa9, 0x9b, 0xbe, 0xd6, 0x24, 0x7f, 0xbe, 0x90, 0x8d, 0x2d, 0xbe,
  0x5e, 0x5e, 0x88, 0xbe, 0x99, 0xf9, 0x1a, 0xbe, 0x1a, 0x05, 0x5a, 0xbe,
  0x74, 0x8f, 0xa4, 0x3e, 0x00, 0xd4, 0xe9, 0x3d, 0x9a, 0x27, 0x34, 0xbe,
  0x75, 0x16, 0xe2, 0xbd, 0x1a, 0x5f, 0xf1, 0x3d, 0xa5, 0x81, 0x9b, 0xbe,
  0x88, 0x09, 0xb7, 0xbd, 0xd3, 0xfa, 0x57, 0xbe, 0x58, 0x8d, 0xf7, 0x3d,
  0x00, 0xe9, 0xf6, 0xbd, 0x84, 0x70, 0xb1, 0xbe, 0x81, 0x98, 0x8a, 0xbd,
  0x93, 0xb7, 0x3e, 0x3e, 0x5b, 0x5e, 0x81, 0x3e, 0x9c, 0x73, 0xeb, 0x3d,
  0x8b, 0x2b, 0xc0, 0x3d, 0x6d, 0xcf, 0x61, 0x3e, 0x68, 0x79, 0xef, 0xbd,
  0xfe, 0xdc, 0xe8, 0x3e, 0xeb, 0xc9, 0xe7, 0x3e, 0xee, 0x56, 0x22, 0xbf,
  0x84, 0xf1, 0xe7, 0xba, 0xdb, 0x14, 0xfb, 0x3d, 0xf7, 0x1f, 0x5f, 0xbe,
  0x23, 0xdf, 0x37, 0x3e, 0xb2, 0x45, 0xd5, 0x3d, 0x61, 0x8f, 0xdd, 0xbe,
  0xce, 0xe8, 0xa3, 0xbe, 0x37, 0xbd, 0xc3, 0x3e, 0x01, 0x18, 0x1c, 0xbf,
  0xb2, 0x6a, 0xd9, 0xbd, 0x64, 0xda, 0xa4, 0x3e, 0x18, 0x47, 0x10, 0x3e,
  0x44, 0x87, 0xc5, 0x3d, 0x6e, 0xe3, 0x8b, 0xbe, 0x26, 0x93, 0xe3, 0x3d,
  0x3e, 0xcb, 0x8d, 0xbe, 0x17, 0x34, 0x81, 0x3e, 0xa5, 0x19, 0xde, 0xbe,
  0xf1, 0x1c, 0xd2, 0xbe, 0x1f, 0x88, 0x0d, 0xbe, 0xa2, 0xf1, 0xbb, 0xbd,
  0x6e, 0x1d, 0x43, 0xbe, 0xe3, 0x57, 0x90, 0x3d, 0xec, 0xce, 0xfd, 0x3d,
  0x6f, 0x69, 0x9b, 0x3e, 0x8f, 0x44, 0xf7, 0xbe, 0x95, 0x6f, 0xe7, 0x3c,
  0xd2, 0xb7, 0x91, 0x3e, 0xd5, 0xd2, 0x85, 0xbe, 0x02, 0xec, 0x12, 0xbe,
  0x03, 0xb7, 0xd6, 0xbc, 0x1e, 0xf8, 0x65, 0xbd, 0xaa, 0x74, 0xae, 0x3e,
  0xf8, 0xa9, 0xf4, 0x3e, 0x83, 0xc0, 0x81, 0xbe, 0xe9, 0xa7, 0x43, 0x3e,
  0xcc, 0x63, 0x5e, 0xbd, 0x03, 0xa2, 0x24, 0x3d, 0x39, 0xa4, 0x79, 0xbe,
  0x11, 0x00, 0x04, 0xbe, 0xe4, 0xab, 0x04, 0xbe, 0x17, 0xd2, 0x92, 0x3e,
  0x26, 0xf9, 0x27, 0x3f, 0x4d, 0xc8, 0x23, 0x3e, 0xf1, 0x39, 0xac, 0xbe,
  0x7c, 0x11, 0xe9, 0xbd, 0x82, 0xc6, 0x9a, 0x3e, 0xe0, 0x25, 0xb0, 0x3e,
  0x7e, 0x3a, 0x3b, 0x3e, 0xb7, 0x9f, 0x72, 0x3e, 0x80, 0x6f, 0x0e, 0x3e,
  0xc0, 0xd1, 0xe4, 0xbd, 0x52, 0xb6, 0x26, 0x3e, 0xdb, 0x7e, 0xc6, 0xbe,
  0x3d, 0x59, 0xb7, 0xbe, 0xf5, 0x42, 0xbe, 0x3d, 0x8d, 0xf5, 0xa8, 0xbe,
  0xa7, 0x82, 0x5e, 0x3d, 0xfd, 0xf6, 0x7d, 0xbe, 0x52, 0xf1, 0xf7, 0xbe,
  0x83, 0x15, 0x04, 0x3d, 0x6b, 0xfc, 0x21, 0xbe, 0xf9, 0xce, 0xa5, 0xbe,
  0x3b, 0x65, 0x8b, 0x3e, 0x6e, 0x8d, 0xaf, 0x3e, 0x9f, 0x2d, 0x7b, 0x3e,
  0x26, 0x71, 0x30, 0xbe, 0x86, 0xc3, 0x33, 0x3e, 0xa3, 0x37, 0x3d, 0xbe,
  0xa8, 0xbd, 0x36, 0x3d, 0xd6, 0xd5, 0x0d, 0x3f, 0x01, 0x65, 0x91, 0xbd,
  0x33, 0x29, 0x42, 0xbd, 0xd5, 0xb9, 0xa3, 0xbe, 0x61, 0x71, 0xce, 0x3d,
  0x92, 0x52, 0x25, 0x3d, 0xb8, 0x67, 0x98, 0xbe, 0xe6, 0xe7, 0x41, 0xbe,
  0x7e, 0x0f, 0xac, 0xbd, 0xbe, 0x7b, 0x07, 0x3f, 0x63, 0xf7, 0x1f, 0xbe,
  0xac, 0x01, 0xe5, 0xbe, 0x97, 0x44, 0x30, 0x3e, 0x22, 0xa2, 0x9a, 0xbe,
  0xc7, 0x6b, 0x17, 0xbe, 0x60, 0xc4, 0xbc, 0xbe, 0xf1, 0xab, 0xb7, 0xbe,
  0x8d, 0xa4, 0x0c, 0xbe, 0xbc, 0x8d, 0x55, 0xbe, 0x1b, 0xe9, 0xad, 0xbd,
  0xb5, 0x18, 0x68, 0xbe, 0xab, 0x7d, 0x3c, 0x3e, 0x4f, 0xfd, 0x01, 0xbe,
  0xfe, 0x16, 0xfe, 0xbe, 0x0a, 0x9b, 0x15, 0xbe, 0x9d, 0x05, 0xa0, 0x3d,
  0x5d, 0xa3, 0x3d, 0xbe, 0x3e, 0x1e, 0xaf, 0x3e, 0xf4, 0x30, 0xea, 0x3d,
  0x2f, 0xba, 0x19, 0xbf, 0xcb, 0x46, 0xdb, 0x3d, 0xad, 0xc3, 0xba, 0x3a,
  0xb5, 0x1d, 0xa9, 0xbe, 0xab, 0x0d, 0x4f, 0xbe, 0x64, 0x56, 0xc8, 0x3d,
  0x72, 0x24, 0x03, 0x3e, 0xd2, 0x9d, 0x1a, 0x3e, 0x31, 0x68, 0xf3, 0xbe,
  0x1c, 0x2f, 0x85, 0xbe, 0xe4, 0xf6, 0x4b, 0x3e, 0x8a, 0x67, 0xa4, 0xbe,
  0xf7, 0x1e, 0x32, 0xbd, 0x51, 0x63, 0x36, 0xbe, 0xe9, 0xdf, 0x46, 0x3e,
  0x63, 0x49, 0x1f, 0x3f, 0x70, 0x66, 0x98, 0xbe, 0x6a, 0xfe, 0xb3, 0xbd,
  0x94, 0x9e, 0x4f, 0x3e, 0xca, 0x32, 0xc2, 0x3e, 0x25, 0x63, 0xdc, 0xbd,
  0xc6, 0x3d, 0x5b, 0x3d, 0x40, 0x0a, 0x93, 0x3d, 0x4e, 0x2a, 0x16, 0xba,
  0xdc, 0x0e, 0xb8, 0x3e, 0x40, 0x2d, 0xee, 0xbe, 0xb0, 0x7b, 0xec, 0x3e,
  0x96, 0x9c, 0xf6, 0xbd, 0x5b, 0x3e, 0x69, 0x3e, 0x58, 0xd8, 0xa8, 0xbe,
  0xb4, 0x01, 0x51, 0x3d, 0x4f, 0x50, 0xc1, 0xbe, 0xc7, 0x32, 0x13, 0x3e,
  0x9d, 0xbd, 0xe4, 0x3e, 0x91, 0xee, 0x94, 0xbe, 0x51, 0x6b, 0xa8, 0x3e,
  0x1c, 0xc3, 0xce, 0x3d, 0x0b, 0x6b, 0x40, 0xbe, 0xe2, 0xae, 0x87, 0xbe,
  0x53, 0xf5, 0x0b, 0x3d, 0x59, 0x0b, 0x47, 0xbe, 0xcb, 0xee, 0x6c, 0xbe,
  0x35, 0x2a, 0xad, 0x3d, 0xaa, 0x3f, 0x15, 0x3f, 0x37, 0xb4, 0x8a, 0xbe,
  0x87, 0x61, 0xc2, 0xbe, 0x5d, 0x21, 0xf2, 0x3e, 0xe3, 0xec, 0x97, 0x3e,
  0x10, 0xb8, 0x6c, 0xbe, 0x8e, 0x9c, 0xac, 0x3e, 0x81, 0x7c, 0x2b, 0xbd,
  0x69, 0x98, 0xfc, 0xbc, 0xf1, 0x14, 0x30, 0x3e, 0x21, 0xb3, 0xa0, 0xbd,
  0x39, 0x7e, 0x19, 0xbf, 0x81, 0x41, 0x66, 0xbe, 0x38, 0x11, 0xe3, 0xbe,
  0x5c, 0x4c, 0x2b, 0xbe, 0x93, 0xa0, 0xef, 0xbe, 0x8c, 0xff, 0x32, 0xbe,
  0xe8, 0x9d, 0x10, 0x3e, 0x45, 0xb0, 0xf4, 0xbe, 0x36, 0x45, 0xc1, 0x3e,
  0xe3, 0x19, 0x2f, 0x3e, 0x5d, 0x4b, 0xcd, 0x3e, 0x28, 0xcb, 0xf2, 0x3d,
  0x87, 0x88, 0x4c, 0xbe, 0x93, 0x63, 0x21, 0xbd, 0x80, 0xb7, 0xe7, 0xbe,
  0x75, 0xaa, 0xa8, 0xbe, 0x5c, 0xb4, 0x87, 0x3e, 0x1b, 0x7b, 0x8c, 0xbe,
  0x88, 0xa6, 0x3e, 0x3e, 0x67, 0x5a, 0x5a, 0xbe, 0x00, 0xd2, 0x0b, 0x3e,
  0x68, 0x78, 0x8f, 0xbe, 0x2e, 0xd4, 0x6e, 0xbd, 0xe8, 0xcc, 0x7d, 0xbd,
  0x06, 0x9b, 0x1a, 0x3d, 0x81, 0x10, 0x9f, 0x3e, 0x44, 0xdf, 0x22, 0xbf,
  0xd8, 0xe4, 0xb2, 0x3e, 0xdb, 0x39, 0x6b, 0xbe, 0x17, 0x58, 0x7e, 0xbe,
  0x3d, 0x83, 0xd9, 0xbe, 0x45, 0xcb, 0x21, 0x3d, 0xb0, 0x35, 0x95, 0x3d,
  0xe7, 0x0a, 0x8a, 0xbe, 0x67, 0x55, 0x15, 0xbe, 0x90, 0x51, 0xd0, 0x3e,
  0x38, 0xc4, 0x88, 0xbe, 0x6c, 0x1c, 0xe5, 0xbd, 0x8e, 0x71, 0x13, 0xbd,
  0x82, 0x2f, 0xa2, 0xbe, 0x3e, 0x24, 0xa2, 0xbe, 0xd1, 0xc6, 0x87, 0x3e,
  0x2a, 0xb7, 0xa2, 0xbc, 0x6f, 0x14, 0x88, 0x3d, 0x0f, 0x15, 0xa5, 0xbc,
  0x16, 0x20, 0x5d, 0xbe, 0x22, 0xe3, 0x31, 0x3b, 0x70, 0xcb, 0x63, 0x3d,
  0x95, 0xdc, 0xad, 0xbe, 0x28, 0x54, 0xe2, 0xbd, 0x66, 0xb7, 0x00, 0x3e,
  0x44, 0x45, 0x83, 0x3e, 0x99, 0x32, 0xe8, 0xbe, 0x69, 0xa8, 0x8f, 0x3e,
  0x1e, 0x05, 0xa8, 0x3e, 0x82, 0x5b, 0x8d, 0xbd, 0x86, 0x83, 0x20, 0x3e,
  0xde, 0x2c, 0x73, 0xbe, 0x04, 0x2d, 0x20, 0xbe, 0x7e, 0xb9, 0x17, 0xbe,
  0x0a, 0xd7, 0xb0, 0x3e, 0x91, 0x10, 0xeb, 0x3e, 0x6f, 0xdb, 0xef, 0xbe,
  0x55, 0x6b, 0xf0, 0xbe, 0x0d, 0xd3, 0x8c, 0xbe, 0xef, 0x8a, 0x9d, 0xbe,
  0x72, 0xd5, 0x94, 0xbe, 0x58, 0x49, 0xc5, 0xbc, 0x89, 0xdc, 0x11, 0x3e,
  0xb8, 0x87, 0x95, 0xbe, 0x2c, 0x2a, 0xd2, 0x3d, 0x9d, 0x53, 0x86, 0x3e,
  0xb7, 0xcd, 0x7e, 0x3e, 0x45, 0xd5, 0x3c, 0xbe, 0x94, 0xd8, 0xb1, 0xbe,
  0xc0, 0xc4, 0x91, 0xbc, 0x3b, 0x4d, 0x66, 0xbe, 0xa3, 0xbb, 0xc3, 0xbe,
  0x28, 0xb2, 0xf6, 0xbe, 0x81, 0xa0, 0x15, 0x3e, 0xed, 0x09, 0x17, 0xbd,
  0x54, 0xd4, 0xfb, 0xbe, 0x0d, 0x5d, 0x55, 0xbd, 0xc4, 0xaa, 0x93, 0xbe,
  0x51, 0x18, 0xa8, 0xbe, 0x94, 0x0f, 0x42, 0x3e, 0x55, 0x69, 0x41, 0x3e,
  0xc0, 0x74, 0x54, 0x3e, 0xeb, 0x32, 0xb7, 0x3d, 0x4a, 0xf8, 0x00, 0xbe,
  0x3c, 0x90, 0x82, 0x3e, 0xe3, 0xd1, 0xdb, 0xbc, 0xc6, 0x12, 0x58, 0x3e,
  0xdf, 0xc1, 0xb5, 0xbe, 0x85, 0x85, 0x30, 0x3e, 0x17, 0xc2, 0x8b, 0x3d,
  0x54, 0xdb, 0xdb, 0xbd, 0x95, 0x37, 0x18, 0x3f, 0xab, 0x57, 0x7b, 0xbe,
  0xf3, 0x22, 0x0b, 0xbf, 0x42, 0x43, 0x02, 0xbe, 0xdc, 0xc8, 0x29, 0xbc,
  0x46, 0xfb, 0xbd, 0xbe, 0x74, 0x05, 0x18, 0x3d, 0x27, 0x01, 0x11, 0x3e,
  0x5a, 0x05, 0xff, 0x3d, 0xe1, 0x2f, 0xc3, 0xbe, 0x98, 0x59, 0x54, 0x3e,
  0xef, 0xfd, 0x97, 0x3e, 0xf9, 0x72, 0x91, 0x3e, 0x1d, 0xe5, 0x40, 0x3d,
  0x30, 0x57, 0xb2, 0xbe, 0x6d, 0x90, 0x10, 0xbd, 0x82, 0xcd, 0xed, 0xbe,
  0x17, 0x1d, 0x99, 0x3e, 0x17, 0x4c, 0x80, 0x3e, 0x51, 0xb9, 0xfa, 0xbe,
  0x12, 0x53, 0xa1, 0xbe, 0x3b, 0xe4, 0x00, 0x3a, 0x06, 0xc8, 0x7c, 0xbe,
  0x0b, 0x7c, 0x4f, 0xbe, 0xa2, 0xd9, 0xd5, 0x3d, 0x1b, 0x1f, 0xad, 0xbd,
  0x5c, 0xbb, 0x0a, 0xbe, 0x3d, 0xa8, 0xce, 0xbe, 0x3c, 0x68, 0xd6, 0x3e,
  0xbe, 0x67, 0x9b, 0x3e, 0x16, 0x09, 0xd4, 0x3d, 0x6f, 0x02, 0x89, 0xbe,
  0x48, 0xfd, 0x5a, 0x3c, 0x6e, 0xc2, 0xeb, 0xbe, 0xce, 0xfa, 0x36, 0xbe,
  0xac, 0x8a, 0x15, 0xbe, 0x8a, 0x01, 0xb7, 0xbd, 0xf8, 0xc8, 0x0c, 0x3e,
  0x90, 0x27, 0x37, 0xbe, 0x5c, 0x23, 0x89, 0xbe, 0x26, 0xa2, 0xaf, 0x3d,
  0x90, 0xa6, 0xbb, 0xbe, 0x90, 0x08, 0xcb, 0xbd, 0x48, 0xab, 0x4a, 0x3c,
  0x7e, 0x84, 0x03, 0x3f, 0x59, 0x8c, 0x6d, 0xbe, 0xe5, 0xe9, 0x82, 0x3e,
  0x74, 0xe3, 0x37, 0x3e, 0x0a, 0xbb, 0xff, 0xff, 0x10, 0x00, 0x00, 0x00,
  0x06, 0x00, 0x00, 0x00, 0x14, 0x00, 0x00, 0x00, 0x64, 0x00, 0x00, 0x00,
  0x02, 0x00, 0x00, 0x00, 0x40, 0x00, 0x00, 0x00, 0x40, 0x00, 0x00, 0x00,
  0x4d, 0x00, 0x00, 0x00, 0x53, 0x74, 0x61, 0x74, 0x65, 0x66, 0x75, 0x6c,
  0x50, 0x61, 0x72, 0x74, 0x69, 0x74, 0x69, 0x6f, 0x6e, 0x65, 0x64, 0x43,
  0x61, 0x6c, 0x6c, 0x2f, 0x73, 0x65, 0x71, 0x75, 0x65, 0x6e, 0x74, 0x69,
  0x61, 0x6c, 0x5f, 0x38, 0x2f, 0x64, 0x65, 0x6e, 0x73, 0x65, 0x5f, 0x32,
  0x35, 0x2f, 0x4d, 0x61, 0x74, 0x4d, 0x75, 0x6c, 0x2f, 0x52, 0x65, 0x61,
  0x64, 0x56, 0x61, 0x72, 0x69, 0x61, 0x62, 0x6c, 0x65, 0x4f, 0x70, 0x2f,
  0x74, 0x72, 0x61, 0x6e, 0x73, 0x70, 0x6f, 0x73, 0x65, 0x00, 0x00, 0x00,
  0xc4, 0xba, 0xff, 0xff, 0x00, 0x40, 0x00, 0x00, 0xe6, 0x6b, 0x17, 0xbe,
  0x3d, 0xd9, 0x47, 0xbd, 0x89, 0xd9, 0x73, 0xbd, 0x19, 0x4f, 0x50, 0xbe,
  0x2b, 0xbb, 0xba, 0x3d, 0xb5, 0xd8, 0x19, 0x3e, 0xfb, 0xdd, 0x0b, 0x3e,
  0xcb, 0x44, 0x10, 0x3e, 0xf6, 0xfc, 0x4c, 0x3c, 0x97, 0x18, 0xc1, 0x3d,
  0x09, 0x37, 0x5a, 0xbe, 0xe6, 0x36, 0x33, 0x3d, 0xaa, 0x9c, 0x3d, 0xbe,
  0x79, 0x2f, 0x8a, 0xbb, 0xda, 0x9a, 0x09, 0x3e, 0x50, 0x59, 0x17, 0xbc,
  0xac, 0x12, 0x5f, 0xbe, 0x6e, 0x58, 0x25, 0xbd, 0x79, 0x98, 0xd7, 0xbd,
  0x80, 0x2f, 0xe6, 0x3d, 0x63, 0xf2, 0x31, 0x3d, 0x76, 0x8c, 0x5a, 0xbe,
  0x09, 0xa3, 0xd1, 0xbd, 0xb6, 0x92, 0x1b, 0xbd, 0xe2, 0x4d, 0x24, 0xbe,
  0x03, 0x5e, 0xcf, 0xbd, 0xde, 0x8f, 0x99, 0x3d, 0x6c, 0xca, 0x98, 0x3d,
  0x97, 0xf3, 0x06, 0x3e, 0xe9, 0x35, 0x35, 0x3e, 0x2c, 0x7c, 0x78, 0xbd,
  0xa0, 0x59, 0x1f, 0xbe, 0x42, 0x6c, 0xf9, 0xbd, 0xfa, 0x62, 0x39, 0xbe,
  0x7c, 0xb0, 0xaf, 0x3d, 0x28, 0x2d, 0xd3, 0x3d, 0xb7, 0xeb, 0x31, 0xbe,
  0x41, 0x1a, 0x58, 0x3c, 0xa8, 0x81, 0x5b, 0xbe, 0x23, 0x38, 0xdd, 0xbd,
  0x6e, 0x4a, 0xfd, 0x3b, 0x7c, 0xa8, 0x20, 0x3d, 0x3f, 0x51, 0xc9, 0xbd,
  0x14, 0xb6, 0x3a, 0x3e, 0x83, 0x37, 0x91, 0xbd, 0xa1, 0x63, 0x06, 0x3e,
  0x0d, 0xc8, 0x58, 0xbd, 0xb7, 0x4c, 0xd7, 0xbd, 0xe8, 0x63, 0x47, 0xbe,
  0x9e, 0x03, 0x15, 0xbd, 0xb4, 0x2d, 0x14, 0xbd, 0x5f, 0x80, 0x0f, 0xbe,
  0x57, 0x80, 0xbd, 0x3d, 0x10, 0xc0, 0x46, 0xbd, 0x4e, 0x99, 0x2d, 0x3e,
  0xcb, 0x68, 0xab, 0x3d, 0xfe, 0xea, 0x35, 0xbe, 0x07, 0xb8, 0x67, 0xbd,
  0xce, 0x1d, 0x06, 0xbe, 0x80, 0x41, 0x2e, 0xbe, 0xaf, 0x53, 0xb2, 0xbd,
  0x5c, 0xa8, 0x09, 0x3d, 0x88, 0x32, 0x98, 0x3d, 0x81, 0xab, 0xcb, 0xbb,
  0xd0, 0xd5, 0x26, 0x3e, 0xd7, 0xf4, 0x4c, 0xbe, 0xae, 0xb3, 0x0b, 0xbe,
  0xb7, 0xe5, 0x11, 0x3e, 0x72, 0x3d, 0xac, 0x3d, 0x2a, 0xec, 0x86, 0xbc,
  0xe0, 0x9e, 0xc7, 0xbb, 0x4a, 0x8a, 0xcd, 0x3d, 0x5d, 0xab, 0x1e, 0xbe,
  0x92, 0xb6, 0x96, 0xbd, 0x2e, 0xe6, 0x2a, 0xbe, 0x13, 0x93, 0x99, 0x3d,
  0xb6, 0x6b, 0xeb, 0x3d, 0x27, 0xb0, 0xb5, 0xbc, 0xba, 0x81, 0xad, 0xbd,
  0xd8, 0x13, 0xf9, 0x3c, 0x48, 0x8e, 0x8e, 0xbd, 0xdd, 0x5c, 0x0c, 0x3d,
  0xc3, 0x96, 0xbb, 0xbc, 0x15, 0xf5, 0x1b, 0xbe, 0xfc, 0x1e, 0x00, 0x3d,
  0xe5, 0x35, 0x11, 0xbe, 0x7d, 0x4a, 0x8a, 0xbd, 0x0e, 0xcf, 0x0c, 0xbd,
  0x0a, 0x36, 0x52, 0xbd, 0x67, 0x0b, 0xb7, 0xbd, 0x66, 0xfd, 0x56, 0xbe,
  0x54, 0x29, 0x10, 0xbc, 0x24, 0x27, 0xe2, 0xbd, 0xe5, 0xbe, 0x49, 0x3d,
  0x0e, 0x8c, 0x59, 0xbe, 0xb4, 0xac, 0x45, 0x3d, 0x8e, 0xa8, 0x19, 0xbe,
  0xdc, 0xe6, 0xb9, 0xbd, 0x00, 0x4f, 0xc8, 0xbc, 0x45, 0xbf, 0x4d, 0x3e,
  0xb9, 0xf2, 0x16, 0xbd, 0xf0, 0x0a, 0x1e, 0xbe, 0x9b, 0x7e, 0x59, 0x3d,
  0x70, 0xa0, 0xc7, 0x3c, 0x12, 0xa6, 0xf6, 0xba, 0x1a, 0x96, 0xe4, 0x3d,
  0x07, 0x05, 0xa8, 0x3c, 0x8e, 0x00, 0xbb, 0x3d, 0x66, 0xa6, 0x3d, 0xbe,
  0x44, 0x13, 0x4f, 0x3d, 0x1c, 0x86, 0x16, 0x3d, 0x07, 0xad, 0x1b, 0xbe,
  0x2c, 0x6a, 0x54, 0xbe, 0xbf, 0xe4, 0xcc, 0xbc, 0x60, 0xd9, 0x22, 0x3e,
  0x28, 0xad, 0x5b, 0xbd, 0xcf, 0xec, 0x84, 0xbd, 0x3a, 0x93, 0xaf, 0x3d,
  0xb4, 0xd8, 0x2a, 0xbb, 0x09, 0x01, 0x0e, 0x3d, 0x6a, 0x0e, 0x1a, 0x3e,
  0xbc, 0x95, 0x65, 0x3d, 0x72, 0x55, 0x52, 0xbe, 0xf6, 0xd2, 0xc0, 0x3d,
  0x28, 0x9f, 0x4c, 0x3e, 0x09, 0xb0, 0xe5, 0xbd, 0xc1, 0xb0, 0x14, 0x3c,
  0x84, 0x2d, 0xc1, 0xbd, 0x56, 0x0f, 0x99, 0x3b, 0xf4, 0x7e, 0x9c, 0x3d,
  0x47, 0xa6, 0x63, 0xbe, 0x82, 0x9b, 0x47, 0x3e, 0x4f, 0x01, 0x76, 0x3d,
  0x97, 0xea, 0x1a, 0x3e, 0xd5, 0xe1, 0xc2, 0x3b, 0x74, 0xfe, 0x0f, 0xbe,
  0x8c, 0x63, 0xcc, 0x3d, 0x52, 0xc6, 0x8e, 0x3d, 0x5e, 0x15, 0x24, 0x3d,
  0xc6, 0x39, 0x63, 0xbe, 0x48, 0xe6, 0x30, 0xbe, 0x6e, 0xe0, 0xb4, 0xbd,
  0x09, 0x08, 0x0c, 0xbd, 0x32, 0xa5, 0xf7, 0xbc, 0xe1, 0x45, 0xde, 0x3c,
  0x69, 0xb9, 0xe0, 0xbc, 0xc1, 0x43, 0x3e, 0xbe, 0xdb, 0x2f, 0xb9, 0x3d,
  0x91, 0xdb, 0x52, 0xbe, 0x5b, 0xce, 0x18, 0x3e, 0xb3, 0x40, 0x3b, 0x3e,
  0x5e, 0x29, 0x97, 0x3a, 0xe6, 0xa4, 0x46, 0xbe, 0x78, 0xa7, 0x14, 0x3e,
  0x4a, 0x51, 0x97, 0xbd, 0xd5, 0x1a, 0x2c, 0x3d, 0x07, 0x77, 0x8d, 0xbd,
  0xba, 0x2c, 0x4b, 0x3e, 0x95, 0xa7, 0xee, 0x3d, 0x16, 0xa0, 0xad, 0xbd,
  0x6b, 0x9c, 0xc8, 0xbb, 0x1f, 0x1b, 0x25, 0x3e, 0xd5, 0x66, 0xc8, 0x3d,
  0xe7, 0x18, 0xa0, 0xbc, 0x69, 0x58, 0x45, 0xbe, 0xed, 0x20, 0x13, 0xbe,
  0xe5, 0xdc, 0x9c, 0xbd, 0xcb, 0x40, 0x2a, 0x3e, 0xda, 0xe3, 0xd9, 0xbc,
  0xfb, 0x52, 0xaa, 0x3d, 0xd3, 0x7a, 0x09, 0xbe, 0x88, 0x8c, 0x27, 0xbd,
  0x49, 0xb9, 0x91, 0xbd, 0xe8, 0x5a, 0x0b, 0xbe, 0x26, 0x77, 0xcb, 0xbd,
  0xf7, 0x62, 0x02, 0x3e, 0x28, 0x7a, 0x09, 0xbe, 0x88, 0x13, 0x19, 0xbe,
  0x50, 0x7c, 0xc1, 0x3d, 0x78, 0xc6, 0x1e, 0xbe, 0x8a, 0x6b, 0x57, 0xbe,
  0x87, 0xae, 0x18, 0xbe, 0x1d, 0xa5, 0xd5, 0xbd, 0x5f, 0x18, 0x6c, 0xbd,
  0xc1, 0xeb, 0x03, 0xbd, 0x43, 0xc8, 0x0b, 0xbc, 0x6d, 0x1e, 0x96, 0xbd,
  0xfa, 0xea, 0x02, 0xbc, 0x64, 0xdb, 0xd4, 0x3d, 0xa8, 0x62, 0x90, 0xbc,
  0x35, 0x1e, 0xd7, 0x3b, 0xe0, 0x13, 0x1e, 0xbe, 0xb4, 0xa4, 0x99, 0x3e,
  0x54, 0x67, 0x47, 0x3d, 0xed, 0x93, 0xd6, 0x3e, 0x38, 0xd8, 0xbe, 0x3d,
  0x14, 0x17, 0x10, 0x3e, 0x3e, 0x10, 0xa4, 0x3e, 0x2d, 0xb9, 0x87, 0x3e,
  0x04, 0xc1, 0x12, 0x3d, 0x21, 0x38, 0x2d, 0x3e, 0xfa, 0x84, 0x9f, 0x3e,
  0x1b, 0x01, 0x96, 0x3e, 0xdd, 0x12, 0x14, 0x3e, 0x0c, 0x22, 0x14, 0x3e,
  0xef, 0x6b, 0xbe, 0x3d, 0x28, 0x70, 0xa3, 0x3e, 0x53, 0xd0, 0xe5, 0x3d,
  0x5e, 0x62, 0x1a, 0x3b, 0xe4, 0x91, 0x94, 0x3e, 0x7f, 0xc8, 0x2c, 0x3e,
  0xa1, 0xad, 0xa7, 0x3e, 0x00, 0x9f, 0x81, 0x3e, 0x50, 0x5b, 0x1d, 0x3e,
  0x27, 0xca, 0x15, 0x3e, 0x52, 0x44, 0x6b, 0x3e, 0x97, 0xe3, 0x37, 0x3d,
  0xb1, 0x54, 0x67, 0xbd, 0x87, 0x2d, 0xac, 0x3d, 0x71, 0x7a, 0x1e, 0x3e,
  0x91, 0xf7, 0xa4, 0x3e, 0x01, 0x05, 0x80, 0x3e, 0x50, 0x66, 0xc0, 0x3d,
  0xac, 0x1a, 0xac, 0x3e, 0xe9, 0xd3, 0xd7, 0x3e, 0x83, 0x82, 0x57, 0x3e,
  0x4e, 0xf3, 0xe4, 0x3d, 0xf7, 0x1e, 0xbd, 0x3e, 0xe3, 0xc0, 0x12, 0x3d,
  0x69, 0xfc, 0x2a, 0x3e, 0xd7, 0xad, 0x8c, 0x3e, 0x02, 0xcc, 0x09, 0x3f,
  0xbf, 0x88, 0x04, 0x3e, 0x17, 0xc0, 0xdc, 0x3e, 0xb2, 0x99, 0xf4, 0x3e,
  0x66, 0x0b, 0x5f, 0x3e, 0x72, 0xa7, 0x01, 0x3f, 0x41, 0x2e, 0xb3, 0x3e,
  0x51, 0x65, 0x11, 0x3f, 0x94, 0x16, 0xf6, 0x3d, 0x28, 0x35, 0x42, 0x3e,
  0x14, 0x37, 0xa2, 0x3e, 0x19, 0x34, 0xde, 0x3e, 0x06, 0x3c, 0xa2, 0x3b,
  0x6c, 0x80, 0x39, 0x3e, 0xc0, 0xd4, 0xae, 0x3c, 0xe3, 0x9f, 0xad, 0x3e,
  0xe5, 0x90, 0x58, 0x3e, 0x46, 0x1a, 0x48, 0x3e, 0x21, 0x16, 0x7c, 0x3e,
  0x50, 0x20, 0x60, 0x3e, 0x2f, 0x50, 0x3b, 0x3d, 0x1d, 0x39, 0xe3, 0x3e,
  0x3d, 0xcf, 0x6b, 0x3e, 0xef, 0xf5, 0x7d, 0x3e, 0x19, 0xb7, 0x37, 0x3e,
  0x39, 0x87, 0x2c, 0x3e, 0xe5, 0xb0, 0xe5, 0x3c, 0x84, 0xa0, 0xe7, 0x3d,
  0x6c, 0x77, 0xe1, 0x3d, 0xd7, 0xf0, 0xa0, 0x3c, 0x14, 0xad, 0xdd, 0xbe,
  0x2c, 0xfb, 0x55, 0xbe, 0xf0, 0x63, 0x0f, 0xbd, 0x1d, 0x45, 0xf5, 0x3d,
  0xd6, 0x46, 0x10, 0xbe, 0x23, 0x15, 0x14, 0xbc, 0x56, 0x9a, 0x72, 0xbe,
  0xbb, 0x6e, 0x9c, 0x3d, 0xa5, 0x4f, 0x13, 0xbe, 0x6f, 0xe4, 0xb2, 0x3e,
  0xa0, 0xa0, 0xc3, 0xbe, 0x21, 0xcf, 0x99, 0xbc, 0xba, 0x18, 0x8a, 0x3e,
  0x1d, 0xdd, 0x4f, 0xbe, 0xd4, 0x1d, 0x66, 0xbe, 0x56, 0xfa, 0x1f, 0xbe,
  0xb2, 0x1f, 0xf8, 0xbd, 0x7e, 0x38, 0x47, 0xbe, 0xec, 0xd8, 0x60, 0xbe,
  0xfe, 0xd1, 0xf1, 0xbe, 0x34, 0x26, 0x80, 0x3e, 0x40, 0xfb, 0x75, 0xbe,
  0x6b, 0x73, 0x07, 0xbe, 0xf0, 0x13, 0xaf, 0xbe, 0x4d, 0xb9, 0x72, 0xbe,
  0x43, 0x7a, 0xcc, 0x3b, 0x7d, 0x49, 0x38, 0x3e, 0x14, 0x9f, 0x4c, 0x3d,
  0x5f, 0x8d, 0xa4, 0x3d, 0xad, 0xe4, 0x75, 0xbe, 0x3b, 0xd5, 0x9c, 0xbe,
  0xc1, 0xe5, 0xad, 0x3e, 0x99, 0x07, 0x76, 0xbe, 0x5e, 0xaa, 0x93, 0x3e,
  0xbf, 0xfa, 0x81, 0x3d, 0x57, 0x71, 0x95, 0xbd, 0x59, 0xd9, 0x92, 0xbe,
  0x01, 0x24, 0x7f, 0xbe, 0x10, 0xf3, 0x34, 0x3e, 0xdc, 0x15, 0x8c, 0x3c,
  0x5a, 0x7c, 0xe3, 0x3d, 0x29, 0xca, 0x3c, 0xbd, 0x90, 0x10, 0xc2, 0x3e,
  0xf9, 0x68, 0x5b, 0x3b, 0xdd, 0x8f, 0xe2, 0x3e, 0xd0, 0xd4, 0x8c, 0xbe,
  0x11, 0x1d, 0x6c, 0xbe, 0xed, 0xdc, 0x83, 0xbe, 0x91, 0x8f, 0x85, 0x3c,
  0xe6, 0xd6, 0x60, 0xbe, 0xbe, 0xab, 0x96, 0xbe, 0x5f, 0xca, 0x8b, 0xbe,
  0x05, 0xab, 0x28, 0xbe, 0x8e, 0x33, 0x2b, 0x3e, 0xc9, 0x19, 0x67, 0xbe,
  0xba, 0x65, 0x37, 0xbd, 0xfb, 0xae, 0x0c, 0x3e, 0xa7, 0xe5, 0x04, 0x3e,
  0x9c, 0xa3, 0x26, 0x3e, 0xda, 0xe2, 0xd8, 0xbc, 0x0b, 0x30, 0x2f, 0xbe,
  0x2d, 0x2f, 0x1f, 0x3e, 0x67, 0xe0, 0x63, 0x3c, 0x78, 0x0d, 0xce, 0x3d,
  0x40, 0x71, 0xda, 0xbd, 0x50, 0x15, 0x19, 0x3e, 0x84, 0x08, 0x32, 0xbe,
  0x9a, 0xa1, 0x27, 0xbe, 0xca, 0x5b, 0xca, 0xbc, 0xee, 0x1f, 0x0c, 0x3e,
  0x7c, 0x5e, 0xae, 0xbc, 0xe0, 0x76, 0xe3, 0xbd, 0xf4, 0xfc, 0x76, 0x3d,
  0x2c, 0xa7, 0xcf, 0xbc, 0x12, 0xa2, 0x98, 0x3d, 0x8f, 0x8c, 0xad, 0xbd,
  0x92, 0x02, 0xdf, 0x3d, 0x96, 0x30, 0x17, 0x3e, 0xb0, 0x64, 0x0a, 0xbe,
  0xbe, 0x10, 0xa8, 0x3d, 0x0e, 0x09, 0x01, 0xbe, 0xc2, 0xe0, 0x27, 0xbe,
  0xd6, 0xea, 0x0a, 0x3e, 0xad, 0xcd, 0x19, 0xbe, 0x4c, 0x85, 0x12, 0xbd,
  0x15, 0xfa, 0x83, 0x3d, 0x90, 0x00, 0xd8, 0xbd, 0x32, 0x2b, 0xd4, 0x3c,
  0x70, 0xb7, 0x89, 0xbd, 0x4c, 0x55, 0x62, 0xbe, 0x7d, 0xaf, 0x51, 0xbe,
  0x6b, 0xc0, 0x3e, 0xbd, 0x0f, 0x1c, 0x5b, 0xbd, 0xa3, 0x31, 0x5f, 0x3d,
  0xe7, 0x93, 0x16, 0x3e, 0xf4, 0xf2, 0x4e, 0xbe, 0xee, 0xe7, 0xe7, 0x3d,
  0x9c, 0xaf, 0x0a, 0xbe, 0x09, 0x0f, 0x46, 0xbe, 0x42, 0xfb, 0x2f, 0x3e,
  0x16, 0xc6, 0xed, 0x3d, 0x06, 0x39, 0x77, 0xbe, 0x18, 0xc9, 0x6e, 0xbe,
  0x8c, 0x25, 0x2e, 0xbe, 0xda, 0x88, 0xf3, 0xbd, 0x0e, 0x07, 0x72, 0x3d,
  0xec, 0x96, 0xe3, 0xbd, 0xb3, 0x07, 0x46, 0xbe, 0xf0, 0xed, 0x15, 0x3e,
  0x42, 0x67, 0xfa, 0x3d, 0xf4, 0x8c, 0x15, 0x3e, 0x66, 0xcc, 0x0e, 0x3e,
  0x1b, 0x6b, 0xe8, 0xbd, 0x2d, 0x48, 0x2a, 0xbe, 0x42, 0x30, 0x65, 0xbd,
  0xee, 0x33, 0x82, 0xbe, 0xd0, 0x3c, 0x5d, 0x3c, 0x53, 0x4a, 0x13, 0x3e,
  0xb6, 0xec, 0xfe, 0x3d, 0x7d, 0xdc, 0x57, 0xbd, 0xec, 0xd2, 0x21, 0x3e,
  0xf6, 0xab, 0x54, 0xbe, 0xf3, 0x12, 0xf9, 0x3d, 0x5d, 0xf8, 0x63, 0xbc,
  0x7b, 0x52, 0x25, 0x3b, 0x1f, 0x98, 0xa0, 0x3d, 0x6a, 0x21, 0xe4, 0xbd,
  0x23, 0x20, 0xab, 0x3d, 0x55, 0x7b, 0xee, 0x3d, 0x70, 0x4f, 0xfe, 0xbd,
  0xa2, 0x7b, 0x43, 0xbd, 0x2a, 0x81, 0x29, 0xbd, 0x14, 0x2e, 0x7e, 0xbd,
  0x7f, 0xc2, 0xe0, 0x3d, 0xff, 0xd4, 0xb6, 0xbd, 0x29, 0x5e, 0x18, 0x3e,
  0x2f, 0xb4, 0x54, 0xbe, 0xce, 0x81, 0x06, 0xbd, 0x54, 0xfa, 0xa4, 0xbd,
  0x16, 0xd6, 0x4a, 0xbe, 0x6c, 0x69, 0x2c, 0xbe, 0x7c, 0xe3, 0x72, 0x3d,
  0xae, 0xb7, 0x4c, 0xbc, 0x9e, 0x99, 0x52, 0xbe, 0xfb, 0xdc, 0x1d, 0xbe,
  0xbd, 0x67, 0x72, 0xbc, 0x96, 0xeb, 0x59, 0xbc, 0x98, 0x58, 0x4d, 0xbe,
  0xe9, 0x42, 0x41, 0x3e, 0x02, 0x2c, 0x00, 0x3d, 0x18, 0xda, 0x45, 0xbe,
  0x67, 0xf4, 0x1b, 0x3c, 0xd8, 0x03, 0x8a, 0xbd, 0xa3, 0x28, 0x60, 0xbe,
  0xa1, 0x73, 0x00, 0xbe, 0xb2, 0x3d, 0xb3, 0xbd, 0xb1, 0x26, 0x09, 0xbe,
  0xbe, 0x1f, 0x40, 0x3b, 0xa2, 0xfb, 0x2b, 0x3e, 0xb1, 0xc3, 0x24, 0xbe,
  0xad, 0xd2, 0xc0, 0x3d, 0x01, 0x1d, 0xb2, 0x3d, 0x72, 0xf0, 0xed, 0x3d,
  0x41, 0x3e, 0x7a, 0xbe, 0x80, 0xed, 0xbf, 0xbd, 0xdd, 0x89, 0x90, 0x3d,
  0x10, 0xd4, 0x0d, 0x3e, 0x9a, 0x1c, 0x8a, 0xbd, 0xea, 0x8d, 0x3e, 0x3d,
  0x3f, 0x61, 0x0c, 0x3e, 0xee, 0x4f, 0x2f, 0x3e, 0xa7, 0x48, 0x45, 0xbe,
  0x45, 0x46, 0xb8, 0xbd, 0x8e, 0x5f, 0x29, 0xbe, 0xbd, 0x85, 0x3c, 0xbe,
  0x9d, 0xbd, 0xe6, 0xbd, 0xf9, 0xb1, 0xcd, 0xbd, 0xf6, 0xf6, 0xc6, 0x3d,
  0x97, 0xd1, 0xe0, 0x3d, 0x33, 0x10, 0x43, 0xbd, 0xf6, 0x2b, 0xf9, 0xbd,
  0xa4, 0x4e, 0x9d, 0xbc, 0x8e, 0x0c, 0x84, 0xbd, 0x7c, 0xd4, 0x0b, 0x3e,
  0xc8, 0x08, 0x29, 0xbe, 0xd9, 0x38, 0x2c, 0xbe, 0x09, 0x88, 0x43, 0xbe,
  0xb7, 0xcf, 0x51, 0xbe, 0x91, 0x23, 0x99, 0xbd, 0xa6, 0xa0, 0x02, 0x3e,
  0xa9, 0x79, 0xcc, 0x3d, 0x77, 0xcb, 0xbb, 0x3d, 0x48, 0x13, 0x06, 0x3e,
  0xe2, 0x5c, 0xba, 0xbc, 0x11, 0xab, 0xc5, 0x3d, 0xf0, 0xab, 0x3f, 0xbe,
  0xcc, 0x22, 0x87, 0x3d, 0x4f, 0x09, 0x91, 0x3d, 0xdd, 0x04, 0xd1, 0x3d,
  0x4a, 0x43, 0xba, 0x3d, 0x62, 0x0a, 0xea, 0xbd, 0xbc, 0xf7, 0x5f, 0xbe,
  0x93, 0x9c, 0x02, 0x3e, 0xa5, 0x8e, 0xb5, 0x3d, 0xa6, 0xd2, 0x63, 0xbe,
  0xc1, 0x78, 0x56, 0xbe, 0x10, 0xbc, 0x08, 0xbe, 0x4e, 0xb1, 0x1e, 0x3c,
  0x6e, 0xb0, 0xf2, 0x3d, 0x40, 0x54, 0x76, 0xbe, 0xab, 0x73, 0x12, 0xbe,
  0xa6, 0x74, 0x65, 0xbe, 0x9f, 0xa3, 0x18, 0x3e, 0x0f, 0x1a, 0x26, 0x3d,
  0x89, 0x36, 0x0f, 0x3e, 0x30, 0x43, 0x03, 0xbe, 0x04, 0x43, 0x5d, 0xbe,
  0xeb, 0x19, 0x4e, 0xbe, 0x1e, 0xca, 0xb1, 0x3d, 0x42, 0xd8, 0x14, 0xbe,
  0x17, 0x54, 0x93, 0x3d, 0xde, 0x33, 0xe2, 0xbc, 0x49, 0x57, 0xd9, 0xbd,
  0x1e, 0x3b, 0x81, 0x3d, 0x67, 0x66, 0xff, 0x3d, 0x9f, 0xc2, 0x1e, 0x3e,
  0xf0, 0x98, 0xb0, 0xbd, 0xd1, 0xf3, 0xa1, 0x3d, 0x3a, 0xe2, 0x00, 0xbe,
  0xe0, 0x56, 0x19, 0x3e, 0x88, 0xde, 0x8b, 0xbd, 0x20, 0x44, 0x31, 0xbe,
  0x22, 0x74, 0x9b, 0x3d, 0x9b, 0x6e, 0x4b, 0x3e, 0x78, 0x30, 0x1a, 0x3e,
  0xc1, 0x3e, 0x85, 0xbe, 0x64, 0x8c, 0x2e, 0xbb, 0x92, 0x52, 0x3b, 0xbe,
  0x9d, 0xa7, 0x41, 0xbe, 0x59, 0x3c, 0xa8, 0x3d, 0xd6, 0x1d, 0xed, 0xbd,
  0xf9, 0x1a, 0x60, 0xbe, 0x8e, 0x00, 0xaf, 0x3d, 0xa9, 0x3a, 0xe6, 0x3d,
  0x88, 0x30, 0x37, 0xbc, 0x2e, 0x22, 0x11, 0xbe, 0x63, 0x9b, 0x6e, 0xbd,
  0x92, 0x86, 0x58, 0x3d, 0x08, 0x7b, 0x0e, 0xbe, 0xed, 0x99, 0x51, 0xbc,
  0xce, 0x44, 0x14, 0xbe, 0x80, 0xdb, 0x86, 0xbd, 0xa1, 0x75, 0xf6, 0xbd,
  0x03, 0xdf, 0x5c, 0xbd, 0x50, 0x50, 0xf6, 0x3d, 0xc0, 0x50, 0xbf, 0xbd,
  0x62, 0x2e, 0x04, 0x3e, 0x48, 0xbc, 0x1b, 0xbe, 0x80, 0xc8, 0x12, 0x3e,
  0xff, 0x26, 0x58, 0xbe, 0x57, 0xe2, 0x84, 0xbd, 0xdc, 0xd7, 0x6c, 0x3a,
  0xd7, 0xc5, 0xb0, 0xbd, 0x89, 0xda, 0x52, 0x3d, 0x46, 0x1b, 0x9b, 0x3d,
  0xfd, 0x12, 0x12, 0x3e, 0x33, 0x9f, 0x74, 0xbe, 0x0e, 0x27, 0x38, 0xbe,
  0xb2, 0x48, 0x23, 0xbe, 0x13, 0x1c, 0xd9, 0x3d, 0x04, 0xfa, 0x03, 0xbe,
  0x0a, 0x10, 0x94, 0x3d, 0xdc, 0x27, 0x76, 0xbd, 0xb3, 0xae, 0x26, 0xbe,
  0x1c, 0x1d, 0x53, 0xbe, 0x8c, 0x2c, 0x24, 0x3e, 0x4d, 0x5b, 0x34, 0xbc,
  0x15, 0x19, 0x2f, 0x3e, 0xc7, 0x25, 0x6c, 0xbe, 0x40, 0xf1, 0x19, 0x3e,
  0x2e, 0x43, 0x91, 0x3d, 0xd7, 0x74, 0x8d, 0xbd, 0x36, 0x42, 0x53, 0xbe,
  0x43, 0x22, 0xee, 0xbd, 0x4a, 0xbc, 0x2f, 0xbe, 0x99, 0xb3, 0x0d, 0x3e,
  0x64, 0x05, 0x77, 0xbe, 0x86, 0xcb, 0x71, 0xbd, 0xf6, 0xa5, 0x47, 0x3e,
  0x6d, 0xf1, 0xfa, 0x3d, 0xf0, 0xf4, 0x17, 0x3e, 0x90, 0x44, 0x1d, 0xbe,
  0xe8, 0xa5, 0x0e, 0xbd, 0x34, 0xe0, 0x06, 0x3d, 0x5f, 0x88, 0x29, 0xbe,
  0x23, 0xb7, 0x85, 0x3d, 0xef, 0x40, 0x2a, 0x3e, 0x38, 0x51, 0xb3, 0x3d,
  0xe1, 0x46, 0xe2, 0xbc, 0xf1, 0x26, 0xe3, 0xbd, 0x00, 0xb6, 0x8b, 0xbd,
  0xe6, 0x41, 0xcb, 0x3d, 0x0e, 0x39, 0x47, 0xbd, 0xc5, 0x9c, 0xe8, 0x3d,
  0xd7, 0x31, 0xa1, 0xbd, 0xfa, 0x60, 0x42, 0xbe, 0xe0, 0xaa, 0x09, 0xbd,
  0xd8, 0x4d, 0xd5, 0x3d, 0xbe, 0x73, 0xe6, 0xbd, 0x1c, 0xa8, 0x38, 0x3e,
  0x14, 0xd6, 0xfe, 0x3d, 0x7a, 0x9a, 0x30, 0xbe, 0xaf, 0x54, 0x0f, 0xbe,
  0x69, 0x4f, 0x2c, 0x3d, 0xfe, 0x79, 0x8f, 0xbc, 0x53, 0xbe, 0x17, 0xbd,
  0xc1, 0x27, 0x87, 0xbb, 0xc4, 0x33, 0x14, 0xbe, 0x1e, 0xe4, 0x53, 0xbe,
  0x90, 0xcb, 0xba, 0xbd, 0xf4, 0x46, 0x07, 0xbd, 0x03, 0xcf, 0x23, 0x3d,
  0x68, 0xc3, 0x85, 0x3d, 0x38, 0x71, 0xa1, 0x3d, 0x25, 0xa2, 0x2f, 0x3e,
  0x05, 0x89, 0x57, 0xbc, 0x4a, 0xfd, 0x02, 0x3e, 0x2a, 0x81, 0xaa, 0xbd,
  0x2a, 0xd0, 0xe4, 0x3d, 0x17, 0xb1, 0xc5, 0xbd, 0x55, 0x8a, 0x95, 0x3d,
  0xd9, 0x3f, 0x4c, 0xbd, 0xa6, 0x95, 0xb8, 0xbd, 0x4e, 0x05, 0x02, 0x3e,
  0xa5, 0x1c, 0x0e, 0xbd, 0x65, 0xe4, 0xb0, 0xbd, 0x95, 0xcc, 0x07, 0x3e,
  0xbc, 0xde, 0x83, 0xbd, 0x5a, 0xca, 0xb6, 0xbd, 0xfa, 0xa4, 0x6a, 0xbe,
  0x0c, 0x11, 0x1f, 0x3e, 0x9b, 0xe7, 0x2d, 0x3e, 0x17, 0x63, 0x0c, 0x3e,
  0xc8, 0xbf, 0xe3, 0xbb, 0x88, 0x95, 0x32, 0xbe, 0x64, 0xfe, 0x88, 0x3d,
  0x95, 0x0a, 0x52, 0x3d, 0x71, 0x60, 0x48, 0xbe, 0x9c, 0xe1, 0xa3, 0xbd,
  0x14, 0x6f, 0x75, 0xbe, 0xa0, 0xc2, 0xeb, 0x3d, 0xf5, 0x73, 0x6d, 0xbe,
  0xa9, 0xc3, 0x43, 0x3d, 0x18, 0xca, 0x1d, 0x3e, 0x9d, 0xa3, 0xa1, 0xbb,
  0x78, 0xa2, 0x2f, 0xbd, 0x4a, 0x4f, 0xa0, 0xbd, 0xbc, 0xa7, 0x9c, 0x3c,
  0x0c, 0x06, 0x08, 0x3e, 0x99, 0x16, 0x9e, 0x3d, 0x2b, 0x1d, 0x5d, 0xbe,
  0xd3, 0x9c, 0x15, 0x3e, 0x75, 0x31, 0x24, 0x3e, 0x58, 0x65, 0x2e, 0xbe,
  0xd7, 0x15, 0x2d, 0xbe, 0x92, 0xd5, 0x23, 0xbe, 0x74, 0x03, 0x2f, 0xbe,
  0x53, 0x7b, 0x3b, 0x3e, 0x67, 0x97, 0x41, 0xbe, 0xa8, 0x6d, 0xec, 0xbd,
  0x56, 0x22, 0x4a, 0xbe, 0x5b, 0x28, 0xdc, 0xbd, 0x01, 0x11, 0x6c, 0xbe,
  0x4f, 0xa9, 0x28, 0xbe, 0x25, 0x1e, 0x4d, 0xbe, 0x3a, 0x09, 0xc1, 0x3d,
  0xbd, 0xb6, 0x6d, 0xbd, 0x74, 0x61, 0x45, 0xbe, 0x1b, 0xc1, 0x1f, 0x3e,
  0x08, 0x6e, 0x02, 0x3d, 0xbc, 0xb0, 0xc0, 0xba, 0x2d, 0x77, 0xb3, 0xbb,
  0x90, 0xbc, 0xa0, 0xbd, 0x92, 0x7d, 0xac, 0xbd, 0xac, 0xc3, 0x37, 0xbe,
  0x79, 0xdf, 0xc8, 0xbb, 0x9d, 0xc0, 0xc4, 0xbd, 0xf8, 0xab, 0x28, 0x3d,
  0xed, 0x4d, 0x24, 0x3e, 0x0f, 0x55, 0x39, 0xbd, 0x94, 0x4a, 0x03, 0x3e,
  0x91, 0xed, 0xa5, 0x3d, 0x8c, 0x83, 0x72, 0xbc, 0x75, 0x17, 0x69, 0xbe,
  0x00, 0x13, 0x9e, 0xbd, 0x18, 0x73, 0xd9, 0x3c, 0x65, 0xc9, 0x03, 0x3c,
  0x7d, 0xfd, 0x73, 0x3d, 0xf2, 0xc2, 0x69, 0xbe, 0xb7, 0x6c, 0x18, 0xbe,
  0x55, 0x2d, 0x0b, 0xbe, 0xe1, 0x1b, 0x4e, 0xbe, 0xb0, 0x20, 0x5c, 0xbe,
  0xec, 0x79, 0x8e, 0x3d, 0xd2, 0xa7, 0xc1, 0xbc, 0x8d, 0xea, 0xf2, 0x3d,
  0x0c, 0xe1, 0x66, 0xbc, 0x24, 0x5d, 0xf1, 0x3d, 0x3b, 0x01, 0x6a, 0xbe,
  0x0f, 0x95, 0x33, 0x3e, 0x8f, 0x59, 0x87, 0xbc, 0x41, 0x9a, 0xd3, 0xbd,
  0xb4, 0x20, 0x60, 0x3d, 0x7e, 0xdf, 0x47, 0xbe, 0xb3, 0x54, 0x20, 0x3e,
  0x54, 0x34, 0xcf, 0xbd, 0x50, 0xda, 0x41, 0xbe, 0x40, 0x25, 0x15, 0xbe,
  0x44, 0x60, 0x2b, 0x3e, 0xfd, 0x54, 0xce, 0xbd, 0x6b, 0x3b, 0x92, 0x3d,
  0xdf, 0x2b, 0x5b, 0x3d, 0x48, 0x9e, 0x29, 0xbd, 0x37, 0xbb, 0x71, 0xbc,
  0x19, 0x9b, 0x0b, 0xbe, 0x39, 0x97, 0x81, 0xbd, 0xec, 0xdf, 0xea, 0xbd,
  0x02, 0x95, 0xce, 0x3c, 0xea, 0xc6, 0xe4, 0x3c, 0x7a, 0x26, 0xa2, 0xbd,
  0x29, 0x00, 0x5c, 0xbe, 0x81, 0x59, 0x66, 0x3d, 0x0a, 0x3f, 0x10, 0x3d,
  0xcc, 0x8c, 0x16, 0x3e, 0x7b, 0x1c, 0x58, 0xbe, 0x80, 0xc9, 0xc5, 0x3d,
  0x37, 0xa6, 0x69, 0xbd, 0x5d, 0x7b, 0xfc, 0x3d, 0xf9, 0x9e, 0x26, 0x3e,
  0xea, 0xa4, 0x46, 0xbe, 0x1f, 0xb6, 0xd5, 0xbc, 0xa9, 0x3f, 0x21, 0x3e,
  0x51, 0xa4, 0x2d, 0x3d, 0x48, 0xdb, 0x3b, 0x3e, 0x67, 0xb5, 0xab, 0x3e,
  0xa7, 0xb8, 0xcb, 0x3e, 0x40, 0x65, 0x80, 0x3e, 0x18, 0x31, 0xcd, 0x3e,
  0x1c, 0xc2, 0xbe, 0x3e, 0x9e, 0xf4, 0xbb, 0x3e, 0xf9, 0x10, 0x54, 0x3e,
  0xbd, 0x68, 0xaf, 0x3e, 0xa0, 0x6f, 0xf1, 0x3d, 0x0f, 0x18, 0xe2, 0x3e,
  0x42, 0x7c, 0x8b, 0x3d, 0x38, 0x78, 0x97, 0x3e, 0xe6, 0xbb, 0x7a, 0x3e,
  0xf5, 0x7b, 0xdc, 0x3c, 0x9d, 0x63, 0xb4, 0x3e, 0x59, 0x47, 0x8f, 0x3e,
  0x28, 0x1c, 0x95, 0x3d, 0xb1, 0xa1, 0x1a, 0x3e, 0xa7, 0x61, 0x3a, 0x3e,
  0xa0, 0x6b, 0x9e, 0x3e, 0xbe, 0x01, 0x06, 0x3f, 0xf7, 0xed, 0x48, 0x3e,
  0xcb, 0x37, 0xb1, 0x3d, 0xdc, 0xf5, 0x56, 0x3e, 0x66, 0x02, 0xa2, 0x3e,
  0x89, 0x47, 0x2b, 0x3e, 0x18, 0x63, 0x14, 0x3e, 0x31, 0x90, 0xd6, 0xbb,
  0xb7, 0xf3, 0x13, 0x3e, 0x02, 0xb1, 0x43, 0x3d, 0xe0, 0x3e, 0x4b, 0x3e,
  0xa8, 0x6d, 0xb1, 0x3d, 0xd4, 0x25, 0xba, 0x3e, 0x37, 0xa7, 0xd5, 0x3d,
  0xe6, 0x2b, 0x1d, 0x3e, 0x2b, 0x56, 0x63, 0x3d, 0x56, 0x95, 0xb9, 0x3e,
  0x81, 0xe9, 0x96, 0x3e, 0x5f, 0xb3, 0x91, 0x3e, 0x01, 0x2f, 0xed, 0x3e,
  0xb8, 0x5d, 0xe4, 0x3e, 0x3a, 0x92, 0xf6, 0x3d, 0x56, 0x71, 0x14, 0x3e,
  0xee, 0xe5, 0x19, 0x3e, 0x1d, 0xaf, 0x84, 0x3e, 0x9c, 0x17, 0xa7, 0x3e,
  0x33, 0x34, 0x93, 0x3e, 0x8d, 0x6c, 0x59, 0x3e, 0x71, 0xff, 0xe6, 0x3e,
  0x0f, 0xd5, 0x89, 0x3e, 0x7f, 0x3a, 0xb0, 0x3e, 0x5b, 0xb5, 0x80, 0x3e,
  0xcc, 0x4e, 0xed, 0x3d, 0xb8, 0x6c, 0x44, 0x3e, 0x70, 0x5e, 0x2d, 0xbd,
  0x8f, 0xfd, 0x83, 0x3e, 0x48, 0xd4, 0x49, 0x3e, 0x48, 0xff, 0xf9, 0x3e,
  0x61, 0x98, 0xc9, 0x3e, 0xa9, 0xfa, 0xa3, 0x3e, 0x5d, 0xcc, 0x8c, 0x3d,
  0x68, 0x64, 0x23, 0x3e, 0x01, 0xf5, 0x96, 0x3e, 0xc6, 0xdf, 0xcd, 0xbb,
  0x65, 0x8f, 0xe4, 0x3d, 0xf8, 0x2c, 0xfc, 0x3d, 0x50, 0xd7, 0x08, 0x3e,
  0x62, 0x44, 0xfd, 0x3d, 0x79, 0x46, 0xb8, 0x3e, 0x5a, 0x59, 0x87, 0x3e,
  0x01, 0xf4, 0xcd, 0x3d, 0x19, 0x96, 0x00, 0x3e, 0xb8, 0x4a, 0x52, 0x3e,
  0x97, 0x27, 0xe4, 0x3e, 0x8d, 0xcc, 0x49, 0x3e, 0x6a, 0xba, 0x81, 0x3e,
  0x4a, 0x4d, 0x26, 0x3e, 0xf8, 0x3c, 0xca, 0x3e, 0x41, 0x72, 0x8e, 0x3e,
  0x85, 0xc4, 0x2b, 0x3e, 0xc2, 0x4d, 0x3a, 0x3e, 0xcd, 0x32, 0x6b, 0x3e,
  0xc2, 0x98, 0xe7, 0x3e, 0x87, 0xc5, 0x40, 0x3d, 0x5b, 0x22, 0xaa, 0x3e,
  0xad, 0xad, 0x17, 0x3d, 0x12, 0x54, 0x80, 0x3e, 0xcd, 0xb0, 0xd0, 0x3d,
  0x3c, 0xd6, 0x9d, 0x3d, 0xd7, 0x4f, 0x2c, 0x3e, 0x01, 0x11, 0x5f, 0x3e,
  0xa0, 0xab, 0xb9, 0x3e, 0x27, 0x4d, 0x03, 0x3e, 0xd6, 0x32, 0xc8, 0x3e,
  0xb9, 0xb3, 0xf8, 0x3e, 0xa7, 0xff, 0x95, 0x3e, 0x7d, 0xe4, 0xd0, 0x3e,
  0x08, 0x22, 0x7a, 0xbc, 0x72, 0xda, 0xa6, 0x3d, 0x30, 0xec, 0xd9, 0x3c,
  0xe8, 0xed, 0xd5, 0x3e, 0x7e, 0x21, 0x4e, 0x3e, 0x6d, 0xb0, 0x3b, 0x3e,
  0xf4, 0x92, 0x80, 0x3e, 0xea, 0x85, 0x9d, 0x3e, 0x05, 0x0d, 0x4e, 0x3e,
  0x7c, 0x23, 0x49, 0x3e, 0x76, 0x4b, 0x4b, 0x3e, 0x5a, 0x92, 0x87, 0x3e,
  0xd1, 0x5e, 0x6d, 0x3e, 0x9d, 0x3b, 0xb7, 0x3e, 0xc1, 0x41, 0xa2, 0x3e,
  0x53, 0xff, 0x78, 0x3e, 0xe2, 0xe6, 0xbc, 0x3e, 0x98, 0x5e, 0xa1, 0x3e,
  0xae, 0xae, 0xb6, 0x3d, 0x70, 0x36, 0x9a, 0x3e, 0x4a, 0x0e, 0xb4, 0x3e,
  0xb4, 0xa8, 0x9c, 0x3e, 0xed, 0x2f, 0xc6, 0x3e, 0x47, 0x24, 0x37, 0x3d,
  0x56, 0xca, 0xd6, 0x3e, 0x41, 0x1a, 0x88, 0x3e, 0xbe, 0xae, 0x8c, 0x3e,
  0x26, 0x66, 0x8b, 0x3e, 0x24, 0xb6, 0xa3, 0x3d, 0x4e, 0x8d, 0x2f, 0x3e,
  0x7f, 0x30, 0xfb, 0x3d, 0xc6, 0x4b, 0x87, 0x3e, 0xb4, 0xdb, 0x83, 0x3e,
  0x9d, 0x89, 0xc9, 0x3d, 0x68, 0xc3, 0x62, 0x3e, 0x30, 0xf6, 0x8f, 0x3e,
  0xfe, 0x86, 0x94, 0x3e, 0xfb, 0x02, 0x7f, 0x3e, 0x8a, 0x55, 0xb7, 0x3e,
  0x0b, 0x0d, 0xba, 0x3e, 0xe4, 0x46, 0xc1, 0x3e, 0x03, 0xd2, 0xe3, 0x3e,
  0x14, 0x0c, 0x00, 0x3e, 0x00, 0xa6, 0x80, 0x3e, 0x2c, 0xa8, 0xcb, 0x3e,
  0xbb, 0x08, 0x3b, 0x3e, 0x92, 0x0c, 0x46, 0x3e, 0xc9, 0x72, 0x7d, 0x3e,
  0xef, 0xcb, 0x4b, 0x3e, 0xdd, 0x79, 0xe4, 0x3e, 0x57, 0xf9, 0x85, 0x3e,
  0xd6, 0xaf, 0x75, 0x3e, 0x44, 0x38, 0x4f, 0x3e, 0xc9, 0x30, 0x92, 0x3c,
  0x7e, 0xda, 0x0d, 0x3e, 0x3a, 0x9f, 0x52, 0xbd, 0x0c, 0xb3, 0x2b, 0x3e,
  0x92, 0x99, 0x8b, 0x3e, 0x65, 0x5a, 0x95, 0x3d, 0xa4, 0xf1, 0x09, 0x3e,
  0xa1, 0xcd, 0xa0, 0x3e, 0x29, 0x95, 0xdc, 0x3e, 0x43, 0x07, 0x49, 0x3e,
  0x36, 0xbd, 0xd5, 0x3a, 0xd4, 0xb3, 0x21, 0x3b, 0x17, 0x25, 0x53, 0x3e,
  0x00, 0x9b, 0x5c, 0x3e, 0x2a, 0xdf, 0xe0, 0x3e, 0xbd, 0x5d, 0xf3, 0x3d,
  0xc5, 0x5c, 0x81, 0x3e, 0xb3, 0xd7, 0x7a, 0x3e, 0xb5, 0x62, 0xc4, 0x3e,
  0x80, 0xf1, 0x05, 0x3e, 0xf9, 0x95, 0x13, 0x3e, 0x91, 0xe7, 0xce, 0x3e,
  0x7b, 0x5d, 0x71, 0x3e, 0xe1, 0x2d, 0x0a, 0x3f, 0x9a, 0x1c, 0xd1, 0x3d,
  0x78, 0xaa, 0xff, 0x3d, 0x1e, 0xc1, 0xb1, 0x3e, 0x0a, 0xd5, 0xe8, 0x3e,
  0x36, 0x2a, 0x1b, 0x3e, 0x78, 0x81, 0xc2, 0x3d, 0xe9, 0x4f, 0xb4, 0x3e,
  0xfd, 0xb5, 0xa4, 0x3e, 0x9d, 0x9a, 0xa2, 0x3d, 0x86, 0x60, 0x06, 0x3f,
  0xf7, 0x13, 0x64, 0x3c, 0xb0, 0xaf, 0x82, 0x3e, 0x14, 0x33, 0xa9, 0x3e,
  0x67, 0xd0, 0xd4, 0x3e, 0x82, 0xbd, 0x67, 0x3e, 0x0a, 0xc7, 0x33, 0x3e,
  0x63, 0xc5, 0x55, 0x3e, 0x51, 0x7b, 0x9d, 0x3d, 0xd0, 0x4d, 0xc0, 0x3d,
  0x84, 0xb7, 0x33, 0x3e, 0x1e, 0x14, 0xce, 0x3d, 0xca, 0x5e, 0x16, 0x3d,
  0x11, 0x06, 0xbb, 0x3e, 0x36, 0x98, 0xb1, 0x3d, 0x27, 0xbe, 0xae, 0x3e,
  0x33, 0x32, 0x04, 0x3e, 0xf2, 0xfa, 0x73, 0x3e, 0xa5, 0x38, 0xc0, 0x3e,
  0x42, 0x56, 0xa8, 0x3e, 0xf0, 0x1b, 0x60, 0x3c, 0x88, 0x05, 0xdf, 0x3e,
  0x3b, 0x98, 0x3c, 0x3e, 0x9f, 0x22, 0xb9, 0x3e, 0x1e, 0x4b, 0x64, 0x3c,
  0x94, 0x95, 0xe4, 0x3e, 0xdc, 0x82, 0xa0, 0x3e, 0x7d, 0x7b, 0xa9, 0x3e,
  0xca, 0x65, 0xe0, 0x3e, 0x7f, 0x24, 0xf8, 0x3e, 0x18, 0x8c, 0x12, 0xbd,
  0x1a, 0x85, 0xd9, 0x3e, 0xba, 0xb8, 0xab, 0x3e, 0x2b, 0xeb, 0x94, 0x3e,
  0x1f, 0x67, 0xff, 0x3d, 0x35, 0xce, 0xfd, 0x3e, 0x4a, 0x39, 0x39, 0x3d,
  0x3c, 0xd7, 0xc1, 0x3e, 0xc5, 0x24, 0xa8, 0x3e, 0x32, 0xd6, 0xe3, 0x3e,
  0x4f, 0x37, 0xc5, 0x3e, 0xb5, 0xb3, 0xa5, 0x3e, 0x1e, 0xbb, 0x89, 0x3e,
  0xc1, 0x4d, 0x89, 0x3e, 0x67, 0x9f, 0xa5, 0x3d, 0x95, 0x39, 0xcf, 0x3e,
  0xc5, 0x73, 0x9c, 0x3e, 0x17, 0xfb, 0x63, 0x3e, 0xb2, 0x31, 0xfd, 0x3d,
  0x8d, 0x3a, 0xa0, 0x3e, 0x1a, 0xb3, 0x11, 0x3e, 0x2b, 0x87, 0x95, 0x3e,
  0x06, 0x8c, 0x12, 0x3e, 0x74, 0xb2, 0xc4, 0x3e, 0xd1, 0xaf, 0xda, 0x3e,
  0xee, 0xa2, 0xb7, 0x3e, 0xe7, 0xcc, 0x3d, 0x3e, 0xec, 0xe3, 0xa4, 0x3e,
  0x88, 0xc1, 0x00, 0x3e, 0x1d, 0x2f, 0x92, 0x3e, 0x1c, 0x1a, 0x00, 0x3e,
  0x40, 0x05, 0x47, 0x3e, 0xbc, 0x42, 0x6e, 0x3e, 0x60, 0x9e, 0x30, 0x3e,
  0x0e, 0xc3, 0xbf, 0x3e, 0xec, 0x93, 0x46, 0xbd, 0xde, 0x03, 0x34, 0x3e,
  0x0a, 0x66, 0x95, 0x3d, 0x79, 0x08, 0x9d, 0x3e, 0xe3, 0xbd, 0x43, 0x3d,
  0xf2, 0x89, 0xb0, 0x3e, 0x64, 0xbb, 0x94, 0x3e, 0xd1, 0x9e, 0xa5, 0x3e,
  0x28, 0xcb, 0xb9, 0x3e, 0x75, 0x5d, 0xc1, 0x3d, 0xa4, 0x79, 0x16, 0x3d,
  0xbc, 0xb0, 0xd7, 0x3e, 0xd3, 0xb7, 0xda, 0x3e, 0xb5, 0x6c, 0xc1, 0x3e,
  0x70, 0x2a, 0x57, 0x3d, 0xcb, 0xb0, 0x56, 0x3d, 0xf8, 0xc4, 0x9e, 0x3e,
  0xc6, 0x06, 0x1f, 0x3e, 0xa5, 0xe2, 0xee, 0x3e, 0x66, 0xfc, 0x57, 0x3e,
  0xf8, 0x10, 0xf9, 0x3d, 0x3c, 0x1d, 0xb5, 0x3e, 0x2d, 0x24, 0x41, 0x3e,
  0xf1, 0xd4, 0xa2, 0x3e, 0xd3, 0xe3, 0x1c, 0x3e, 0x8d, 0xfc, 0xf9, 0x3e,
  0xbb, 0x0f, 0x83, 0x3e, 0xb5, 0xbf, 0x58, 0x3e, 0xc5, 0xec, 0xf5, 0x3e,
  0xd4, 0x42, 0xbe, 0x3e, 0x9a, 0x48, 0xaf, 0x3e, 0xc1, 0x0e, 0x12, 0x3e,
  0xae, 0x99, 0x3e, 0xbd, 0x11, 0x71, 0x66, 0x3e, 0x0c, 0xcf, 0x99, 0x3e,
  0xfc, 0x8f, 0x7c, 0x3e, 0xd5, 0xf4, 0x00, 0x3e, 0xf7, 0x3c, 0xba, 0x3d,
  0x88, 0xf9, 0xa7, 0x3e, 0xbf, 0x0b, 0x4c, 0x3e, 0xae, 0x84, 0x21, 0x3e,
  0x3d, 0x01, 0x26, 0x3e, 0xfa, 0x37, 0xd6, 0x3e, 0xc6, 0x03, 0x81, 0x3d,
  0x36, 0xac, 0xbb, 0x3e, 0x7a, 0xd3, 0xf8, 0x3d, 0xf8, 0xb6, 0x6a, 0x3e,
  0xd7, 0x51, 0xa8, 0x3d, 0x02, 0x9c, 0xda, 0x3e, 0x9f, 0x9a, 0x03, 0x3e,
  0xd6, 0xd2, 0x83, 0x3e, 0xb9, 0x56, 0xe7, 0x3e, 0xd6, 0xf5, 0xe8, 0x3d,
  0xc2, 0xe6, 0xa7, 0x3e, 0xb7, 0x19, 0x9d, 0x3b, 0xcc, 0xdd, 0xc2, 0x3e,
  0xb2, 0x25, 0xdf, 0x3e, 0x00, 0x76, 0xbf, 0x3e, 0x9b, 0x75, 0xac, 0x3e,
  0x3e, 0x99, 0xd4, 0x3e, 0xf5, 0xc4, 0xdd, 0x3e, 0x9c, 0x62, 0xc5, 0x3e,
  0x0c, 0x8e, 0xbb, 0x3e, 0x5f, 0xa7, 0xe6, 0x3e, 0x22, 0x4b, 0xc4, 0x3e,
  0x54, 0x01, 0x69, 0x3e, 0x9a, 0xa4, 0xc6, 0x3e, 0xae, 0x89, 0x65, 0x3e,
  0x3d, 0x19, 0xd5, 0x3e, 0x19, 0x58, 0x6c, 0x3e, 0xb8, 0xad, 0x8b, 0x3e,
  0xa0, 0x0d, 0x12, 0x3e, 0x1b, 0x94, 0x62, 0xbe, 0xa2, 0xbc, 0x69, 0xbe,
  0x95, 0x01, 0x5c, 0xbe, 0x15, 0xb2, 0x12, 0x3e, 0x04, 0xf1, 0x59, 0x3b,
  0x92, 0xc2, 0x1c, 0x3e, 0x99, 0x02, 0xbb, 0x3d, 0xe8, 0xc0, 0x42, 0xbe,
  0x9c, 0x62, 0x03, 0x3e, 0x5d, 0x9f, 0xf6, 0xbd, 0xeb, 0x47, 0xf2, 0xbd,
  0xa0, 0xd9, 0xef, 0x3d, 0xc9, 0xb1, 0xf4, 0x3d, 0xde, 0x6a, 0xe1, 0x3d,
  0x7c, 0x9c, 0x1d, 0xbd, 0x3b, 0x31, 0xdd, 0xbd, 0x14, 0xf5, 0xa1, 0x3d,
  0x4b, 0x51, 0x55, 0xbe, 0x9c, 0xb2, 0x69, 0xbe, 0xf2, 0x4c, 0x3e, 0xbe,
  0xd5, 0x15, 0x5b, 0xbe, 0x5f, 0x19, 0xd6, 0x3d, 0x78, 0x1c, 0x5e, 0xbe,
  0x02, 0x42, 0x5d, 0xbd, 0x16, 0xa6, 0x92, 0x3d, 0x47, 0x7c, 0x06, 0xbe,
  0xe8, 0x4d, 0x0e, 0xbd, 0xa1, 0xd5, 0x0c, 0xbe, 0x3d, 0x63, 0x8c, 0xbd,
  0xbf, 0x7f, 0x9f, 0x3c, 0xbf, 0x66, 0x36, 0xbe, 0x5c, 0x94, 0x1d, 0x3d,
  0x11, 0x94, 0x9e, 0xbb, 0x95, 0x1a, 0x06, 0x3e, 0xab, 0x09, 0x51, 0xbd,
  0x66, 0x47, 0x09, 0xbd, 0xd4, 0xd9, 0xb0, 0x3d, 0x1c, 0x86, 0x3b, 0xbd,
  0x61, 0x7b, 0x04, 0x3e, 0x60, 0x60, 0x2c, 0x3e, 0x46, 0x7e, 0x87, 0xbd,
  0x09, 0x05, 0x2c, 0xbd, 0xfc, 0xe9, 0xde, 0xbd, 0xca, 0xf6, 0x10, 0x3e,
  0xca, 0x4f, 0xc1, 0x3d, 0xd6, 0x56, 0x45, 0xbe, 0x1d, 0x08, 0x80, 0xbe,
  0x6e, 0x91, 0xf3, 0x3c, 0x8c, 0xe7, 0x05, 0xbe, 0x1c, 0x5a, 0xf1, 0x3d,
  0x09, 0x4a, 0x01, 0xbd, 0x64, 0xae, 0xa3, 0xbd, 0x13, 0x07, 0x31, 0xbc,
  0xb4, 0x2c, 0xda, 0x3d, 0xf9, 0x86, 0x88, 0xbd, 0x3a, 0x89, 0xbb, 0x3b,
  0x10, 0x31, 0x5b, 0xbd, 0x77, 0x09, 0x02, 0x3b, 0xf9, 0x76, 0xff, 0x3d,
  0x72, 0x57, 0x86, 0x3d, 0x0c, 0x35, 0x4c, 0x3d, 0xf3, 0x9f, 0x31, 0xbd,
  0xe0, 0x7e, 0x56, 0x39, 0xfe, 0xb6, 0x9f, 0x3c, 0xdd, 0xaa, 0x97, 0x3e,
  0x66, 0x73, 0x40, 0x3e, 0x9a, 0x02, 0x81, 0x3d, 0x08, 0xbb, 0xd3, 0x3d,
  0x5e, 0xc8, 0x2c, 0x3e, 0x32, 0x27, 0x53, 0x3d, 0x60, 0x16, 0xc4, 0x3e,
  0x1b, 0xf2, 0x44, 0x3e, 0x01, 0x9d, 0x61, 0x3e, 0xa3, 0xe8, 0xe3, 0x3e,
  0xee, 0x24, 0xcd, 0x3e, 0x19, 0xe4, 0x99, 0x3e, 0x71, 0x17, 0xe9, 0x3e,
  0xee, 0xcd, 0x9a, 0x3e, 0xa1, 0x65, 0xcd, 0x3e, 0x34, 0x5c, 0x99, 0x3d,
  0x90, 0x06, 0xd1, 0x3d, 0x78, 0x1c, 0xe0, 0x3d, 0xef, 0x81, 0xb9, 0x3e,
  0xf7, 0x14, 0x9d, 0x3e, 0xb1, 0xbe, 0x0a, 0x3f, 0x7a, 0xbd, 0x9d, 0x3e,
  0xa6, 0x1a, 0x88, 0x3e, 0xa4, 0x20, 0x95, 0x3e, 0x93, 0xb3, 0x79, 0x3a,
  0x05, 0x2a, 0xaf, 0x3c, 0x18, 0x6a, 0xc7, 0x3e, 0xef, 0x4d, 0xf4, 0x3d,
  0xf4, 0x81, 0xd5, 0x3d, 0x61, 0xbe, 0x91, 0x3e, 0xc2, 0x8a, 0xce, 0x3e,
  0xc8, 0xe5, 0xe3, 0x3d, 0x21, 0x88, 0x0b, 0x3e, 0x84, 0xdc, 0x42, 0x3d,
  0x78, 0x95, 0xaa, 0x3e, 0xc0, 0xfd, 0x6c, 0x3e, 0x20, 0x07, 0x84, 0x3e,
  0x80, 0xac, 0x7e, 0x3d, 0x7d, 0x4f, 0xb0, 0x3e, 0xf7, 0x6d, 0xb1, 0x3e,
  0xaa, 0x0c, 0x0b, 0x3f, 0xd1, 0x12, 0xd1, 0x3e, 0xb7, 0x7f, 0xcf, 0x3e,
  0xbb, 0xb6, 0x26, 0x3e, 0xd6, 0xd7, 0x12, 0x3e, 0xd5, 0x1a, 0x98, 0x3e,
  0x20, 0xa5, 0x53, 0x3e, 0x8d, 0x7c, 0x89, 0x3e, 0x77, 0xc1, 0xdf, 0x3e,
  0x23, 0xa7, 0xc1, 0x3e, 0x6d, 0xca, 0x06, 0x3e, 0x96, 0x9c, 0xa5, 0x3d,
  0x93, 0xec, 0xa3, 0x3e, 0xbd, 0x54, 0xf7, 0x3e, 0x8e, 0xd0, 0xde, 0x3d,
  0x8a, 0x8a, 0x47, 0x3e, 0xb2, 0x9a, 0x29, 0x3e, 0xa2, 0xa6, 0x4b, 0x3e,
  0x06, 0xd0, 0x1d, 0xbd, 0x54, 0x3b, 0x80, 0x3e, 0xa2, 0x7d, 0x88, 0x3e,
  0x7d, 0x44, 0xb6, 0x3e, 0x73, 0x8a, 0xf3, 0x3c, 0xa5, 0xbe, 0x09, 0xbd,
  0xef, 0xe3, 0x9d, 0x3e, 0xf3, 0x5d, 0x73, 0x3e, 0xd2, 0x85, 0xba, 0x3e,
  0xc9, 0x34, 0xe8, 0x3e, 0x81, 0x6c, 0x92, 0x3e, 0x0a, 0x3c, 0xcc, 0x3e,
  0x6e, 0xb0, 0xd7, 0x3d, 0x6c, 0x0d, 0x7e, 0x3e, 0xf0, 0x70, 0xf7, 0x3d,
  0x36, 0x11, 0xbd, 0x3e, 0x04, 0x06, 0xff, 0x3d, 0xc9, 0x56, 0xb3, 0x3d,
  0x42, 0x44, 0xa1, 0x3d, 0x07, 0x84, 0x9c, 0x3d, 0xb8, 0x59, 0xbe, 0x3e,
  0x7c, 0x43, 0x80, 0xbb, 0x15, 0xa5, 0x24, 0x3d, 0x9b, 0xf3, 0x90, 0x3e,
  0x35, 0xcc, 0x16, 0x3e, 0x04, 0xe3, 0x8b, 0x3c, 0x6d, 0x19, 0x83, 0x3e,
  0x09, 0x92, 0x24, 0x3e, 0xf7, 0x5c, 0x8e, 0x3e, 0xdc, 0xbe, 0x4e, 0x3e,
  0xbe, 0xfb, 0x32, 0x3e, 0x0e, 0x53, 0x09, 0x3e, 0x8f, 0x1b, 0x1b, 0x3e,
  0x28, 0x9e, 0x91, 0x3e, 0x2c, 0x1e, 0x1c, 0x3e, 0xf7, 0x9b, 0xca, 0x3e,
  0xf7, 0xaf, 0xce, 0x3e, 0x63, 0xe2, 0x44, 0x3e, 0xd8, 0x17, 0x29, 0x3e,
  0x82, 0xcd, 0x83, 0x3e, 0xa6, 0xd0, 0xc9, 0x3d, 0x92, 0xcc, 0xa9, 0x3e,
  0xcb, 0x08, 0xec, 0x3e, 0xad, 0xcd, 0x71, 0x3e, 0x5b, 0xe8, 0xe5, 0x3e,
  0x2c, 0x3b, 0xbb, 0x3e, 0x8e, 0x27, 0x40, 0x3e, 0xa7, 0x6c, 0x4c, 0x3e,
  0x4d, 0xd9, 0x69, 0x3e, 0x88, 0xa3, 0x69, 0x3e, 0x80, 0xb0, 0xb3, 0x3d,
  0xe0, 0xa7, 0x4d, 0x3e, 0x30, 0x8f, 0x9e, 0x3e, 0x49, 0xfb, 0xcd, 0x3e,
  0xb1, 0x00, 0x86, 0x3e, 0x58, 0x9b, 0xfa, 0x3d, 0x3d, 0xb8, 0x57, 0x3e,
  0xc5, 0xf4, 0x39, 0x3e, 0x9c, 0xf2, 0x75, 0x3e, 0xb5, 0x97, 0x9c, 0x3e,
  0x2e, 0x83, 0x4b, 0x3e, 0x11, 0x10, 0x9b, 0x3e, 0x0a, 0x73, 0xe1, 0xbb,
  0x35, 0x2c, 0x89, 0x3e, 0xb8, 0xce, 0x8d, 0x3e, 0xb7, 0x1d, 0x03, 0x3f,
  0x88, 0xc5, 0xfc, 0x3d, 0x71, 0x5c, 0xc6, 0x3e, 0x5a, 0x8c, 0x76, 0x3e,
  0xe8, 0xeb, 0x22, 0x3e, 0x15, 0x79, 0x25, 0x3e, 0xc9, 0x92, 0xe6, 0x3d,
  0xfe, 0x26, 0xc0, 0xbc, 0x4a, 0x65, 0x31, 0xbd, 0x21, 0xbd, 0x46, 0x3c,
  0x5d, 0xc5, 0x01, 0xbd, 0x0a, 0x7f, 0xb5, 0x3c, 0x35, 0xfd, 0x3e, 0xbe,
  0xa7, 0xfa, 0x6c, 0x3c, 0x1f, 0xcf, 0x2b, 0x3e, 0x51, 0x2f, 0x17, 0xbe,
  0x6b, 0x47, 0x23, 0x3e, 0x91, 0x32, 0x32, 0x3e, 0x5f, 0x5b, 0x22, 0xbe,
  0x66, 0x07, 0xe7, 0xbd, 0x83, 0x0e, 0x51, 0xbe, 0x53, 0x66, 0x1d, 0x3d,
  0xa3, 0x67, 0x52, 0xbe, 0xbf, 0x9c, 0xbc, 0xbd, 0x17, 0x5c, 0x00, 0x3e,
  0x4f, 0x2b, 0xcc, 0xbd, 0xbe, 0x02, 0x71, 0xbc, 0x56, 0xdf, 0x2a, 0x3e,
  0xf2, 0x4e, 0x9e, 0x3d, 0x61, 0xad, 0xac, 0xbd, 0xca, 0x28, 0x6f, 0xbe,
  0x28, 0xcb, 0x4a, 0x3e, 0x7c, 0x68, 0x73, 0x3d, 0x0a, 0x98, 0x63, 0xbe,
  0x38, 0x9d, 0x0a, 0xbd, 0xd4, 0xcf, 0xb2, 0xbd, 0x72, 0x21, 0x06, 0xbe,
  0x5f, 0xfd, 0x5a, 0xbe, 0xd7, 0xc0, 0x0b, 0xbe, 0xfd, 0xd7, 0xa0, 0xbd,
  0xe1, 0x70, 0x4c, 0xbe, 0xe3, 0x09, 0xb8, 0xbd, 0xcf, 0xb9, 0x39, 0xbe,
  0x5b, 0xcf, 0xa4, 0x3b, 0xc3, 0x91, 0xd0, 0xbd, 0xf5, 0xb4, 0xf4, 0x3d,
  0xa3, 0x64, 0x9d, 0xbd, 0xed, 0xf1, 0x05, 0xbe, 0x22, 0xc5, 0x02, 0x3c,
  0xb1, 0xdd, 0xd5, 0xbd, 0x16, 0x93, 0xc8, 0xbd, 0x48, 0x80, 0x75, 0xbd,
  0x50, 0x6d, 0x2f, 0xbe, 0xd4, 0x7b, 0x32, 0xbe, 0x8f, 0x1f, 0x46, 0xbe,
  0x31, 0x86, 0x61, 0xbe, 0x6a, 0x74, 0x7b, 0xbd, 0xa3, 0x6f, 0xaf, 0x3c,
  0x66, 0x9b, 0x66, 0xbe, 0xbf, 0x5d, 0x19, 0x3e, 0xb2, 0x6b, 0x51, 0xbe,
  0xab, 0x48, 0xf2, 0x3d, 0xa9, 0x7e, 0x98, 0x3d, 0x21, 0x8a, 0x4b, 0x3c,
  0xd8, 0x69, 0xc3, 0x3d, 0x7c, 0xd4, 0xd9, 0x3d, 0x0f, 0x5c, 0x9e, 0x3b,
  0x25, 0x27, 0x06, 0x3e, 0x8d, 0x6c, 0xc7, 0x3e, 0x4e, 0x62, 0x94, 0x3e,
  0x34, 0x9b, 0x08, 0x3e, 0x9c, 0xa5, 0x9b, 0x3e, 0x23, 0x33, 0x61, 0x3d,
  0xa9, 0x0b, 0x99, 0x3e, 0x72, 0xb4, 0xaf, 0x3e, 0x94, 0xbb, 0x0a, 0x3e,
  0xf6, 0x44, 0x33, 0x3e, 0x88, 0x93, 0x4a, 0x3e, 0x8c, 0x8c, 0x6a, 0x3e,
  0xf5, 0x27, 0xd5, 0x3e, 0x0d, 0xc3, 0x21, 0x3e, 0x2b, 0xaa, 0xb4, 0x3e,
  0x72, 0x7d, 0x97, 0x3e, 0x54, 0x70, 0xd2, 0x3e, 0x5a, 0xb2, 0xe9, 0x3d,
  0x0d, 0xfd, 0xe5, 0x3e, 0x1d, 0xa4, 0xf6, 0x3e, 0x22, 0x6b, 0xc2, 0x3e,
  0xcf, 0x02, 0x61, 0x3e, 0x90, 0x90, 0xc6, 0x3e, 0x81, 0x26, 0x07, 0x3e,
  0x98, 0xbd, 0xbf, 0x3e, 0x97, 0x7e, 0x80, 0x3c, 0x24, 0xee, 0x19, 0x3e,
  0xc7, 0x73, 0x84, 0x3e, 0xd7, 0x9b, 0x89, 0x3e, 0x61, 0x02, 0x99, 0x3e,
  0x95, 0x13, 0xb6, 0x3e, 0x72, 0x3c, 0xe0, 0x3d, 0xc8, 0x66, 0xb2, 0x3e,
  0x98, 0x16, 0x08, 0x3d, 0x90, 0xb0, 0xba, 0x3d, 0xe7, 0x56, 0xaf, 0x3e,
  0xab, 0xce, 0x86, 0x3e, 0x66, 0x5d, 0xda, 0x3d, 0xa2, 0x98, 0x00, 0x3f,
  0x05, 0x5b, 0x1f, 0x3d, 0x2a, 0x4d, 0x10, 0x3e, 0xd8, 0x8a, 0xfd, 0x3e,
  0x97, 0x97, 0x90, 0x3e, 0xfd, 0x22, 0xcf, 0x3d, 0xb9, 0x4a, 0x9c, 0x3e,
  0xfc, 0x2c, 0x94, 0x3e, 0xc6, 0xb8, 0xa7, 0x3e, 0x2d, 0x1a, 0x89, 0x3e,
  0xab, 0xd3, 0x95, 0x3d, 0x8a, 0xa5, 0xf3, 0x3d, 0x24, 0x92, 0x83, 0x3e,
  0xe4, 0x11, 0xbf, 0x3e, 0x33, 0xd1, 0xc2, 0x3e, 0x2d, 0x34, 0xfa, 0x3d,
  0x44, 0xe9, 0x62, 0x3e, 0xf3, 0x6b, 0x69, 0x3e, 0xad, 0xfe, 0x85, 0x3e,
  0x82, 0xc6, 0xc2, 0x3e, 0x6a, 0xc4, 0x79, 0x3d, 0x30, 0xfb, 0x9f, 0x3e,
  0x7b, 0xd2, 0xbd, 0x3d, 0xb4, 0x96, 0x8d, 0x3e, 0x56, 0xc6, 0xa3, 0x3e,
  0x44, 0x1d, 0x63, 0x3e, 0xdf, 0xa7, 0xbc, 0x3e, 0x92, 0x1d, 0x4f, 0x3d,
  0x16, 0x5f, 0x8f, 0x3c, 0xb5, 0x4d, 0xaa, 0x3e, 0xd2, 0x3f, 0xab, 0x3e,
  0xc2, 0xa0, 0xbc, 0x3e, 0xf6, 0x7c, 0xa2, 0x3e, 0x1a, 0x38, 0xd4, 0x3e,
  0x7b, 0xf4, 0x27, 0x3d, 0x9e, 0xe4, 0x66, 0x3e, 0x36, 0x2c, 0xa4, 0x3e,
  0x37, 0xdd, 0xa3, 0x3e, 0x1e, 0x44, 0x7e, 0x3d, 0x60, 0x23, 0x36, 0x3e,
  0xdd, 0x22, 0x23, 0x3e, 0x25, 0x87, 0x7e, 0x3e, 0xf2, 0x90, 0x40, 0x3e,
  0xce, 0x7b, 0xc3, 0xba, 0x95, 0xe6, 0x34, 0x3e, 0xbe, 0x10, 0x83, 0x3e,
  0x7e, 0x64, 0x4f, 0x3e, 0xd9, 0xdb, 0x6e, 0x3e, 0xa0, 0xbc, 0xd8, 0x3e,
  0x88, 0x87, 0xc0, 0x3d, 0x7d, 0x7a, 0xc1, 0x3e, 0x4d, 0xb0, 0x84, 0x3e,
  0x4e, 0x7d, 0x88, 0x3e, 0x00, 0x03, 0x89, 0xbb, 0xc6, 0xe8, 0x47, 0x3e,
  0x45, 0x02, 0x80, 0x3d, 0xef, 0x6c, 0xbd, 0x3e, 0xb3, 0xbf, 0x8c, 0x3d,
  0x4b, 0x4c, 0x8b, 0x3e, 0x73, 0x89, 0xd9, 0x3e, 0xd7, 0xf3, 0x40, 0x3c,
  0xc0, 0x84, 0xcf, 0x3d, 0xa3, 0xf3, 0x85, 0x3e, 0x55, 0x2d, 0x86, 0x3e,
  0x1e, 0x83, 0xfe, 0x3e, 0x68, 0x7b, 0x80, 0x3e, 0x3f, 0xf6, 0xd7, 0x3e,
  0x35, 0xc7, 0x54, 0x3e, 0x9a, 0x67, 0xdb, 0x3e, 0x6b, 0x18, 0xf0, 0x3e,
  0x5e, 0xfc, 0xae, 0x3e, 0x9c, 0xad, 0xeb, 0x3e, 0xaf, 0x38, 0xcd, 0x3e,
  0xb0, 0xfc, 0xc7, 0x3e, 0x97, 0xc9, 0x74, 0x3e, 0x59, 0x46, 0x65, 0x3e,
  0x41, 0xc1, 0xb6, 0x3d, 0x1c, 0x76, 0xaf, 0x3d, 0x8f, 0xad, 0xef, 0x3c,
  0xea, 0x67, 0x95, 0x3e, 0x93, 0x69, 0x89, 0x3e, 0xd8, 0x79, 0xae, 0x3e,
  0xb7, 0xf4, 0x28, 0xbc, 0x2e, 0x4c, 0x00, 0x3f, 0x6f, 0x18, 0xe2, 0xba,
  0xe1, 0xfb, 0x9f, 0x3e, 0x89, 0xa6, 0x9c, 0x3e, 0x2c, 0xda, 0x64, 0x3e,
  0x7f, 0x48, 0x84, 0x3e, 0x45, 0xd5, 0x1b, 0x3e, 0xb6, 0x2e, 0x1c, 0x3e,
  0x0a, 0x86, 0xaa, 0xbd, 0xc4, 0x46, 0x57, 0xbd, 0xb1, 0x03, 0x1c, 0x3e,
  0x40, 0xba, 0x0c, 0x3e, 0x5b, 0x25, 0x6c, 0xbe, 0x73, 0xaa, 0xf2, 0x3c,
  0xd8, 0x9a, 0xd0, 0xbc, 0x9a, 0xb8, 0xf0, 0x3c, 0xf2, 0xb5, 0xbb, 0xbd,
  0x07, 0xe1, 0xde, 0x3d, 0xbb, 0xce, 0x10, 0xbe, 0x15, 0x00, 0x01, 0x3e,
  0x8a, 0xa3, 0x1d, 0xbe, 0x28, 0xd2, 0x87, 0x3c, 0x93, 0x58, 0x8a, 0x3d,
  0xfb, 0x9c, 0x0b, 0xbe, 0xec, 0x44, 0xf9, 0xbd, 0xcd, 0x66, 0x05, 0x3c,
  0x98, 0xce, 0xea, 0xbd, 0x7f, 0x26, 0x3d, 0x3e, 0xe1, 0x6a, 0x14, 0xbe,
  0x37, 0xdb, 0x2e, 0xbd, 0x8c, 0x69, 0x1a, 0xbd, 0x38, 0x1c, 0xac, 0xbc,
  0x54, 0xdb, 0xd7, 0xbc, 0x3c, 0x93, 0x22, 0x3e, 0xd1, 0x2d, 0xaa, 0x3d,
  0xdf, 0xc7, 0x93, 0x3d, 0x67, 0x95, 0x0b, 0x3d, 0xee, 0xa0, 0x51, 0xbe,
  0x4e, 0xc7, 0xba, 0xbd, 0x46, 0x8b, 0x0b, 0x3e, 0xa8, 0x0b, 0xa8, 0xbd,
  0xc8, 0x0b, 0x19, 0x3e, 0xdf, 0x8b, 0x07, 0x3d, 0xaa, 0xa0, 0xb6, 0x3d,
  0xd5, 0x1e, 0x55, 0xbe, 0xe9, 0x39, 0x98, 0xbd, 0x88, 0xa1, 0x27, 0x3e,
  0xfa, 0xc1, 0x2b, 0xbd, 0xd9, 0xf5, 0x83, 0x3d, 0x53, 0xca, 0xea, 0xbd,
  0xf5, 0xbb, 0x0e, 0xbe, 0x1b, 0x3c, 0xcd, 0x3d, 0x00, 0x96, 0xf8, 0xbc,
  0x80, 0x76, 0x04, 0x3e, 0xf6, 0xdc, 0x64, 0x3c, 0x35, 0x41, 0x29, 0xbe,
  0x50, 0xff, 0xb0, 0xbd, 0x5a, 0x81, 0x8d, 0x3d, 0xa1, 0xef, 0x28, 0xbd,
  0x0a, 0x99, 0x4f, 0xbe, 0x8b, 0xdc, 0xa5, 0xbd, 0xff, 0xe0, 0x0c, 0x3e,
  0x97, 0x29, 0x24, 0x3e, 0x80, 0x1e, 0xa2, 0xb7, 0xd6, 0x9e, 0x92, 0x3a,
  0xad, 0x75, 0x14, 0xbc, 0x6c, 0x42, 0x0b, 0xbe, 0xf0, 0x24, 0x3c, 0xbe,
  0x9a, 0x06, 0x53, 0xbe, 0xb4, 0x79, 0x98, 0xbd, 0x14, 0x4b, 0x76, 0xbc,
  0x7b, 0x27, 0x49, 0xbe, 0xc2, 0x44, 0xc7, 0x3d, 0xf9, 0x2f, 0x75, 0x3d,
  0x75, 0xc3, 0xe4, 0x3c, 0x9e, 0x11, 0x20, 0x3d, 0xde, 0x7a, 0xc7, 0x3e,
  0xba, 0x87, 0xe3, 0x3d, 0x59, 0x94, 0x09, 0x3e, 0xfa, 0x1b, 0x3c, 0x3d,
  0xd3, 0x50, 0x1e, 0x3e, 0x98, 0x85, 0x30, 0x3e, 0x62, 0x51, 0x03, 0x3e,
  0xd7, 0x16, 0x28, 0x3e, 0xe3, 0xea, 0xa9, 0x3e, 0xb4, 0xd2, 0xe0, 0x3e,
  0x1d, 0x1f, 0x8e, 0x3e, 0xeb, 0x1f, 0x85, 0x3e, 0xfe, 0xf4, 0xa7, 0xbc,
  0x58, 0xc3, 0xc7, 0x3e, 0xa8, 0x94, 0xb3, 0x3e, 0xba, 0xfc, 0x95, 0x3e,
  0x44, 0x4c, 0x28, 0xbc, 0xb9, 0x52, 0x00, 0x3f, 0xc4, 0x1e, 0x9a, 0x3e,
  0x0d, 0x15, 0x0d, 0x3e, 0x38, 0x86, 0x85, 0x3e, 0xfc, 0x64, 0x82, 0x3d,
  0x41, 0x62, 0x85, 0x3e, 0xdc, 0x6e, 0x00, 0x3f, 0x1e, 0x27, 0xaf, 0x3e,
  0x8a, 0x4f, 0x51, 0x3c, 0xc0, 0x11, 0x5d, 0x3e, 0x42, 0x88, 0x8a, 0x3d,
  0x90, 0x45, 0xb2, 0x3d, 0x2a, 0x31, 0x91, 0x3e, 0x36, 0x3d, 0x60, 0x3e,
  0x94, 0xde, 0xf2, 0x3d, 0x99, 0xc8, 0x8a, 0x3d, 0x8c, 0x90, 0xae, 0x3e,
  0xc4, 0xec, 0xaa, 0x3e, 0xfd, 0x14, 0xf3, 0x3e, 0x61, 0x3a, 0x98, 0x3e,
  0x9f, 0x69, 0xfe, 0x3d, 0xe7, 0xb6, 0x7d, 0x3e, 0x92, 0x7f, 0x58, 0x3e,
  0x13, 0x49, 0xad, 0x3d, 0xd2, 0x6d, 0x2d, 0x3c, 0x03, 0xba, 0x4d, 0x3e,
  0xc1, 0x99, 0x10, 0x3e, 0xb8, 0xcc, 0x68, 0x3e, 0x16, 0x6e, 0x21, 0x3e,
  0xa3, 0x5d, 0x97, 0x3d, 0x93, 0x62, 0xb2, 0x3e, 0xd4, 0xd0, 0x44, 0x3e,
  0x18, 0xa6, 0xae, 0xbc, 0x00, 0xb4, 0xf4, 0x3e, 0xc3, 0xd1, 0x37, 0xbd,
  0x36, 0x60, 0xef, 0x3e, 0x2f, 0x1e, 0x9c, 0x3d, 0x0b, 0xc7, 0x38, 0x3e,
  0x12, 0xdd, 0x85, 0x3e, 0xe2, 0x2f, 0x03, 0x3f, 0x2e, 0xf8, 0xce, 0x3e,
  0x97, 0x44, 0xd9, 0x3e, 0x33, 0x05, 0x38, 0xbd, 0x6c, 0xa6, 0xb0, 0xb9,
  0x27, 0x56, 0xd2, 0xbd, 0x20, 0x2c, 0xde, 0xbc, 0xe6, 0xac, 0x24, 0x3d,
  0xab, 0x10, 0x19, 0xbe, 0x52, 0x0b, 0xc2, 0x3d, 0x54, 0xbf, 0x3c, 0xbb,
  0xb4, 0x79, 0x9c, 0x3d, 0x4c, 0xfb, 0x8f, 0xbe, 0xa7, 0x27, 0xe8, 0xbc,
  0xb7, 0x95, 0x08, 0xbe, 0xdc, 0x4f, 0x4b, 0xbe, 0x05, 0x9f, 0x68, 0xbd,
  0x19, 0xbd, 0x25, 0x3e, 0x82, 0xb3, 0x3c, 0xbe, 0x2b, 0xec, 0x69, 0xbc,
  0x83, 0x9f, 0x71, 0x3d, 0x7b, 0x5c, 0xe2, 0x3d, 0x50, 0xfb, 0x1e, 0x3e,
  0x8f, 0x73, 0xbc, 0x3d, 0x8b, 0x1e, 0xfe, 0x3d, 0x5d, 0x34, 0xdf, 0xbd,
  0xb8, 0x31, 0x82, 0x39, 0x9b, 0xc3, 0xaa, 0x3d, 0x7a, 0x4e, 0x09, 0x3d,
  0xfe, 0xc1, 0x95, 0x3c, 0x37, 0x35, 0x08, 0x3e, 0x01, 0xb8, 0x14, 0x3e,
  0x01, 0xdf, 0x06, 0xbe, 0x65, 0x27, 0x00, 0xbc, 0x5f, 0x9f, 0xdc, 0x3d,
  0xea, 0x3b, 0xa2, 0x3d, 0x95, 0x28, 0x36, 0xbe, 0x6e, 0x92, 0xc5, 0xbd,
  0x4e, 0x07, 0x01, 0xbe, 0x3d, 0xcf, 0x70, 0xbe, 0x37, 0xf7, 0x2a, 0xbd,
  0xe4, 0x38, 0xc5, 0xbd, 0x0b, 0xd0, 0x87, 0xbe, 0xd6, 0x6d, 0xcd, 0xbd,
  0x35, 0x94, 0x39, 0xbe, 0x4e, 0x5b, 0x42, 0xbd, 0x0a, 0x41, 0x0f, 0x3e,
  0xe4, 0x97, 0xe6, 0xbb, 0x10, 0xbc, 0xcc, 0xbc, 0xe0, 0xdd, 0xfb, 0x3d,
  0x94, 0x41, 0x21, 0xbe, 0xf3, 0x89, 0x1f, 0xbc, 0x6c, 0xfc, 0x7f, 0x3d,
  0x16, 0xf6, 0x35, 0xbe, 0xfe, 0x03, 0x19, 0x3e, 0xfe, 0x64, 0x25, 0x3d,
  0x16, 0x2b, 0xa6, 0x3d, 0x1c, 0x32, 0x82, 0xbe, 0xef, 0x77, 0x18, 0x3e,
  0xe2, 0xbd, 0xff, 0xbc, 0x5a, 0x90, 0x05, 0x3e, 0x99, 0x05, 0x9e, 0xbd,
  0x1a, 0x0b, 0x08, 0x3e, 0x85, 0xc3, 0x24, 0xbe, 0xc7, 0xa8, 0x9f, 0x3d,
  0x4c, 0x7b, 0x98, 0x3d, 0x14, 0xb6, 0xd8, 0x3c, 0x79, 0x42, 0x05, 0xbe,
  0x40, 0xcc, 0x26, 0x3d, 0x42, 0x06, 0x4f, 0x3e, 0xf7, 0x2c, 0xbc, 0x3e,
  0x04, 0x7a, 0x9b, 0x3e, 0x5f, 0x59, 0x98, 0x3e, 0x09, 0x13, 0xb5, 0x3e,
  0x05, 0xb4, 0x88, 0x3e, 0x1c, 0x37, 0x7f, 0x3d, 0x44, 0xfb, 0x60, 0x3c,
  0x85, 0xd3, 0x7f, 0x3e, 0xf2, 0x3e, 0xbc, 0x3e, 0x65, 0xc4, 0x69, 0x3e,
  0x3e, 0x03, 0xd2, 0x3e, 0xd5, 0x7a, 0x2c, 0x3e, 0x01, 0x86, 0x4d, 0x3e,
  0xbe, 0xfc, 0x1d, 0x3e, 0x24, 0x68, 0x82, 0x3e, 0x46, 0x32, 0xda, 0x3e,
  0x99, 0x56, 0x89, 0x3e, 0x3a, 0xd0, 0xc0, 0x3e, 0x6a, 0x3e, 0x1b, 0x3e,
  0x7e, 0xbd, 0xd6, 0x3e, 0x82, 0xe4, 0x05, 0xbc, 0x7a, 0xe3, 0x92, 0x3e,
  0xb9, 0x14, 0x84, 0x3e, 0x30, 0xa0, 0x16, 0xbd, 0x7a, 0x68, 0xa5, 0x3e,
  0xa4, 0x4c, 0x01, 0x3f, 0xfe, 0x93, 0xdd, 0x3d, 0xa3, 0xe2, 0x35, 0x3e,
  0x60, 0x19, 0xae, 0x3e, 0x9d, 0x91, 0xe6, 0x3e, 0x63, 0xe7, 0x45, 0x3e,
  0x90, 0x4e, 0xa2, 0x3e, 0x34, 0x83, 0x7a, 0x3e, 0xf8, 0xe0, 0xd9, 0x3e,
  0x80, 0x7e, 0x30, 0x3e, 0xc3, 0xd0, 0xd7, 0x3e, 0x2d, 0x43, 0x1d, 0x3e,
  0x73, 0x24, 0xee, 0x3e, 0x59, 0xdb, 0x4f, 0x3e, 0x1a, 0x49, 0xd8, 0x3e,
  0x3b, 0xe9, 0x52, 0x3e, 0xbe, 0x61, 0x5d, 0x3e, 0xb2, 0xa7, 0xc0, 0x3e,
  0xe0, 0xf6, 0xc6, 0x3e, 0xf3, 0x9a, 0x22, 0x3e, 0x36, 0xda, 0x1d, 0x3c,
  0x73, 0xfa, 0x44, 0x3e, 0x04, 0x36, 0x73, 0x3e, 0x1b, 0x4b, 0x53, 0x3e,
  0x2a, 0x38, 0x8a, 0x3e, 0xdd, 0x29, 0xc1, 0x3e, 0xee, 0x9f, 0xa0, 0x3e,
  0x5d, 0xac, 0x98, 0x3e, 0x08, 0xf3, 0x92, 0x3d, 0x72, 0x9d, 0xbe, 0x3e,
  0xa6, 0x65, 0xb7, 0x3e, 0x9c, 0x4f, 0x19, 0x3e, 0xfb, 0x1b, 0xb8, 0x3e,
  0x15, 0xf0, 0x06, 0x3e, 0xee, 0x50, 0x12, 0x3e, 0xb9, 0x17, 0xed, 0x3e,
  0xbe, 0xd6, 0x76, 0x3e, 0x1f, 0x76, 0x73, 0x3e, 0xe4, 0xb8, 0x83, 0x3e,
  0xd4, 0x0b, 0x1a, 0x3d, 0xd7, 0x97, 0xb3, 0x3d, 0x06, 0xd6, 0x13, 0x3e,
  0x54, 0xe1, 0x53, 0x3d, 0xc1, 0xbf, 0xb6, 0x3d, 0xa5, 0xd1, 0xb7, 0x3d,
  0x58, 0x2f, 0x73, 0x3e, 0x35, 0x82, 0xf0, 0x3d, 0x19, 0x89, 0x56, 0x3e,
  0xf4, 0x4a, 0xa6, 0x3e, 0x15, 0x3a, 0x8d, 0x3e, 0x14, 0x43, 0xe4, 0x3e,
  0x1f, 0xb9, 0xbe, 0x3e, 0x1a, 0xed, 0x28, 0x3e, 0x8d, 0x69, 0x4c, 0x3e,
  0xc6, 0xbc, 0x42, 0x3d, 0xd5, 0xf1, 0x0b, 0x3e, 0x5b, 0x46, 0x80, 0x3e,
  0xbe, 0x88, 0x01, 0x3e, 0xba, 0x2f, 0x76, 0x3e, 0xc6, 0x5c, 0x06, 0x3e,
  0xf9, 0x53, 0xd3, 0x3e, 0x6a, 0x89, 0x50, 0x3d, 0xc8, 0xe2, 0x19, 0x3e,
  0xa6, 0xfd, 0x75, 0x3e, 0x78, 0x43, 0xf1, 0x3e, 0x04, 0x53, 0xc2, 0x3e,
  0x5a, 0x40, 0x83, 0x3e, 0x3e, 0xdd, 0xe8, 0x3d, 0xef, 0x20, 0xd0, 0x3e,
  0x90, 0xf7, 0x06, 0x3e, 0x65, 0xca, 0x49, 0x3d, 0x1e, 0x8b, 0xc6, 0xbb,
  0xf8, 0x97, 0xe4, 0x3e, 0x79, 0xbb, 0x09, 0xbd, 0xac, 0x33, 0x49, 0x3e,
  0x26, 0x6b, 0x3a, 0xbc, 0x10, 0x28, 0x0a, 0x3f, 0x44, 0x89, 0xba, 0x3d,
  0x7f, 0x8c, 0xa8, 0x3e, 0x01, 0xea, 0x0e, 0x3e, 0xf8, 0xb3, 0x09, 0x3e,
  0xe4, 0x9f, 0xbe, 0x3e, 0xf2, 0x41, 0xd8, 0x3e, 0xdb, 0x5c, 0xb8, 0x3e,
  0x21, 0x6b, 0x02, 0x3e, 0x4a, 0x1c, 0x0f, 0x3e, 0x98, 0xe9, 0xa7, 0x3e,
  0x83, 0x8d, 0xbd, 0x3e, 0xdd, 0x83, 0xb6, 0x3e, 0x9e, 0x4b, 0x46, 0x3e,
  0x4c, 0x7d, 0xd6, 0x3e, 0xf6, 0xb6, 0x8f, 0x3e, 0x1d, 0x8c, 0xda, 0x3d,
  0x1f, 0x5e, 0x3b, 0x3e, 0x68, 0xa6, 0x23, 0x3e, 0xd0, 0x12, 0xd7, 0x3e,
  0x51, 0xef, 0x89, 0x3e, 0xeb, 0x29, 0x25, 0x3e, 0xf5, 0xfb, 0xbb, 0x3e,
  0xa3, 0xf2, 0x93, 0x3e, 0xb3, 0x72, 0x2e, 0x3e, 0x2b, 0x78, 0x87, 0x3e,
  0x3e, 0xd7, 0x94, 0x3e, 0x08, 0x67, 0x9a, 0x3e, 0x12, 0xae, 0xa2, 0x3e,
  0x92, 0x8a, 0xe2, 0x3d, 0xd3, 0x14, 0x2b, 0x3e, 0x7b, 0x8a, 0xeb, 0x3d,
  0x73, 0xa3, 0xa0, 0x3d, 0x08, 0x10, 0xc3, 0x3c, 0xea, 0x9f, 0xc9, 0x3e,
  0xd9, 0xa1, 0x72, 0x3e, 0xc5, 0x2c, 0x8a, 0x3e, 0xae, 0x28, 0x4d, 0x3c,
  0xd4, 0x6e, 0xcd, 0x3e, 0xe9, 0xb2, 0x80, 0x3e, 0x11, 0xf6, 0x60, 0x3e,
  0xa8, 0x2d, 0xc9, 0xbc, 0x9b, 0xdb, 0xbf, 0x3e, 0xb7, 0x80, 0xd9, 0x3e,
  0x06, 0xbf, 0xd3, 0x3e, 0x44, 0xd6, 0x92, 0x3e, 0x98, 0xf8, 0xa8, 0x3e,
  0x48, 0x6d, 0x9f, 0x3d, 0x4c, 0x1f, 0x9b, 0x3e, 0xf4, 0x24, 0x48, 0x3c,
  0x60, 0x72, 0xbe, 0xbd, 0xbe, 0x3e, 0xa0, 0x3e, 0x37, 0x35, 0xd2, 0x3e,
  0x84, 0xa5, 0xb5, 0x3d, 0xad, 0x6f, 0x9a, 0x3e, 0xf4, 0x53, 0xab, 0x3d,
  0x3a, 0xce, 0x7b, 0x3e, 0x5e, 0x1d, 0x2a, 0x3e, 0x98, 0x89, 0x0d, 0x3e,
  0xdd, 0x14, 0xb0, 0x3e, 0x11, 0xa7, 0x22, 0x3e, 0x44, 0xc4, 0x4e, 0x3e,
  0xd2, 0x67, 0xa1, 0x3e, 0x19, 0xbd, 0x9c, 0x3d, 0x76, 0x55, 0x7b, 0x3e,
  0xfa, 0x36, 0x94, 0x3e, 0x80, 0x7e, 0x32, 0x3e, 0xc3, 0xd5, 0x6b, 0x3e,
  0x21, 0x19, 0x5e, 0x3e, 0x74, 0xf3, 0xd6, 0x3e, 0x39, 0xbb, 0x60, 0x3e,
  0x14, 0xe9, 0xa6, 0x3e, 0x26, 0x4c, 0x25, 0x3e, 0x20, 0x98, 0xc9, 0x3e,
  0x19, 0xd6, 0x99, 0x3c, 0x33, 0xc6, 0xd7, 0x3e, 0xa0, 0xb4, 0x21, 0x3e,
  0x69, 0xdd, 0x44, 0x3e, 0x53, 0x11, 0xf2, 0x3c, 0x21, 0x5e, 0xe6, 0x3e,
  0x24, 0xb0, 0x27, 0x3e, 0xa5, 0x9f, 0x93, 0x3e, 0xd2, 0x51, 0x1b, 0x3c,
  0x5a, 0x3b, 0xa3, 0x3e, 0x6a, 0xb8, 0xb4, 0x3d, 0xb2, 0xb9, 0xd6, 0x3e,
  0x42, 0x74, 0xd9, 0x3e, 0x4c, 0x8b, 0xac, 0x3e, 0x49, 0x37, 0x63, 0x3c,
  0xe4, 0x82, 0x06, 0xbe, 0x08, 0x68, 0x37, 0xbe, 0x42, 0x55, 0x49, 0xbe,
  0xc7, 0xf9, 0x17, 0xbd, 0x5c, 0xf2, 0x43, 0x3e, 0x20, 0xf6, 0x0a, 0x3d,
  0xc5, 0xfc, 0x16, 0x3e, 0x26, 0x79, 0x43, 0xbe, 0x48, 0xc7, 0xfd, 0xbc,
  0x9c, 0xfc, 0x57, 0xbe, 0x5b, 0xfb, 0x62, 0xbe, 0x3d, 0x1e, 0xbb, 0x3d,
  0xa4, 0xc6, 0x14, 0xbd, 0xf6, 0xe8, 0x46, 0x3d, 0xfb, 0x17, 0x05, 0xbe,
  0x0e, 0x88, 0xee, 0xbb, 0x7c, 0x1c, 0x50, 0xbe, 0x3a, 0xdd, 0x46, 0x3e,
  0xea, 0x5a, 0x89, 0xbe, 0x4f, 0x86, 0x4d, 0xbe, 0x6b, 0x7c, 0xb6, 0x3c,
  0x2c, 0x50, 0xcb, 0x3c, 0x50, 0x63, 0x73, 0xbe, 0x3c, 0x96, 0x5c, 0x3c,
  0x7d, 0xf4, 0x44, 0xbe, 0xd1, 0xd0, 0x6c, 0x3e, 0x1c, 0x9a, 0x7e, 0xbe,
  0xca, 0x42, 0x2c, 0xbe, 0x96, 0x16, 0xfd, 0xbd, 0xb8, 0xe8, 0xe0, 0xbc,
  0xfb, 0xdb, 0xe6, 0xbd, 0x98, 0x1c, 0xd2, 0xbd, 0xe3, 0xff, 0x66, 0x3e,
  0x43, 0x3a, 0x19, 0xbe, 0xd7, 0x0b, 0x70, 0xbe, 0x5a, 0x91, 0x97, 0xbd,
  0x15, 0xca, 0x10, 0x3e, 0x4c, 0xd1, 0xba, 0x3d, 0x56, 0x38, 0x53, 0x3e,
  0x0c, 0x55, 0x38, 0x3d, 0x37, 0x30, 0x60, 0x3e, 0xcb, 0x04, 0x72, 0xbe,
  0x56, 0x3e, 0x44, 0xbd, 0x9f, 0x2e, 0x54, 0xbd, 0x92, 0x42, 0x10, 0xbc,
  0xf8, 0x9a, 0xa4, 0xbc, 0x0c, 0x57, 0x87, 0x3b, 0x5e, 0xa1, 0xa1, 0xbb,
  0xcd, 0xfb, 0x96, 0xbd, 0xf9, 0x3d, 0x46, 0x3e, 0xf9, 0xfe, 0x04, 0x3e,
  0xfc, 0x5d, 0x67, 0x3d, 0x7b, 0xcd, 0x7f, 0x3d, 0xc0, 0x9d, 0xaf, 0x3d,
  0xd1, 0x73, 0x11, 0xbe, 0xe6, 0x87, 0xce, 0xbd, 0x04, 0xdf, 0x4a, 0x3e,
  0xe1, 0x5b, 0xd4, 0xbd, 0xf8, 0x27, 0x3d, 0xbe, 0xa4, 0x9d, 0xcd, 0x3d,
  0x4d, 0xaf, 0x06, 0x3e, 0xe2, 0xc5, 0xa2, 0x3d, 0xc0, 0x89, 0x50, 0x3e,
  0x74, 0x7a, 0x9d, 0x3d, 0x92, 0x57, 0x83, 0x3d, 0xaa, 0xeb, 0x11, 0x3e,
  0xc8, 0x86, 0x9d, 0x3c, 0xee, 0xc2, 0xab, 0x3c, 0x1e, 0x65, 0xdd, 0xbd,
  0x6b, 0xff, 0xdb, 0x3c, 0x7e, 0xc8, 0x13, 0xbe, 0x82, 0x16, 0x94, 0x3d,
  0xa1, 0xe9, 0x35, 0xbe, 0x54, 0x22, 0x2f, 0xbe, 0xa9, 0xc8, 0x51, 0xbe,
  0xdf, 0xfd, 0x93, 0xbe, 0xdf, 0x68, 0x46, 0xbe, 0xf6, 0x0f, 0x5d, 0xbe,
  0x3a, 0x67, 0x86, 0x3a, 0x45, 0x49, 0x88, 0x3d, 0x1e, 0xd0, 0x45, 0xbe,
  0x4c, 0xc7, 0x34, 0x3e, 0xd5, 0xf8, 0x54, 0xbe, 0x55, 0x69, 0x41, 0xbe,
  0xe5, 0x4b, 0xfc, 0x3d, 0x5a, 0x3f, 0x2a, 0xbe, 0xb5, 0xc4, 0xcf, 0xbd,
  0x58, 0x02, 0x07, 0x3e, 0xd7, 0xd1, 0xd0, 0xbe, 0xa9, 0x15, 0x8b, 0x3e,
  0x42, 0x95, 0x9a, 0xbd, 0x20, 0x79, 0xa3, 0xbd, 0x67, 0x73, 0x8a, 0xbd,
  0x72, 0xfb, 0x2b, 0xbe, 0xe5, 0xb9, 0xa3, 0x3e, 0xd5, 0xe0, 0x76, 0x3e,
  0xf5, 0x06, 0x90, 0x3d, 0xbd, 0xce, 0x37, 0xbe, 0x35, 0x49, 0x8e, 0xbd,
  0x91, 0x39, 0x7d, 0xbe, 0x58, 0xb6, 0xb8, 0x3e, 0x12, 0x6b, 0x35, 0x3e,
  0x2d, 0x13, 0x50, 0x3e, 0xbd, 0x83, 0x58, 0x3e, 0xc5, 0x6f, 0xac, 0x3c,
  0x5d, 0x84, 0xa5, 0xbe, 0x99, 0x4f, 0xa7, 0xbe, 0x7f, 0xfa, 0x34, 0x3c,
  0xeb, 0xa2, 0x33, 0xbe, 0x8d, 0x55, 0xac, 0x3d, 0x65, 0x71, 0x71, 0xbc,
  0x56, 0x23, 0x5f, 0xbd, 0x7b, 0xb1, 0xb0, 0xbd, 0x3d, 0x33, 0xb3, 0x3e,
  0x38, 0x46, 0xf7, 0xbd, 0xc7, 0x25, 0xb6, 0xbe, 0xac, 0x04, 0x6e, 0xbd,
  0xd3, 0x2d, 0x43, 0x3e, 0x9e, 0xf1, 0x06, 0xbe, 0xb8, 0x11, 0x3a, 0xbe,
  0xb2, 0x49, 0x55, 0x3d, 0x19, 0x7e, 0x76, 0xbe, 0x7d, 0x62, 0x51, 0x3d,
  0xd0, 0x60, 0x3a, 0x3e, 0x70, 0x36, 0x08, 0x3d, 0xdc, 0xe3, 0x33, 0xbe,
  0x7a, 0x20, 0xd0, 0x3d, 0xd3, 0x2d, 0x23, 0xbe, 0x8e, 0xd3, 0x96, 0x3e,
  0x37, 0xe9, 0xf5, 0x3c, 0x02, 0x8e, 0xa5, 0x3e, 0x6c, 0x12, 0x77, 0x3e,
  0xc2, 0x8d, 0x97, 0x3e, 0x6b, 0x43, 0x03, 0x3e, 0xb0, 0xa8, 0x9f, 0x3e,
  0x6b, 0xf0, 0xd8, 0x3e, 0xb9, 0x43, 0x93, 0x3e, 0x2c, 0x78, 0x77, 0x3e,
  0x9f, 0xe4, 0x03, 0x3e, 0x72, 0xf3, 0x32, 0x3e, 0x5e, 0xbb, 0x3b, 0x3e,
  0xe4, 0xb1, 0xfd, 0x3e, 0x01, 0x26, 0xb3, 0x3e, 0xcf, 0xf4, 0x6f, 0x3e,
  0x1f, 0x8b, 0x0f, 0xbd, 0x6c, 0x38, 0x5c, 0x3e, 0x2c, 0xf7, 0x69, 0x3e,
  0x08, 0x23, 0x0b, 0x3f, 0x8a, 0x05, 0x90, 0x3e, 0x9f, 0x93, 0xf7, 0x3e,
  0x22, 0xe1, 0x48, 0x3e, 0x50, 0x1f, 0x7a, 0x3d, 0xdf, 0x56, 0x91, 0x3d,
  0x11, 0xcc, 0x5e, 0xbc, 0xac, 0x26, 0x71, 0x3e, 0x39, 0xf0, 0x67, 0x3e,
  0x80, 0x5f, 0x4a, 0x3d, 0x98, 0x70, 0x7c, 0x3d, 0xcc, 0x4f, 0x0c, 0x3e,
  0xc3, 0x75, 0xb7, 0x3e, 0xd7, 0x38, 0x48, 0x3d, 0xdc, 0x14, 0xdb, 0x3e,
  0xa4, 0x98, 0x88, 0x3e, 0xd4, 0x3d, 0xa5, 0x3d, 0xa9, 0x05, 0x32, 0x3c,
  0x20, 0xb0, 0x91, 0x3e, 0xd9, 0x81, 0x85, 0x3c, 0x9e, 0x75, 0xf3, 0x3e,
  0x64, 0x74, 0xe6, 0x3e, 0xe1, 0x1b, 0x0c, 0x3f, 0xe2, 0x92, 0x04, 0x3f,
  0xef, 0x4e, 0xab, 0x3e, 0x64, 0x59, 0x2a, 0x3e, 0x15, 0x15, 0xab, 0x3d,
  0x4a, 0x29, 0xb0, 0x3e, 0x3e, 0x70, 0x3b, 0x3e, 0x72, 0xe0, 0x40, 0x3e,
  0x0e, 0x7e, 0xa7, 0x3e, 0x4e, 0x31, 0xc4, 0x3d, 0x10, 0x79, 0x85, 0x3e,
  0xce, 0x3e, 0x9f, 0x3e, 0x3a, 0x6f, 0xa4, 0x3e, 0x85, 0xa1, 0x31, 0x3e,
  0xf3, 0xf1, 0x37, 0x3e, 0xde, 0xbd, 0x90, 0x3e, 0x51, 0x3f, 0xa6, 0x3e,
  0x02, 0x80, 0x85, 0x3e, 0x01, 0x61, 0x99, 0x3e, 0x26, 0xda, 0x55, 0x3e,
  0x2c, 0x49, 0x3a, 0x3e, 0x02, 0xb8, 0xf9, 0x3e, 0xe1, 0x32, 0x5a, 0x3e,
  0x59, 0x4a, 0x02, 0x3d, 0x36, 0x8e, 0xe0, 0xbd, 0x78, 0x12, 0x1a, 0xbe,
  0x56, 0x3d, 0x1b, 0xbe, 0xbc, 0x6f, 0x1e, 0x3e, 0x54, 0xb9, 0x32, 0xbd,
  0xb5, 0x88, 0xdb, 0xbd, 0x05, 0xef, 0xd0, 0x3d, 0x8c, 0xca, 0x71, 0xbd,
  0xd2, 0xff, 0xa0, 0x3d, 0xa6, 0x99, 0x1f, 0xbe, 0x04, 0x9e, 0x3a, 0xbe,
  0xd1, 0xa9, 0x38, 0x3e, 0x5c, 0x92, 0x57, 0xbe, 0x33, 0x29, 0xdf, 0x3d,
  0x94, 0x57, 0x0c, 0xbe, 0x0f, 0xfa, 0xd3, 0x3d, 0x9e, 0xc8, 0xe8, 0xbd,
  0x79, 0x28, 0x86, 0x3d, 0xb2, 0xe5, 0x42, 0x3e, 0x61, 0xf4, 0x23, 0xbe,
  0xe1, 0xf5, 0x40, 0xbe, 0xef, 0x20, 0xbb, 0xbd, 0x5b, 0x00, 0x0a, 0xbe,
  0x5e, 0xa8, 0x18, 0x3e, 0x8b, 0xdb, 0x05, 0xbe, 0xde, 0x48, 0x1b, 0x3e,
  0xde, 0xc0, 0xd3, 0x3d, 0xbf, 0x99, 0x3f, 0xbe, 0x2c, 0x92, 0xe2, 0xbb,
  0xd7, 0x26, 0x8f, 0xbd, 0xe8, 0xe2, 0x3f, 0xbe, 0x3a, 0x23, 0x6a, 0xbd,
  0xbc, 0x39, 0x2f, 0xbe, 0x3e, 0x0f, 0x22, 0xbd, 0xfc, 0x45, 0x72, 0xbd,
  0x5f, 0x16, 0x23, 0x3e, 0xf4, 0x9a, 0x97, 0xbd, 0xb1, 0x50, 0x14, 0x3e,
  0x48, 0x4d, 0x8e, 0xbc, 0x1d, 0x63, 0x4c, 0x3e, 0x1a, 0xb0, 0x46, 0xbe,
  0x0c, 0xc4, 0x0b, 0xbe, 0xd8, 0x7d, 0x4a, 0xbe, 0x50, 0x3a, 0x7f, 0xbc,
  0x7a, 0x53, 0xf2, 0xbd, 0x00, 0x52, 0xfe, 0x36, 0x0b, 0xd7, 0x4c, 0xbe,
  0x66, 0x75, 0xa2, 0x3d, 0x9f, 0xce, 0x24, 0x3e, 0x6a, 0x5a, 0x37, 0xbe,
  0x23, 0x53, 0x79, 0x3d, 0x3a, 0xf9, 0x03, 0xbe, 0x9a, 0x54, 0x18, 0x3e,
  0x9d, 0x33, 0x0b, 0x3e, 0xb6, 0xb8, 0x0a, 0x3e, 0x4e, 0x82, 0x5a, 0xbe,
  0x15, 0x85, 0x17, 0x3e, 0x48, 0x3e, 0x43, 0xbd, 0x65, 0x3f, 0xa2, 0x3d,
  0x58, 0xd5, 0x3e, 0xbe, 0xf9, 0xa6, 0x0f, 0x3e, 0x7b, 0xb4, 0x89, 0x3d,
  0xbd, 0x94, 0xeb, 0x3d, 0x1a, 0xf6, 0xd8, 0xbc, 0xdc, 0x72, 0x04, 0xbd,
  0x05, 0x9b, 0x30, 0xbe, 0x1a, 0x8c, 0xce, 0xbd, 0xe2, 0x87, 0xb7, 0x3d,
  0xf7, 0xc5, 0x13, 0xbe, 0x80, 0x22, 0x45, 0xbe, 0xbb, 0x6b, 0xc7, 0x3b,
  0x1d, 0xa6, 0x40, 0xbd, 0xe0, 0xab, 0x8e, 0xbd, 0x09, 0xd8, 0xbc, 0x3c,
  0x95, 0xac, 0x38, 0x3e, 0x7e, 0xaf, 0xc6, 0x3d, 0xe0, 0x12, 0xe3, 0x3c,
  0x80, 0x32, 0x2f, 0xbb, 0xfe, 0x1a, 0xfd, 0xbd, 0xbf, 0xfe, 0x2c, 0x3d,
  0x04, 0x65, 0xef, 0xbd, 0xcc, 0xce, 0xd3, 0xbd, 0x90, 0xc6, 0x13, 0xbc,
  0x74, 0xd2, 0x3a, 0xbe, 0x0e, 0x8e, 0x35, 0xbe, 0xdb, 0x4b, 0x3a, 0xbe,
  0x99, 0x1f, 0x92, 0x3d, 0x66, 0xbd, 0x8a, 0x3d, 0x10, 0xe8, 0x6b, 0xbc,
  0x20, 0x67, 0xe8, 0xbb, 0xad, 0x4d, 0x31, 0xbe, 0xc7, 0x68, 0x0d, 0xbd,
  0x14, 0x3a, 0x30, 0xbe, 0x67, 0x8a, 0x45, 0xbe, 0x80, 0x00, 0xd4, 0xbc,
  0x24, 0xb1, 0x16, 0xbe, 0x15, 0x92, 0x5c, 0x3c, 0x4e, 0x81, 0x50, 0xbe,
  0xb2, 0xbb, 0x90, 0xba, 0x70, 0xf8, 0x9c, 0x3c, 0x0b, 0xba, 0x14, 0x3d,
  0x08, 0x04, 0x4c, 0xbe, 0xbc, 0xc6, 0x21, 0xbd, 0xc2, 0x3a, 0xd8, 0xbd,
  0x78, 0x15, 0x9e, 0xbc, 0x56, 0x42, 0xd3, 0x3d, 0x50, 0x1d, 0x71, 0x3c,
  0x9c, 0x90, 0x29, 0xbd, 0x08, 0x47, 0x1b, 0x3e, 0xfe, 0x5f, 0xc6, 0x3d,
  0x0e, 0x59, 0xde, 0x3d, 0x5d, 0x6e, 0x12, 0x3e, 0xa1, 0x65, 0x2a, 0x3c,
  0x81, 0x30, 0xce, 0xbd, 0x3f, 0x3e, 0x1b, 0x3e, 0x5a, 0x08, 0xd1, 0x3d,
  0x55, 0x43, 0x32, 0x3e, 0xd0, 0xa7, 0x58, 0xbe, 0xa4, 0x99, 0x5a, 0xbe,
  0x24, 0x63, 0x2c, 0x3d, 0x0f, 0xdc, 0xa3, 0xbd, 0x48, 0x55, 0xf7, 0xbd,
  0x5a, 0x90, 0xc2, 0x3d, 0x08, 0xcb, 0xd9, 0x3c, 0x54, 0xff, 0xdc, 0xbd,
  0x68, 0x53, 0x2a, 0xbd, 0xec, 0xf6, 0x3a, 0x3d, 0x72, 0x70, 0xfd, 0xba,
  0x0a, 0x3c, 0x8d, 0x3e, 0x18, 0xc1, 0xf7, 0x3d, 0x96, 0xd2, 0xb8, 0x3d,
  0xbd, 0x11, 0x77, 0x3e, 0x7c, 0xef, 0x80, 0x3d, 0x3b, 0xef, 0x17, 0x3e,
  0x0e, 0xc0, 0xb2, 0x3e, 0x4b, 0x32, 0x78, 0x3e, 0xe8, 0xef, 0x8d, 0x3e,
  0x59, 0x5d, 0xec, 0x3e, 0xb5, 0x1f, 0xde, 0x3e, 0x8a, 0x1a, 0x87, 0x3e,
  0xc2, 0x6a, 0xd0, 0x3e, 0xbd, 0x4e, 0xb6, 0x3e, 0x10, 0xb5, 0x8f, 0x3e,
  0xd5, 0xf2, 0x20, 0x3e, 0xed, 0xdd, 0x5e, 0x3e, 0xc0, 0x11, 0xef, 0x3e,
  0x24, 0x6c, 0x92, 0x3e, 0xd7, 0x03, 0xca, 0x3e, 0xab, 0xf8, 0xbf, 0x3e,
  0x64, 0x87, 0xb1, 0x3e, 0x76, 0x03, 0xb1, 0x3e, 0x53, 0xaf, 0xb2, 0x3e,
  0xe2, 0x7c, 0x86, 0x3e, 0xa0, 0x39, 0xa1, 0x3e, 0xa5, 0xa2, 0xd5, 0x3d,
  0x38, 0x97, 0xbd, 0x3a, 0xda, 0x3a, 0xd7, 0x3e, 0x52, 0x57, 0x76, 0x3e,
  0xa5, 0xd7, 0xde, 0x3d, 0xc4, 0x2b, 0xcc, 0x3e, 0x85, 0x43, 0xb3, 0x3e,
  0xe6, 0x4a, 0x6c, 0x3e, 0x7a, 0xb8, 0x8e, 0x3e, 0x54, 0xdc, 0xa5, 0x3e,
  0xb4, 0x6a, 0x5c, 0x3e, 0x1a, 0xcf, 0x21, 0x3e, 0x31, 0x95, 0x7a, 0x3e,
  0x4c, 0x57, 0xba, 0x3e, 0x23, 0x45, 0xe8, 0x3e, 0xfe, 0x21, 0xc0, 0x3d,
  0x63, 0x4b, 0x1f, 0x3e, 0xfc, 0xec, 0x88, 0x3e, 0x8f, 0xb5, 0xf6, 0x3d,
  0xbb, 0xaf, 0xf8, 0x3e, 0x44, 0x77, 0xab, 0xbc, 0x08, 0xe9, 0x74, 0x3e,
  0x56, 0xc3, 0xa3, 0x3d, 0xa2, 0x1e, 0x7a, 0x3d, 0x36, 0x2e, 0xc9, 0x3a,
  0x70, 0x0a, 0x3c, 0x3e, 0x48, 0x45, 0x25, 0x3e, 0xdf, 0x0b, 0x82, 0x3e,
  0xde, 0x75, 0x18, 0x3e, 0x30, 0x9b, 0x0e, 0x3f, 0x25, 0xe6, 0x64, 0x3e,
  0xa8, 0x5f, 0x60, 0x3e, 0x4e, 0x90, 0x8c, 0x3e, 0x5d, 0xa5, 0xca, 0x3e,
  0xd7, 0x17, 0x5c, 0x3e, 0xaf, 0x1b, 0xcc, 0x3d, 0xf8, 0xf6, 0x23, 0x3e,
  0xe4, 0x09, 0x59, 0x3d, 0x73, 0x16, 0x0d, 0x3e, 0x68, 0x5e, 0xf5, 0x3d,
  0x98, 0xba, 0x1a, 0xbe, 0x48, 0x12, 0xb7, 0xbd, 0x81, 0xb2, 0x20, 0xbe,
  0xef, 0x27, 0xfc, 0xbd, 0xcd, 0x49, 0x07, 0x3d, 0x82, 0x99, 0x81, 0x3c,
  0xe3, 0x0b, 0x11, 0x3e, 0x73, 0x21, 0xd8, 0xbd, 0x62, 0xad, 0x86, 0xbd,
  0xaf, 0x36, 0x52, 0xbe, 0xf1, 0x56, 0x85, 0x3d, 0x8a, 0x67, 0x08, 0x3e,
  0x6c, 0xcb, 0x1a, 0x3e, 0x97, 0x49, 0x0f, 0x3d, 0x40, 0x21, 0xbb, 0xbd,
  0x13, 0x4f, 0x9b, 0xbb, 0x84, 0x6d, 0xb5, 0x3d, 0xd7, 0x75, 0xf1, 0x3d,
  0xe0, 0x51, 0x61, 0xbe, 0x7c, 0xa2, 0xc4, 0x3b, 0xa4, 0x86, 0x12, 0xbe,
  0xef, 0x1f, 0x7a, 0xbe, 0x4b, 0x51, 0x70, 0xbe, 0x1a, 0x82, 0xbd, 0x3d,
  0x16, 0xb5, 0x42, 0xbd, 0xa6, 0xc0, 0xda, 0x3d, 0x6a, 0xd3, 0x98, 0xbd,
  0xed, 0xdb, 0x0c, 0xbd, 0xa4, 0x02, 0x04, 0x3e, 0xcc, 0x16, 0x09, 0xba,
  0x65, 0x25, 0x1e, 0xbe, 0x7c, 0xb3, 0x34, 0xbe, 0x0e, 0xf1, 0xca, 0x3d,
  0xec, 0x62, 0x27, 0x3d, 0x29, 0x4c, 0x99, 0xbd, 0xa0, 0xe1, 0xaf, 0xbc,
  0xda, 0xf6, 0xe4, 0xbc, 0xcf, 0xd4, 0x23, 0x3d, 0xa9, 0x4e, 0x7d, 0xbc,
  0xe9, 0xdf, 0x85, 0x3d, 0x26, 0xe1, 0x4d, 0xbd, 0x47, 0x2f, 0x90, 0xbc,
  0x28, 0xa3, 0xe1, 0x3d, 0x5d, 0x29, 0x29, 0xbe, 0x77, 0xff, 0x0f, 0xbe,
  0x30, 0x25, 0x9b, 0xbd, 0xdf, 0xba, 0xd7, 0x3d, 0x4e, 0xf6, 0xe7, 0x3d,
  0xab, 0xa1, 0xd3, 0xbc, 0x1a, 0x31, 0x4b, 0xbe, 0x24, 0xdf, 0x05, 0x3e,
  0xaa, 0xe3, 0xbc, 0x3b, 0xb7, 0x55, 0x79, 0xbe, 0x5b, 0xfd, 0x15, 0x3e,
  0x00, 0xe2, 0x11, 0x3e, 0xcc, 0xdf, 0xc7, 0xbc, 0x66, 0x59, 0x06, 0xbe,
  0xbe, 0x59, 0xe7, 0x3d, 0xb1, 0x58, 0x8c, 0x3d, 0xb2, 0xf0, 0xee, 0x3d,
  0xd5, 0x99, 0xcf, 0xbd, 0x5c, 0x7a, 0x01, 0x3e, 0x19, 0xb4, 0x52, 0x3d,
  0xdf, 0xca, 0x2f, 0xbe, 0xfb, 0x33, 0x4f, 0x3e, 0x7f, 0xde, 0x7c, 0x3c,
  0x46, 0xb6, 0x1a, 0xbe, 0x17, 0x8a, 0xe7, 0x3d, 0x9e, 0x92, 0x62, 0xbd,
  0xd9, 0x34, 0xfb, 0x3d, 0xaa, 0x0c, 0x3d, 0xbd, 0xb6, 0xe2, 0xce, 0xbe,
  0xa9, 0xc5, 0x4c, 0xbe, 0xa0, 0x3d, 0x3d, 0xbd, 0x6a, 0x1b, 0x3b, 0xbe,
  0xb8, 0x9f, 0x87, 0x3e, 0x58, 0x4a, 0x5a, 0xbe, 0x7c, 0x5a, 0xa3, 0xbc,
  0x13, 0xa2, 0x95, 0x3b, 0x24, 0xd5, 0x4b, 0xbe, 0xb3, 0x48, 0x26, 0x3d,
  0x17, 0xaf, 0x15, 0x3e, 0x9c, 0x6e, 0x23, 0xbe, 0x79, 0xb3, 0x1d, 0xbe,
  0x64, 0xab, 0xce, 0xbc, 0xa6, 0xf5, 0xa7, 0xbe, 0x8d, 0x0b, 0x16, 0x3e,
  0x7b, 0x08, 0x16, 0xbd, 0x49, 0x27, 0x15, 0xbc, 0x43, 0x27, 0xcc, 0xbe,
  0xd1, 0x27, 0x1d, 0xbd, 0xd1, 0x5e, 0xfc, 0x3d, 0x7a, 0x16, 0x5c, 0x3e,
  0xe2, 0x30, 0x29, 0x3e, 0x75, 0x32, 0xf2, 0xbc, 0x66, 0x06, 0xd4, 0x3c,
  0xe3, 0xc1, 0xcf, 0xbe, 0xb9, 0x68, 0xd5, 0x3d, 0xf7, 0x24, 0x95, 0x3d,
  0xf4, 0xed, 0xa3, 0x3e, 0x0c, 0x81, 0x43, 0xbd, 0xfb, 0x88, 0x1f, 0xbd,
  0x32, 0x73, 0x5d, 0xbd, 0x4b, 0xd3, 0x99, 0xbd, 0x81, 0x2f, 0xc5, 0x3c,
  0x03, 0x5e, 0xca, 0x3c, 0xe1, 0x01, 0x96, 0x3d, 0x51, 0xa6, 0x6d, 0xbe,
  0x43, 0x7d, 0xea, 0x3d, 0xc8, 0x94, 0x5a, 0xbe, 0x14, 0xde, 0x90, 0x3e,
  0x5d, 0xb8, 0xb5, 0xbe, 0xb5, 0xc6, 0x14, 0xbe, 0xaf, 0xdc, 0x06, 0xbe,
  0xe0, 0xc5, 0x1f, 0xbe, 0x10, 0x3e, 0xa5, 0xbb, 0xa3, 0xed, 0xff, 0xbd,
  0xa6, 0xaa, 0x04, 0xbe, 0xea, 0x6a, 0xbb, 0xbd, 0x26, 0x25, 0x04, 0xbd,
  0xae, 0x86, 0x7c, 0xbe, 0xe2, 0x08, 0x1a, 0x3e, 0x34, 0xbc, 0xeb, 0x3d,
  0x94, 0x37, 0x40, 0x3d, 0x49, 0x4e, 0x6a, 0xbe, 0xcf, 0xe5, 0x56, 0xbe,
  0xd2, 0xa5, 0x2f, 0xbd, 0x53, 0x53, 0x71, 0xbe, 0xbb, 0x48, 0xfd, 0x3d,
  0x9e, 0xc3, 0x87, 0xbd, 0xa4, 0x0d, 0x00, 0xbe, 0x5f, 0xf9, 0x02, 0x3d,
  0x4b, 0x61, 0x1a, 0x3e, 0xcb, 0x49, 0xcd, 0xbd, 0x1f, 0x33, 0xd3, 0xbd,
  0xb2, 0xe7, 0x15, 0x3c, 0xcc, 0xf1, 0xe2, 0x3c, 0x56, 0xfe, 0x85, 0x3d,
  0xe3, 0xb6, 0x56, 0x3c, 0x63, 0xbc, 0x42, 0x3d, 0xf2, 0xca, 0xb0, 0xbd,
  0x8c, 0xb9, 0x19, 0x3e, 0x7e, 0xea, 0xe1, 0x3c, 0x76, 0x10, 0xa5, 0x3d,
  0xd7, 0xa9, 0xf5, 0x3c, 0xd3, 0x14, 0x00, 0xbe, 0x50, 0x38, 0x70, 0xbe,
  0x82, 0xe7, 0x15, 0xbe, 0xb7, 0xf7, 0xe2, 0xbd, 0x53, 0xc7, 0xc6, 0xbc,
  0x2f, 0x29, 0xca, 0xbd, 0x88, 0x41, 0x31, 0x3e, 0xe4, 0x51, 0x1d, 0xbe,
  0x72, 0xa0, 0x34, 0x3e, 0xec, 0x57, 0x0c, 0x3e, 0x5c, 0xaf, 0x32, 0x3e,
  0x88, 0x22, 0x53, 0xbe, 0x15, 0x6a, 0x0b, 0xbd, 0x6f, 0xef, 0x46, 0xbd,
  0x27, 0x1a, 0x70, 0x3d, 0xf8, 0x73, 0x08, 0xbe, 0x44, 0x44, 0xe6, 0xbd,
  0x0b, 0x1d, 0x66, 0xbe, 0xa0, 0x82, 0x7b, 0xbd, 0xd0, 0xbf, 0x0f, 0x3e,
  0xc2, 0x8a, 0x9a, 0xbd, 0xe0, 0x0d, 0xc0, 0xbd, 0xd5, 0x5d, 0x11, 0xbe,
  0xa5, 0xc4, 0xf2, 0x3d, 0x11, 0xcf, 0xdd, 0x3d, 0x84, 0xfc, 0x0a, 0x3e,
  0xd4, 0x5b, 0xe4, 0xbd, 0x01, 0xd0, 0xd8, 0xbd, 0xf1, 0xa8, 0x3a, 0xbe,
  0xa1, 0x2f, 0x1a, 0x3e, 0x84, 0x88, 0x1d, 0xbe, 0xb1, 0xb7, 0x9a, 0x3d,
  0xf7, 0x27, 0x0d, 0xbe, 0x1f, 0xfa, 0x02, 0xbd, 0x68, 0xfe, 0x36, 0x3e,
  0x27, 0xe1, 0x16, 0x3e, 0x27, 0x7a, 0xd2, 0x3d, 0xca, 0x02, 0xd6, 0xbd,
  0x31, 0x3f, 0x5f, 0xbc, 0x5e, 0x54, 0x3c, 0xbd, 0x26, 0x8b, 0x07, 0xbe,
  0x52, 0x7a, 0xd7, 0x3d, 0xf5, 0x9f, 0xe0, 0xbd, 0xfb, 0x68, 0xa1, 0xbc,
  0x57, 0x8d, 0x0c, 0xbe, 0xb2, 0x80, 0x82, 0xbe, 0xc7, 0x44, 0x10, 0x3e,
  0x4f, 0xcf, 0xb6, 0xbc, 0xf6, 0xc3, 0xc9, 0xbd, 0xf3, 0x49, 0xcd, 0x3c,
  0x54, 0xbb, 0x0e, 0x3e, 0x99, 0xac, 0x23, 0xbe, 0x36, 0x4e, 0x19, 0x3d,
  0x17, 0x4f, 0xe5, 0x3d, 0x74, 0x14, 0x54, 0xbe, 0xd4, 0xd6, 0x8e, 0x3d,
  0x02, 0x27, 0xb0, 0xbd, 0x18, 0x50, 0xa2, 0x3d, 0x6d, 0x22, 0xa2, 0x3d,
  0xfb, 0x48, 0x31, 0xbe, 0x79, 0x14, 0xe2, 0x3d, 0x32, 0x7e, 0x18, 0xbb,
  0x04, 0x3a, 0x82, 0x3d, 0x3c, 0x57, 0x00, 0x3e, 0xfe, 0x0c, 0xb4, 0x3d,
  0x0d, 0x60, 0xe9, 0x3d, 0x13, 0x65, 0x80, 0xbe, 0xea, 0x4f, 0x16, 0xbe,
  0x60, 0xa4, 0x77, 0xbe, 0xc5, 0xd8, 0x2c, 0xbe, 0xdf, 0xbe, 0x4d, 0xbe,
  0x98, 0xf3, 0x65, 0xbe, 0x89, 0x20, 0xb9, 0x3c, 0x4d, 0xec, 0x11, 0x3e,
  0x36, 0x3d, 0x25, 0x3d, 0x84, 0x65, 0x09, 0xbc, 0xfa, 0xe0, 0x05, 0xbd,
  0x33, 0xf8, 0x08, 0x3e, 0xf6, 0x7d, 0xc5, 0x3d, 0x30, 0x3e, 0x02, 0x3e,
  0x91, 0x99, 0x7b, 0xbe, 0x2a, 0x98, 0xe7, 0x3d, 0x7d, 0xd8, 0x44, 0xbe,
  0xf8, 0x66, 0xf2, 0xbc, 0xec, 0xbd, 0xf0, 0xbc, 0xa1, 0xc9, 0xa5, 0xbc,
  0xf6, 0xa1, 0xc9, 0xbd, 0x04, 0x64, 0x88, 0xbe, 0x61, 0xa1, 0x88, 0xbe,
  0xa4, 0xe2, 0x22, 0xbd, 0x7c, 0xc6, 0xaf, 0x3d, 0xa7, 0x56, 0x81, 0x3d,
  0xb5, 0x17, 0xad, 0xbd, 0x17, 0x76, 0xd7, 0x3d, 0xa2, 0x27, 0x58, 0xbe,
  0xa9, 0xb8, 0x1f, 0xbc, 0x55, 0xd7, 0x28, 0x3e, 0xcb, 0x98, 0x0f, 0x3d,
  0xb4, 0xb5, 0x74, 0x3d, 0x8b, 0xb4, 0x91, 0xbd, 0x7d, 0x32, 0xec, 0x3d,
  0x21, 0xe8, 0x01, 0x3d, 0x02, 0x3a, 0x35, 0xbe, 0x6f, 0x78, 0x77, 0xbd,
  0xc9, 0x2f, 0x12, 0xbe, 0x9d, 0x4d, 0x4e, 0x3d, 0x02, 0xe0, 0x1c, 0x3c,
  0x0a, 0x11, 0x30, 0xbe, 0x66, 0x3c, 0xcb, 0xbc, 0x59, 0x13, 0xa2, 0xbd,
  0x3a, 0xf2, 0x24, 0xbd, 0xd6, 0xa9, 0x06, 0x3e, 0xb7, 0x6f, 0x39, 0xbe,
  0x11, 0x57, 0x73, 0xbe, 0x29, 0x23, 0x17, 0xbe, 0x0f, 0x57, 0xe7, 0x3d,
  0x36, 0x37, 0x40, 0x3d, 0xe9, 0x3f, 0x0a, 0xbe, 0xc6, 0xb6, 0xb0, 0xbd,
  0x76, 0xdf, 0x0d, 0xbd, 0x20, 0xfe, 0x27, 0x3d, 0x83, 0x87, 0xfc, 0xbd,
  0x43, 0xc9, 0xc9, 0xbd, 0x6e, 0x1b, 0x66, 0xbd, 0xe8, 0x6e, 0xbe, 0xbd,
  0xcb, 0x95, 0xb8, 0x3c, 0x07, 0x47, 0x29, 0x3e, 0x1d, 0x61, 0x8a, 0x3d,
  0x2b, 0x76, 0x88, 0x3d, 0x3c, 0x1f, 0xa0, 0xbd, 0xb2, 0x50, 0x24, 0xbe,
  0xc2, 0x9d, 0x9d, 0x3d, 0xb0, 0xd0, 0x36, 0xbe, 0xbd, 0x80, 0x08, 0xbe,
  0x53, 0xf6, 0x9b, 0x3d, 0x5d, 0x24, 0x15, 0xbe, 0xa7, 0x8b, 0x25, 0x3e,
  0x23, 0xc1, 0x81, 0xbe, 0xe6, 0xa1, 0x10, 0xbe, 0x99, 0xe5, 0x1c, 0x3d,
  0x4c, 0x95, 0xb8, 0x3d, 0xf4, 0x1b, 0xe3, 0x3d, 0x4e, 0xa9, 0x82, 0xbb,
  0x2b, 0xa0, 0xaa, 0xbd, 0xe7, 0x2f, 0x50, 0xbe, 0x67, 0x7a, 0xeb, 0xbd,
  0xd4, 0x2f, 0x6a, 0x3d, 0x27, 0x65, 0xdd, 0x3d, 0x53, 0xe1, 0xa7, 0x3d,
  0x77, 0xc2, 0x20, 0x3c, 0x55, 0x11, 0x04, 0xbe, 0x93, 0xbf, 0xe4, 0x3c,
  0x1a, 0xcc, 0x97, 0x3c, 0x4f, 0xfe, 0xac, 0xbd, 0x90, 0xd4, 0x56, 0xbb,
  0x0d, 0xca, 0x50, 0xbe, 0x6c, 0xc6, 0xd1, 0x3d, 0x1e, 0x92, 0xaf, 0x3d,
  0xe1, 0x27, 0xd1, 0xbc, 0x12, 0x11, 0x27, 0xbe, 0xd4, 0xca, 0x83, 0xbd,
  0xe1, 0x95, 0x2c, 0x3e, 0x7e, 0xc9, 0x8d, 0x3d, 0xe6, 0x6d, 0x09, 0x3e,
  0xa0, 0xea, 0xd3, 0xbd, 0x63, 0xe6, 0x0f, 0x3e, 0xdf, 0x32, 0x85, 0x3c,
  0xdf, 0x99, 0x7c, 0xbd, 0x9f, 0xa0, 0xd7, 0x3d, 0xdb, 0x16, 0x0f, 0xbb,
  0xe5, 0x13, 0x82, 0x3d, 0x07, 0xa3, 0x02, 0x3e, 0x64, 0xc7, 0x0c, 0x3d,
  0x36, 0x28, 0x07, 0x3e, 0x61, 0xfd, 0x82, 0xbd, 0x0a, 0x13, 0xac, 0x3d,
  0x36, 0x35, 0xa7, 0x3c, 0x0f, 0xef, 0x24, 0xbe, 0x34, 0x8a, 0xee, 0xbc,
  0xe0, 0xa1, 0x5e, 0x3d, 0x3d, 0x9f, 0x4b, 0xbe, 0x9d, 0x91, 0x22, 0x3d,
  0x1b, 0xbc, 0xad, 0x3b, 0xf5, 0x1c, 0x66, 0x3d, 0x08, 0xe0, 0xf6, 0xbd,
  0xde, 0xab, 0x4d, 0xbd, 0xc0, 0x7c, 0x0d, 0xbe, 0xcd, 0x65, 0xbc, 0x3c,
  0x78, 0x0e, 0x84, 0x3d, 0x18, 0x51, 0x47, 0x3d, 0xf7, 0x77, 0x6d, 0xbe,
  0x4e, 0x29, 0x2f, 0xbe, 0x3b, 0x7c, 0x77, 0xbd, 0x5a, 0xbc, 0xb0, 0x3d,
  0x82, 0x25, 0x6f, 0x3d, 0x1f, 0xa8, 0x71, 0xbe, 0x6f, 0x9c, 0xef, 0xbc,
  0x7e, 0x8b, 0x6b, 0xbd, 0x4c, 0xbf, 0x67, 0x3d, 0xba, 0x22, 0x07, 0x3e,
  0x2f, 0x42, 0x15, 0x3c, 0x67, 0x18, 0x86, 0xbd, 0x8c, 0xff, 0xac, 0xbd,
  0x89, 0x4c, 0x0a, 0x3e, 0x03, 0x55, 0x5b, 0xbe, 0x97, 0x1b, 0x1d, 0x3e,
  0xca, 0x75, 0x9c, 0xbc, 0x5e, 0x40, 0xea, 0x3d, 0xec, 0xdb, 0xbc, 0x3c,
  0xe6, 0xd1, 0x63, 0xbe, 0x08, 0x7e, 0x03, 0x3e, 0x7f, 0x1d, 0xdb, 0x3d,
  0x3c, 0xd1, 0x31, 0x3d, 0x6e, 0x37, 0x4f, 0x3d, 0xa0, 0xa6, 0x61, 0xbe,
  0xef, 0x2a, 0xa6, 0x3d, 0xa9, 0x6f, 0x2e, 0xbd, 0xe4, 0x0a, 0x33, 0x3e,
  0x25, 0x6d, 0x41, 0xbd, 0x3d, 0xdf, 0xd1, 0x3d, 0x95, 0xf9, 0x1f, 0xbe,
  0x90, 0x79, 0x06, 0xbe, 0x02, 0x98, 0x1a, 0xbe, 0xb3, 0x32, 0x14, 0xbe,
  0x11, 0xe1, 0x71, 0x3d, 0xaf, 0xa4, 0xde, 0x3d, 0xbe, 0x8d, 0xf9, 0x3d,
  0xca, 0x15, 0xf3, 0xbd, 0xba, 0xda, 0xa4, 0x3c, 0x49, 0xde, 0x84, 0x3d,
  0xdc, 0x62, 0x6f, 0xbe, 0x1b, 0x6d, 0xca, 0xbd, 0x4b, 0x74, 0x34, 0x3e,
  0x6f, 0xd3, 0x5b, 0xbe, 0x9e, 0xd1, 0x12, 0x3e, 0xc3, 0xf8, 0x6d, 0xbe,
  0xe7, 0x38, 0x6c, 0xbe, 0xb6, 0x67, 0x5c, 0x3d, 0xf0, 0x1f, 0x34, 0x3e,
  0x48, 0x1e, 0x4f, 0x3d, 0x8b, 0x59, 0x31, 0xbc, 0xbf, 0xd8, 0x12, 0xbe,
  0x6a, 0x3d, 0xb1, 0xbd, 0xa4, 0x1f, 0x2d, 0x3e, 0xb4, 0xb4, 0x9c, 0x3d,
  0x26, 0x97, 0x17, 0xbe, 0x25, 0x03, 0x05, 0xbe, 0xc9, 0xf6, 0x88, 0x3d,
  0x3c, 0x7c, 0xc2, 0x3d, 0x24, 0xba, 0xc4, 0x3d, 0xc5, 0x54, 0xc6, 0xbd,
  0x14, 0x2b, 0xe6, 0xbd, 0xa7, 0x16, 0x0c, 0xbe, 0x3a, 0xfb, 0x20, 0x3b,
  0x49, 0x47, 0x06, 0xbe, 0x58, 0xad, 0xa1, 0x3d, 0xd2, 0x19, 0xc9, 0x3d,
  0x7b, 0xd9, 0x76, 0xbe, 0x9f, 0x5f, 0x04, 0xbe, 0x64, 0xf7, 0x14, 0xbe,
  0xac, 0x9a, 0x65, 0xba, 0x84, 0xfc, 0x02, 0xbe, 0x7e, 0x02, 0xfc, 0x3d,
  0x53, 0x4c, 0x5a, 0xbd, 0x51, 0x45, 0x31, 0xbe, 0xc4, 0x23, 0xd0, 0x3d,
  0xf2, 0x45, 0x8f, 0xbd, 0x2a, 0xc8, 0x04, 0xbe, 0x4e, 0x03, 0xc9, 0x3d,
  0xfe, 0xf0, 0xff, 0x3c, 0x0e, 0x9a, 0x84, 0xbe, 0x57, 0x1a, 0xd7, 0xbc,
  0x58, 0xa6, 0xb6, 0xbd, 0x7f, 0x57, 0xab, 0x3c, 0xe8, 0x30, 0xe7, 0xbb,
  0x4f, 0x57, 0x7e, 0xbe, 0x0b, 0x88, 0x24, 0xbe, 0xbf, 0x65, 0xf3, 0x3d,
  0x20, 0x8e, 0x96, 0x3d, 0x5c, 0x8b, 0x5b, 0x3c, 0xe2, 0xfa, 0x4a, 0xbe,
  0x81, 0x2f, 0x1a, 0x3e, 0x5c, 0xd8, 0x96, 0x3d, 0xe0, 0x78, 0x23, 0x3d,
  0xd1, 0x78, 0x20, 0xbe, 0x94, 0xe4, 0x60, 0xbe, 0xcd, 0x8c, 0x3e, 0xbd,
  0x6c, 0x5a, 0x12, 0x3e, 0xe7, 0xd7, 0x0c, 0xbe, 0xd7, 0x92, 0xca, 0xbc,
  0xf7, 0x05, 0x95, 0x3d, 0xf9, 0xda, 0xbb, 0x3d, 0x4a, 0x0d, 0xd1, 0xbd,
  0xbd, 0x83, 0x15, 0x3e, 0x29, 0x69, 0x4a, 0x3d, 0xdc, 0x67, 0x20, 0x3e,
  0x8a, 0x4a, 0x85, 0x3d, 0x00, 0xbe, 0x47, 0xbe, 0xd8, 0x37, 0xb7, 0xbd,
  0x75, 0xb5, 0x71, 0xbe, 0x2c, 0x5f, 0x83, 0x3e, 0xe7, 0xa5, 0xa4, 0x3e,
  0x4b, 0xe3, 0xa3, 0x3e, 0x5a, 0x96, 0x60, 0x3d, 0x08, 0xa1, 0xe3, 0x3e,
  0x30, 0x17, 0x4f, 0x3e, 0xc2, 0xef, 0x96, 0x3d, 0xee, 0x21, 0x91, 0x3e,
  0xc7, 0x58, 0xa6, 0x3e, 0x64, 0x14, 0x4d, 0x3d, 0x0a, 0xd5, 0x13, 0x3e,
  0x87, 0x80, 0xaf, 0x3e, 0xb2, 0xe5, 0x3e, 0x3e, 0x2e, 0x31, 0x27, 0x3e,
  0x48, 0xb8, 0xca, 0x3e, 0x53, 0x09, 0xc5, 0x3e, 0xa3, 0x53, 0x8e, 0x3e,
  0x4c, 0xc5, 0xb9, 0x3e, 0xdc, 0x8d, 0xdd, 0x3d, 0xf2, 0xee, 0xcd, 0x3e,
  0xe8, 0x96, 0x53, 0x3d, 0x9a, 0xfc, 0xbe, 0x3e, 0x09, 0x6c, 0x87, 0x3e,
  0x15, 0x25, 0xfd, 0x3d, 0xf4, 0x6f, 0x45, 0x3d, 0x28, 0xc7, 0xc2, 0xbd,
  0x17, 0x05, 0x25, 0x3c, 0x50, 0x01, 0xfd, 0x3e, 0xaf, 0xcb, 0xcb, 0x3e,
  0x62, 0x02, 0xad, 0x3e, 0xed, 0xd9, 0x01, 0x3e, 0x86, 0x1d, 0xcd, 0x3e,
  0xe0, 0x09, 0x62, 0x3e, 0x1b, 0x89, 0x4c, 0x3e, 0x62, 0xc4, 0x9a, 0x3e,
  0xb6, 0x77, 0xfd, 0x3d, 0xd8, 0x95, 0x96, 0x3e, 0x06, 0x0c, 0x71, 0x3e,
  0x31, 0x07, 0x81, 0x3e, 0x71, 0x8a, 0x79, 0x3e, 0x4a, 0x3d, 0xbd, 0x3d,
  0x80, 0x57, 0x0b, 0x3f, 0xd8, 0x05, 0xae, 0x3e, 0x04, 0xf8, 0x93, 0x3e,
  0xa6, 0x93, 0xf4, 0x3e, 0x2f, 0x69, 0xc7, 0x3e, 0x66, 0xa4, 0x4a, 0x3e,
  0xb5, 0x5b, 0xab, 0x3e, 0xc7, 0xf9, 0xa0, 0x3e, 0x39, 0x99, 0x37, 0x3e,
  0x97, 0x9a, 0xdc, 0x3e, 0x5b, 0x2e, 0xa5, 0x3e, 0xde, 0x4e, 0x61, 0x3e,
  0xba, 0xb3, 0xac, 0x3e, 0xf0, 0xf2, 0xf4, 0x3e, 0x48, 0x93, 0xbc, 0x3e,
  0x68, 0x24, 0x46, 0x3e, 0xf4, 0xf4, 0x27, 0x3e, 0xfc, 0x27, 0xf4, 0x3e,
  0xc6, 0x16, 0xb9, 0x3e, 0xf9, 0xb1, 0x9c, 0x3e, 0xfe, 0x42, 0x35, 0x3e,
  0xd4, 0x77, 0xe2, 0x3e, 0x4d, 0x62, 0x56, 0x3d, 0x62, 0xa9, 0x3e, 0xbe,
  0xd9, 0x3e, 0xcf, 0xbd, 0xa5, 0x10, 0x10, 0xbd, 0x44, 0x23, 0x26, 0x3e,
  0xa5, 0x07, 0x01, 0x3e, 0xc5, 0x09, 0x07, 0xbe, 0xf3, 0xeb, 0x42, 0xbd,
  0xe3, 0x85, 0x8f, 0x3d, 0x3d, 0x4b, 0xba, 0x3d, 0x3e, 0x1e, 0x0b, 0xbe,
  0x0d, 0xd0, 0xb0, 0xbd, 0x70, 0x63, 0xd3, 0x3c, 0x82, 0x42, 0x26, 0xbd,
  0x66, 0x85, 0x2d, 0xbe, 0x82, 0x3e, 0x6c, 0x3e, 0x62, 0x47, 0x53, 0xbe,
  0xd2, 0x20, 0x05, 0xbc, 0x24, 0x05, 0x6c, 0x3e, 0x44, 0x19, 0xc3, 0xbd,
  0x62, 0xa4, 0xdd, 0xbc, 0xd9, 0x8f, 0x20, 0xbd, 0xd9, 0x32, 0x64, 0xbd,
  0x1c, 0x83, 0x49, 0x3c, 0x9c, 0x72, 0x14, 0x3b, 0x5c, 0xda, 0xc2, 0xbe,
  0x87, 0xd9, 0x41, 0x3c, 0xc0, 0x2d, 0xd0, 0xbe, 0x81, 0x1f, 0x9e, 0xbd,
  0x3a, 0x44, 0x12, 0xbe, 0x73, 0x13, 0x77, 0xbe, 0x7a, 0x66, 0xb5, 0x3d,
  0x9f, 0x28, 0x61, 0x3e, 0x85, 0xf9, 0x41, 0x3e, 0xd2, 0xb6, 0xa8, 0xbd,
  0x58, 0xe4, 0x17, 0x3e, 0x5a, 0xcc, 0xf5, 0xbe, 0x1d, 0xe4, 0x8b, 0x3e,
  0x92, 0x74, 0xfb, 0xbc, 0x21, 0x95, 0x91, 0x3e, 0xa6, 0xb8, 0xb1, 0xbd,
  0x6c, 0x01, 0xd4, 0xbc, 0x91, 0xfb, 0xfa, 0xbd, 0x08, 0x11, 0xc4, 0xbe,
  0xe1, 0xee, 0xd7, 0xbd, 0xc2, 0x35, 0x6f, 0xbe, 0xfc, 0x4b, 0x61, 0xbc,
  0x4f, 0x47, 0xb1, 0xbe, 0xe0, 0x15, 0x5d, 0x3e, 0x96, 0x04, 0xe1, 0x3d,
  0x19, 0x9d, 0xab, 0x3d, 0x86, 0x9e, 0x8c, 0xbe, 0x22, 0x53, 0x9a, 0xbe,
  0x2a, 0xf9, 0xda, 0xbd, 0x3b, 0x96, 0x66, 0xbe, 0xc3, 0x3d, 0x80, 0xbe,
  0x8d, 0x3d, 0x6a, 0xbe, 0x34, 0xfa, 0x40, 0x3d, 0xe7, 0xa9, 0xd8, 0xbe,
  0x99, 0x95, 0x0f, 0x3e, 0x0b, 0xdd, 0x85, 0xbd, 0xb3, 0x31, 0xaf, 0x3d,
  0x56, 0x89, 0xd5, 0xbd, 0x8c, 0xc8, 0xb9, 0xbd, 0x7e, 0x3e, 0x82, 0x3d,
  0xbb, 0x73, 0x0b, 0x3e, 0xb3, 0x76, 0xb4, 0x3e, 0x8d, 0x44, 0x65, 0x3e,
  0x41, 0x15, 0x68, 0x3e, 0x9f, 0x5e, 0xc5, 0x3e, 0x1b, 0xac, 0xcf, 0x3e,
  0xba, 0x48, 0x61, 0x3e, 0xc8, 0xd8, 0xc9, 0x3e, 0xb2, 0xd0, 0x99, 0x3d,
  0xc3, 0x52, 0xc2, 0x3e, 0x2c, 0x30, 0xd9, 0x3e, 0xa0, 0x67, 0xd6, 0x3e,
  0x44, 0xd1, 0xc9, 0xbb, 0xac, 0x8d, 0x20, 0x3e, 0x64, 0x44, 0x87, 0x3e,
  0x51, 0xc9, 0xf1, 0x3d, 0xf2, 0x1c, 0xa5, 0x3e, 0x62, 0x04, 0xbe, 0x3e,
  0x37, 0x4e, 0x00, 0x3f, 0x23, 0xf2, 0xfe, 0x3e, 0xa8, 0x13, 0x9a, 0x3e,
  0x28, 0x74, 0x9e, 0x3e, 0x26, 0xe4, 0xe5, 0x3d, 0xd8, 0xf7, 0xc3, 0x3d,
  0x7b, 0x01, 0x26, 0x3e, 0x05, 0x5b, 0x9f, 0x3d, 0xe0, 0x85, 0x9e, 0x3e,
  0xb5, 0x98, 0x02, 0x3f, 0x33, 0xd5, 0xcc, 0x3d, 0x5d, 0x9b, 0x92, 0x3c,
  0x54, 0xe9, 0xb8, 0x3d, 0x08, 0xc5, 0xf1, 0x3e, 0x94, 0x23, 0x36, 0x3e,
  0x2c, 0x97, 0xd7, 0x3e, 0xe2, 0xa5, 0x84, 0x3e, 0x63, 0x69, 0xc4, 0x3e,
  0x75, 0x4f, 0x2a, 0x3e, 0x3b, 0x4d, 0xee, 0x3e, 0xe3, 0x2f, 0x6b, 0x3d,
  0x88, 0x38, 0xe3, 0x3e, 0xc1, 0x0b, 0x06, 0x3e, 0xd1, 0x83, 0x8c, 0x3e,
  0xee, 0xf3, 0x2d, 0x3e, 0xb3, 0x0c, 0x86, 0x3e, 0x60, 0xe4, 0x6e, 0x3e,
  0xde, 0x7f, 0x21, 0x3e, 0x3e, 0x03, 0xa7, 0x3e, 0xdc, 0xbe, 0xa2, 0x3e,
  0xde, 0xf9, 0x51, 0x3e, 0xd4, 0x8c, 0x0e, 0x3d, 0xe4, 0x08, 0xbf, 0x3e,
  0xa9, 0xb5, 0x54, 0x3e, 0xba, 0x12, 0xbc, 0x3e, 0xe1, 0xb5, 0xd1, 0x3e,
  0xf4, 0xe4, 0xf7, 0x3e, 0xb2, 0x74, 0x37, 0x3e, 0x75, 0x16, 0xc5, 0x3e,
  0x93, 0x44, 0x56, 0x3e, 0x80, 0xf8, 0xb0, 0x3e, 0x9e, 0xc5, 0x9a, 0x3e,
  0x6e, 0x77, 0xc7, 0x3e, 0x02, 0xd3, 0xba, 0x3e, 0x53, 0x57, 0xbc, 0x3e,
  0xa4, 0xe0, 0xcd, 0x3d, 0xcc, 0x72, 0x49, 0x3e, 0xf4, 0x9b, 0xb7, 0x3e,
  0x90, 0x2f, 0xfa, 0x3d, 0x61, 0xac, 0x9e, 0x3d, 0x9a, 0xc2, 0xe3, 0x3e,
  0x6e, 0xd9, 0x07, 0x3e, 0x61, 0x05, 0x9d, 0x3e, 0xe5, 0x4b, 0x0c, 0x3e,
  0x08, 0x7d, 0xdb, 0x3c, 0x8d, 0x94, 0xf2, 0x3d, 0xbb, 0x1f, 0xed, 0x3e,
  0x9d, 0x42, 0xe7, 0x3e, 0xa3, 0xaa, 0x25, 0x3e, 0x28, 0x7d, 0x62, 0x3e,
  0x5c, 0x41, 0x91, 0x3e, 0xa2, 0x02, 0x2e, 0x3e, 0xc6, 0x01, 0x4a, 0x3e,
  0xe0, 0x83, 0x1f, 0x3e, 0xdf, 0x8c, 0xa9, 0x3e, 0x26, 0x77, 0x83, 0x3e,
  0xc5, 0x06, 0x49, 0x3d, 0x94, 0x6c, 0xfe, 0x3e, 0x70, 0xd2, 0x9e, 0x3e,
  0xfe, 0xf1, 0x81, 0x3e, 0x5f, 0xf7, 0xa4, 0x3d, 0xe5, 0x18, 0xff, 0x3d,
  0xce, 0x5b, 0xc9, 0x3d, 0x4c, 0x19, 0x02, 0x3f, 0x5c, 0x85, 0x3c, 0x3e,
  0x16, 0x0b, 0xc5, 0x3e, 0xb1, 0xe7, 0xf9, 0x3d, 0x75, 0x5b, 0x71, 0x3e,
  0x32, 0x9a, 0x77, 0x3e, 0xe6, 0x76, 0xaa, 0x3e, 0x3f, 0x02, 0xce, 0x3d,
  0x98, 0x08, 0xbb, 0x3e, 0xa5, 0x91, 0xaf, 0x3d, 0x08, 0xfc, 0xd9, 0x3e,
  0xed, 0x3c, 0xc5, 0x3d, 0x38, 0x36, 0xbd, 0x3e, 0xdc, 0xc6, 0xbb, 0x3d,
  0x20, 0xb1, 0x46, 0x3e, 0x34, 0xce, 0xc8, 0x3e, 0x7c, 0x08, 0xf8, 0x3d,
  0xd0, 0x88, 0xba, 0x3e, 0x23, 0x72, 0xbd, 0x3d, 0xd8, 0x3e, 0xf1, 0x3e,
  0xbb, 0x24, 0xc1, 0x3e, 0x7b, 0x6f, 0xc3, 0x3d, 0xa5, 0x74, 0xdd, 0x3e,
  0xf3, 0xd2, 0xa8, 0x3d, 0x77, 0x21, 0x9c, 0x3e, 0x4e, 0xb2, 0x67, 0x3e,
  0x14, 0x45, 0x7f, 0x3e, 0xeb, 0x7b, 0xee, 0x3e, 0x42, 0xdf, 0xe6, 0x3b,
  0x27, 0x2c, 0xc9, 0x3e, 0xd8, 0x22, 0x80, 0x3e, 0xcd, 0xcc, 0x1d, 0x3e,
  0x68, 0x07, 0xbd, 0x3e, 0x34, 0x53, 0xd1, 0x3e, 0x50, 0x6b, 0x22, 0x3e,
  0xeb, 0x89, 0x58, 0x3e, 0xd2, 0x3f, 0x8f, 0xbb, 0x8d, 0x06, 0xa3, 0xbd,
  0x19, 0xa7, 0xa7, 0x3d, 0xa1, 0x24, 0x67, 0xbe, 0xfe, 0x6f, 0x4b, 0xbe,
  0xd4, 0x0e, 0xe5, 0xbd, 0xc0, 0x7c, 0xc6, 0xbd, 0x57, 0x18, 0x8d, 0xbd,
  0x01, 0x96, 0x3b, 0xbe, 0x4c, 0x1d, 0x68, 0x3d, 0x8c, 0x29, 0xf3, 0x3d,
  0xf8, 0xf7, 0x1a, 0xbe, 0x10, 0xec, 0x16, 0x3e, 0x8e, 0x2b, 0x0c, 0x3e,
  0x35, 0x3c, 0x53, 0xbd, 0xad, 0xc6, 0x8f, 0xbc, 0xce, 0xe7, 0x8c, 0x3c,
  0x32, 0x05, 0x3f, 0xbe, 0xf8, 0x96, 0x5e, 0xbd, 0xac, 0xcc, 0x55, 0xbe,
  0x6b, 0x8e, 0x24, 0xbe, 0xcc, 0x0c, 0xa0, 0x3c, 0xa0, 0x91, 0xe6, 0x3d,
  0xfd, 0x8b, 0x4c, 0x3d, 0x86, 0x38, 0x44, 0xbe, 0x79, 0x56, 0xa7, 0x3d,
  0x9a, 0x71, 0x8d, 0x3d, 0x61, 0x78, 0x17, 0xbe, 0x4a, 0x2a, 0xd2, 0x3d,
  0xf5, 0x31, 0x48, 0x3d, 0xf0, 0xac, 0x75, 0xbc, 0x3a, 0x19, 0xc6, 0xbc,
  0x0b, 0x83, 0x0e, 0xbe, 0x3e, 0x40, 0x18, 0xbe, 0x20, 0x7c, 0x0e, 0xbc,
  0x96, 0x1d, 0x4f, 0xbe, 0x51, 0x36, 0x4c, 0x3e, 0xcb, 0x2d, 0x19, 0x3e,
  0x48, 0xad, 0x61, 0xbe, 0x13, 0xf8, 0x58, 0x3e, 0x2c, 0x8b, 0x3f, 0x3e,
  0x2f, 0x42, 0xc2, 0xbd, 0xc2, 0xaf, 0x72, 0x3c, 0xea, 0xc5, 0x21, 0xbe,
  0xd7, 0xea, 0x5d, 0xbe, 0xd0, 0x48, 0xd3, 0x3c, 0x48, 0x75, 0x82, 0x3d,
  0x45, 0xc1, 0x37, 0xbe, 0x35, 0xb6, 0x2c, 0xbe, 0x61, 0x6e, 0x39, 0xbd,
  0xf8, 0x78, 0x5e, 0xbd, 0x87, 0x42, 0xb4, 0xbd, 0xf1, 0xb9, 0xde, 0xbd,
  0x93, 0x3e, 0xdd, 0x3d, 0x70, 0x74, 0x58, 0xbc, 0xf6, 0x6a, 0x2a, 0x3e,
  0x3e, 0x87, 0x0b, 0xbd, 0xdc, 0xda, 0x4b, 0x3d, 0x41, 0xf0, 0x6a, 0xbe,
  0x48, 0xc9, 0x7a, 0xbc, 0xec, 0x01, 0x35, 0xbe, 0x86, 0xc4, 0x4f, 0xbd,
  0x0a, 0xf6, 0xb6, 0x3d, 0x30, 0x14, 0xb3, 0xbd, 0x3b, 0xa3, 0x0c, 0xbe,
  0x48, 0x5a, 0xa8, 0x3e, 0x50, 0xb2, 0x48, 0x3e, 0x80, 0xa1, 0xa3, 0x3e,
  0xda, 0x39, 0xde, 0x3e, 0x44, 0x6e, 0xd7, 0x3e, 0xde, 0x2e, 0x88, 0x3e,
  0xc5, 0xb4, 0x74, 0x3d, 0x21, 0xb7, 0x5f, 0x3e, 0xb1, 0x65, 0x57, 0x3d,
  0xe7, 0x03, 0x53, 0x3e, 0x56, 0xe0, 0x62, 0x3e, 0xa4, 0xc0, 0xa4, 0x3e,
  0x49, 0x92, 0x3b, 0x3d, 0x96, 0x2d, 0x5f, 0x3e, 0x7c, 0x15, 0x61, 0x3e,
  0x0d, 0xcb, 0x8a, 0x3e, 0xd9, 0xc2, 0x88, 0x3e, 0xab, 0x91, 0x66, 0x3e,
  0x19, 0xe1, 0xc8, 0x3d, 0x37, 0x0d, 0x3e, 0x3e, 0x8f, 0xe3, 0xfc, 0x3d,
  0xe4, 0xfd, 0xb8, 0x3e, 0x6d, 0xee, 0x3f, 0x3e, 0x82, 0xc4, 0xdb, 0x3e,
  0x18, 0x0b, 0xb6, 0x3e, 0xbd, 0x16, 0x87, 0x3e, 0x4f, 0x1b, 0x0e, 0x3e,
  0xa5, 0x1f, 0x2b, 0x3e, 0xe0, 0xd0, 0x83, 0xb9, 0x54, 0x96, 0xa5, 0x3d,
  0x07, 0x34, 0xce, 0x3d, 0x0e, 0x73, 0xc0, 0x3e, 0xec, 0xd3, 0xb7, 0x3c,
  0x4b, 0xd4, 0x69, 0x3e, 0xe9, 0x2a, 0x85, 0x3d, 0xbd, 0xeb, 0xc9, 0x3e,
  0xf6, 0xaf, 0x1d, 0x3e, 0x67, 0x33, 0xf8, 0x3e, 0x3a, 0x28, 0x2e, 0x3d,
  0x3a, 0x33, 0xe0, 0x3e, 0x92, 0xf7, 0x3a, 0x3e, 0xce, 0x0d, 0xca, 0x3e,
  0x80, 0xe3, 0xad, 0x3e, 0x63, 0xb9, 0x92, 0x3e, 0xeb, 0xc1, 0x9f, 0x3e,
  0x75, 0x05, 0x93, 0x3e, 0x4e, 0xf4, 0x55, 0x3e, 0x41, 0x6d, 0xf3, 0x3d,
  0xc7, 0x64, 0xee, 0x3b, 0x8d, 0xf7, 0xa8, 0x3d, 0x47, 0xee, 0x3e, 0x3e,
  0xba, 0xcb, 0xcc, 0x3e, 0xf2, 0x7f, 0x9b, 0x3e, 0x16, 0x12, 0x81, 0x3d,
  0x7c, 0x8c, 0x28, 0x3e, 0xbc, 0xe9, 0xa0, 0x3e, 0x1c, 0xf4, 0x6b, 0x3e,
  0x0a, 0x37, 0x6d, 0x3e, 0x5c, 0x19, 0x20, 0x3e, 0x8d, 0xab, 0x8a, 0x3e,
  0x63, 0x9d, 0xe6, 0x3e, 0x20, 0xb4, 0x9a, 0x3e, 0xdc, 0x75, 0x97, 0x3e,
  0x79, 0xb8, 0xa0, 0x3e, 0x7d, 0x82, 0x7e, 0xbd, 0x7a, 0x4f, 0x15, 0x3e,
  0xe7, 0xe3, 0x28, 0xbe, 0xdc, 0xc4, 0x36, 0xbd, 0x34, 0xaf, 0x3a, 0xbe,
  0xd7, 0x03, 0x09, 0xbe, 0x2b, 0x46, 0x41, 0xbe, 0xe6, 0xe2, 0x0a, 0x3b,
  0xc7, 0x92, 0x0d, 0xbe, 0x6c, 0x4f, 0x2b, 0xbe, 0x3a, 0xe0, 0xce, 0xbd,
  0xa7, 0x6e, 0x57, 0xbe, 0x3e, 0x2f, 0xec, 0x3d, 0xaa, 0x37, 0x3f, 0x3d,
  0x26, 0xc3, 0xbe, 0x3c, 0x6f, 0x24, 0x00, 0xbe, 0x58, 0xc9, 0x3d, 0x3d,
  0xb9, 0xd3, 0x09, 0x3e, 0x75, 0xba, 0x6b, 0xbe, 0x6b, 0x4f, 0x1e, 0xbd,
  0x8b, 0xd7, 0xc1, 0x3c, 0xe2, 0x07, 0xf6, 0x3d, 0x58, 0xb8, 0xb0, 0xbd,
  0x0c, 0xcd, 0x62, 0xbe, 0xaa, 0x25, 0xd3, 0x3b, 0x98, 0x04, 0x4a, 0x3d,
  0x7c, 0x60, 0x0a, 0xbe, 0x39, 0x1f, 0x00, 0x3e, 0xe5, 0xbf, 0xcd, 0x3c,
  0x62, 0x06, 0xec, 0x39, 0xca, 0xec, 0x06, 0x3e, 0x62, 0xb9, 0xcd, 0xbc,
  0xfb, 0x67, 0xee, 0xbd, 0x2e, 0x86, 0xee, 0xbd, 0xaf, 0x66, 0x58, 0xbe,
  0x88, 0x33, 0xe1, 0x3d, 0x3f, 0x3a, 0x15, 0xbe, 0xc4, 0xe9, 0x28, 0x3e,
  0x2c, 0x1a, 0xbb, 0xbc, 0x4b, 0x87, 0x05, 0x3c, 0x51, 0xd1, 0x61, 0xbd,
  0x8d, 0x78, 0xac, 0x3c, 0x22, 0xfd, 0x01, 0x3e, 0x9f, 0x59, 0xf5, 0x3c,
  0x9f, 0xdb, 0x09, 0x3e, 0x1f, 0x48, 0xc0, 0x3c, 0xe3, 0x92, 0xc0, 0x3c,
  0x73, 0xd1, 0x4f, 0xbe, 0x5d, 0x45, 0x5f, 0xbe, 0x90, 0x9c, 0x41, 0x3e,
  0x00, 0x23, 0x2f, 0xbe, 0xe3, 0x36, 0xdf, 0xbd, 0x64, 0x7d, 0x27, 0x3e,
  0x77, 0xba, 0x2f, 0xbb, 0x5e, 0x52, 0x5f, 0xbe, 0x58, 0xe4, 0x28, 0x3d,
  0x12, 0x3c, 0x93, 0x3c, 0x6f, 0x8e, 0x12, 0x3e, 0xd2, 0x9a, 0x69, 0xbe,
  0xcc, 0x37, 0x0d, 0x3e, 0x4e, 0xf9, 0x1a, 0xbe, 0x2a, 0x5c, 0xfb, 0xbd,
  0x89, 0xfc, 0xd9, 0x3d, 0x11, 0x08, 0x43, 0xbd, 0x4c, 0x58, 0xdc, 0x3d,
  0x57, 0x44, 0x24, 0x3e, 0x5d, 0x89, 0x13, 0x3d, 0x3b, 0x83, 0xe6, 0x3e,
  0x45, 0x4c, 0x9b, 0x3e, 0x7f, 0x0e, 0xc9, 0x3e, 0x08, 0x9b, 0x3a, 0x3d,
  0x48, 0xf9, 0x8b, 0x3d, 0x83, 0x14, 0x91, 0x3d, 0x09, 0x20, 0xb0, 0x3e,
  0xdb, 0xcc, 0xc8, 0x3d, 0x4e, 0x29, 0xc1, 0x3e, 0x74, 0x10, 0xc3, 0x3e,
  0x34, 0x1b, 0xfa, 0x3e, 0x57, 0xe4, 0xd1, 0xbc, 0x15, 0x55, 0x21, 0x3e,
  0xa8, 0x3d, 0x0a, 0x3e, 0x07, 0x5d, 0xc5, 0x3e, 0x7b, 0xd8, 0x68, 0x3e,
  0x2e, 0xd0, 0xcb, 0x3e, 0xf1, 0x28, 0xdb, 0x3d, 0x48, 0x97, 0x26, 0x3e,
  0x6f, 0x1c, 0x4a, 0x3e, 0x0c, 0xdf, 0x19, 0x3e, 0x5c, 0x92, 0x1b, 0x3e,
  0x48, 0xc0, 0x4d, 0x3d, 0x0c, 0x7d, 0x8e, 0x3d, 0x5c, 0xac, 0xa9, 0x3e,
  0x61, 0x80, 0xcc, 0x3e, 0x6d, 0xf2, 0x52, 0x3e, 0x6f, 0xb8, 0x09, 0x3e,
  0xe2, 0x61, 0x79, 0x3e, 0x98, 0x30, 0x7e, 0x3e, 0xc9, 0x5b, 0x84, 0x3e,
  0x70, 0x18, 0x61, 0x3e, 0x57, 0xc3, 0x91, 0x3d, 0x4a, 0xba, 0xae, 0x3c,
  0x3b, 0x15, 0xd0, 0x3e, 0xc5, 0x38, 0xf7, 0x3d, 0x61, 0xcd, 0x0a, 0x3f,
  0x49, 0xd3, 0xa3, 0x3e, 0x1f, 0xc8, 0x9d, 0x3e, 0x89, 0xea, 0x03, 0x3f,
  0x46, 0xe4, 0x8f, 0x3d, 0x24, 0xb4, 0x49, 0x3e, 0xd3, 0xd2, 0xe4, 0x3d,
  0xb4, 0x05, 0x03, 0x3f, 0x9d, 0x61, 0xa8, 0x3e, 0x09, 0xab, 0x2d, 0x3e,
  0x95, 0xfd, 0x63, 0x3e, 0x38, 0xfd, 0x97, 0x3e, 0xf2, 0x8f, 0xc9, 0x3e,
  0x2a, 0x4d, 0x37, 0x3e, 0x84, 0xdf, 0x42, 0x3e, 0x10, 0xaa, 0xeb, 0x3e,
  0x29, 0x61, 0x32, 0x3e, 0x2e, 0xda, 0x4a, 0x3e, 0x7a, 0x4d, 0x98, 0x3d,
  0x98, 0xb0, 0x9f, 0x3e, 0xde, 0x39, 0x00, 0x3c, 0x11, 0xda, 0xa2, 0x3e,
  0xb0, 0xfb, 0xc1, 0x3e, 0x7f, 0x82, 0xae, 0x3e, 0x40, 0x6b, 0xc3, 0xbb,
  0x7b, 0xb1, 0x74, 0xbd, 0x6f, 0xd3, 0xf9, 0x3d, 0x3a, 0x5f, 0x5a, 0x3d,
  0x83, 0xa5, 0x49, 0x3e, 0x35, 0xc5, 0x5e, 0x3c, 0x82, 0x1e, 0x78, 0xbd,
  0xda, 0x54, 0x98, 0x3d, 0x39, 0x05, 0x4f, 0xbe, 0xc4, 0x4e, 0x85, 0xbe,
  0x84, 0xde, 0x8b, 0xbe, 0x4c, 0x24, 0x1d, 0xbc, 0x48, 0x68, 0x0b, 0x3d,
  0x0e, 0x34, 0xe1, 0x3d, 0x0a, 0xf4, 0xb8, 0xbd, 0x00, 0x57, 0x3e, 0xbd,
  0xb5, 0xc2, 0xc6, 0xbd, 0x9a, 0x3f, 0xab, 0xbe, 0x21, 0x3e, 0x37, 0x3e,
  0x7d, 0x0a, 0x0c, 0xbe, 0x93, 0x63, 0x41, 0xbe, 0x75, 0x0f, 0xc6, 0xbd,
  0x88, 0x77, 0xd9, 0xbc, 0x70, 0xc9, 0xc7, 0xbd, 0x46, 0x0f, 0x83, 0xbe,
  0x5b, 0xa7, 0xad, 0xbe, 0xe8, 0x67, 0xca, 0x3e, 0x2a, 0xde, 0x0f, 0xbe,
  0x92, 0x71, 0xa6, 0xbe, 0x8c, 0xb0, 0x72, 0xbd, 0x52, 0xdf, 0x68, 0x3d,
  0x8e, 0x3d, 0x44, 0x3e, 0xbb, 0xec, 0x39, 0xbd, 0x8c, 0x76, 0xdc, 0x3d,
  0xe2, 0x16, 0x0f, 0x3e, 0x8d, 0x59, 0x68, 0xbe, 0x33, 0x71, 0xaf, 0xbe,
  0x7c, 0x6d, 0x52, 0x3e, 0x0f, 0x51, 0x85, 0xbe, 0x08, 0x8c, 0x83, 0x3e,
  0x6c, 0x33, 0xcc, 0xbc, 0x12, 0x0d, 0xfb, 0xbc, 0x40, 0xfa, 0x2e, 0xbe,
  0x5e, 0x6e, 0x5d, 0xbe, 0x47, 0x5c, 0x29, 0xbe, 0xfb, 0xa6, 0x50, 0xbe,
  0x57, 0xc1, 0x16, 0xbd, 0x83, 0x1f, 0x92, 0xbc, 0x32, 0x29, 0x17, 0x3e,
  0x44, 0xb0, 0x20, 0x3e, 0x8f, 0x69, 0xb8, 0x3e, 0x66, 0x35, 0x8e, 0xbe,
  0x84, 0x4c, 0x95, 0xbe, 0x1b, 0x9b, 0x9a, 0xbe, 0x6a, 0xea, 0x1c, 0x3e,
  0x0d, 0x39, 0xe4, 0xbb, 0xc5, 0xaf, 0xe2, 0xbe, 0xa2, 0xa9, 0xe0, 0xbc,
  0x11, 0xd7, 0x59, 0xbe, 0xae, 0x53, 0x40, 0x3e, 0x1c, 0xe1, 0xa1, 0x3d,
  0x46, 0x67, 0x54, 0x3e, 0xe5, 0xd1, 0xb2, 0x3d, 0xd4, 0x27, 0x6c, 0xbe,
  0xd1, 0x81, 0x0d, 0x3e, 0x03, 0x62, 0x8f, 0x3e, 0xfe, 0xed, 0x58, 0x3e,
  0xd2, 0x92, 0xea, 0xbc, 0xec, 0xd8, 0xa3, 0x3d, 0xfb, 0x59, 0x7f, 0x3d,
  0xf6, 0xac, 0x6f, 0x3e, 0xf0, 0x5d, 0x65, 0xbd, 0xd2, 0x50, 0x2e, 0x3c,
  0x7c, 0x0d, 0x30, 0xbc, 0x48, 0x59, 0xcb, 0x3b, 0xd3, 0xa5, 0x7d, 0x3e,
  0xff, 0xe9, 0x8b, 0x3e, 0xe8, 0x17, 0x65, 0xbd, 0x90, 0x39, 0xa1, 0x3d,
  0x96, 0x6f, 0x71, 0x3e, 0x7b, 0x59, 0x83, 0x3e, 0xcc, 0x70, 0x85, 0x3d,
  0xf3, 0x23, 0x91, 0x3e, 0x9b, 0x85, 0x33, 0x3e, 0x1b, 0xe4, 0x21, 0x3e,
  0x68, 0x78, 0x93, 0xbc, 0x9a, 0x19, 0x6e, 0x3e, 0xae, 0xb0, 0x75, 0x3e,
  0x6e, 0x67, 0x6a, 0x3e, 0x79, 0x8c, 0x14, 0x3d, 0x46, 0x2a, 0x09, 0xbd,
  0x97, 0xce, 0x92, 0x3e, 0x3e, 0x2d, 0xbe, 0x3e, 0xad, 0xda, 0x80, 0x3e,
  0xe0, 0xbe, 0xfd, 0x38, 0x41, 0xaf, 0x2d, 0x3d, 0xcd, 0x6a, 0xba, 0x3e,
  0xef, 0x1b, 0x01, 0x3e, 0xe8, 0x45, 0xdd, 0x3c, 0xd2, 0x3a, 0x14, 0x3e,
  0x5f, 0xe0, 0x20, 0xbd, 0x48, 0x06, 0x37, 0x3d, 0x0f, 0x54, 0xa6, 0x3e,
  0x5f, 0x8a, 0x03, 0x3e, 0x09, 0x62, 0xc6, 0x3e, 0x2f, 0x88, 0x75, 0xbc,
  0xae, 0x56, 0x0b, 0x3e, 0x4d, 0xca, 0x6c, 0x3e, 0x63, 0xeb, 0x43, 0x3e,
  0xb7, 0x8d, 0xaa, 0x3d, 0x80, 0xc3, 0x01, 0x3c, 0x9b, 0x03, 0x9f, 0x3e,
  0x2a, 0x7a, 0x22, 0xbd, 0x9d, 0xb3, 0x0a, 0x3e, 0xca, 0x50, 0x1e, 0xbd,
